[PAD]
[unused0]
[unused1]
[unused2]
[unused3]
[unused4]
[unused5]
[unused6]
[unused7]
[unused8]
[unused9]
[unused10]
[unused11]
[unused12]
[unused13]
[unused14]
[unused15]
[unused16]
[unused17]
[unused18]
[unused19]
[unused20]
[unused21]
[unused22]
[unused23]
[unused24]
[unused25]
[unused26]
[unused27]
[unused28]
[unused29]
[unused30]
[unused31]
[unused32]
[unused33]
[unused34]
[unused35]
[unused36]
[unused37]
[unused38]
[unused39]
[unused40]
[unused41]
[unused42]
[unused43]
[unused44]
[unused45]
[unused46]
[unused47]
[unused48]
[unused49]
[unused50]
[unused51]
[unused52]
[unused53]
[unused54]
[unused55]
[unused56]
[unused57]
[unused58]
[unused59]
[unused60]
[unused61]
[unused62]
[unused63]
[unused64]
[unused65]
[unused66]
[unused67]
[unused68]
[unused69]
[unused70]
[unused71]
[unused72]
[unused73]
[unused74]
[unused75]
[unused76]
[unused77]
[unused78]
[unused79]
[unused80]
[unused81]
[unused82]
[unused83]
[unused84]
[unused85]
[unused86]
[unused87]
[unused88]
[unused89]
[unused90]
[unused91]
[unused92]
[unused93]
[unused94]
[unused95]
[unused96]
[unused97]
[unused98]
[UNK]
[CLS]
[SEP]
[MASK]
[unused99]
[unused100]
[unused101]
[unused102]
[unused103]
[unused104]
[unused105]
[unused106]
[unused107]
[unused108]
[unused109]
[unused110]
[unused111]
[unused112]
[unused113]
[unused114]
[unused115]
[unused116]
[unused117]
[unused118]
[unused119]
[unused120]
[unused121]
[unused122]
[unused123]
[unused124]
[unused125]
[unused126]
[unused127]
[unused128]
[unused129]
[unused130]
[unused131]
[unused132]
[unused133]
[unused134]
[unused135]
[unused136]
[unused137]
[unused138]
[unused139]
[unused140]
[unused141]
[unused142]
[unused143]
[unused144]
[unused145]
[unused146]
[unused147]
[unused148]
[unused149]
[unused150]
[unused151]
[unused152]
[unused153]
[unused154]
[unused155]
[unused156]
[unused157]
[unused158]
[unused159]
[unused160]
[unused161]
[unused162]
[unused163]
[unused164]
[unused165]
[unused166]
[unused167]
[unused168]
[unused169]
[unused170]
[unused171]
[unused172]
[unused173]
[unused174]
[unused175]
[unused176]
[unused177]
[unused178]
[unused179]
[unused180]
[unused181]
[unused182]
[unused183]
[unused184]
[unused185]
[unused186]
[unused187]
[unused188]
[unused189]
[unused190]
[unused191]
[unused192]
[unused193]
[unused194]
[unused195]
[unused196]
[unused197]
[unused198]
[unused199]
[unused200]
[unused201]
[unused202]
[unused203]
[unused204]
[unused205]
[unused206]
[unused207]
[unused208]
[unused209]
[unused210]
[unused211]
[unused212]
[unused213]
[unused214]
[unused215]
[unused216]
[unused217]
[unused218]
[unused219]
[unused220]
[unused221]
[unused222]
[unused223]
[unused224]
[unused225]
[unused226]
[unused227]
[unused228]
[unused229]
[unused230]
[unused231]
[unused232]
[unused233]
[unused234]
[unused235]
[unused236]
[unused237]
[unused238]
[unused239]
[unused240]
[unused241]
[unused242]
[unused243]
[unused244]
[unused245]
[unused246]
[unused247]
[unused248]
[unused249]
[unused250]
[unused251]
[unused252]
[unused253]
[unused254]
[unused255]
[unused256]
[unused257]
[unused258]
[unused259]
[unused260]
[unused261]
[unused262]
[unused263]
[unused264]
[unused265]
[unused266]
[unused267]
[unused268]
[unused269]
[unused270]
[unused271]
[unused272]
[unused273]
[unused274]
[unused275]
[unused276]
[unused277]
[unused278]
[unused279]
[unused280]
[unused281]
[unused282]
[unused283]
[unused284]
[unused285]
[unused286]
[unused287]
[unused288]
[unused289]
[unused290]
[unused291]
[unused292]
[unused293]
[unused294]
[unused295]
[unused296]
[unused297]
[unused298]
[unused299]
[unused300]
[unused301]
[unused302]
[unused303]
[unused304]
[unused305]
[unused306]
[unused307]
[unused308]
[unused309]
[unused310]
[unused311]
[unused312]
[unused313]
[unused314]
[unused315]
[unused316]
[unused317]
[unused318]
[unused319]
[unused320]
[unused321]
[unused322]
[unused323]
[unused324]
[unused325]
[unused326]
[unused327]
[unused328]
[unused329]
[unused330]
[unused331]
[unused332]
[unused333]
[unused334]
[unused335]
[unused336]
[unused337]
[unused338]
[unused339]
[unused340]
[unused341]
[unused342]
[unused343]
[unused344]
[unused345]
[unused346]
[unused347]
[unused348]
[unused349]
[unused350]
[unused351]
[unused352]
[unused353]
[unused354]
[unused355]
[unused356]
[unused357]
[unused358]
[unused359]
[unused360]
[unused361]
[unused362]
[unused363]
[unused364]
[unused365]
[unused366]
[unused367]
[unused368]
[unused369]
[unused370]
[unused371]
[unused372]
[unused373]
[unused374]
[unused375]
[unused376]
[unused377]
[unused378]
[unused379]
[unused380]
[unused381]
[unused382]
[unused383]
[unused384]
[unused385]
[unused386]
[unused387]
[unused388]
[unused389]
[unused390]
[unused391]
[unused392]
[unused393]
[unused394]
[unused395]
[unused396]
[unused397]
[unused398]
[unused399]
[unused400]
[unused401]
[unused402]
[unused403]
[unused404]
[unused405]
[unused406]
[unused407]
[unused408]
[unused409]
[unused410]
[unused411]
[unused412]
[unused413]
[unused414]
[unused415]
[unused416]
[unused417]
[unused418]
[unused419]
[unused420]
[unused421]
[unused422]
[unused423]
[unused424]
[unused425]
[unused426]
[unused427]
[unused428]
[unused429]
[unused430]
[unused431]
[unused432]
[unused433]
[unused434]
[unused435]
[unused436]
[unused437]
[unused438]
[unused439]
[unused440]
[unused441]
[unused442]
[unused443]
[unused444]
[unused445]
[unused446]
[unused447]
[unused448]
[unused449]
[unused450]
[unused451]
[unused452]
[unused453]
[unused454]
[unused455]
[unused456]
[unused457]
[unused458]
[unused459]
[unused460]
[unused461]
[unused462]
[unused463]
[unused464]
[unused465]
[unused466]
[unused467]
[unused468]
[unused469]
[unused470]
[unused471]
[unused472]
[unused473]
[unused474]
[unused475]
[unused476]
[unused477]
[unused478]
[unused479]
[unused480]
[unused481]
[unused482]
[unused483]
[unused484]
[unused485]
[unused486]
[unused487]
[unused488]
[unused489]
[unused490]
[unused491]
[unused492]
[unused493]
[unused494]
[unused495]
[unused496]
[unused497]
[unused498]
[unused499]
[unused500]
[unused501]
[unused502]
[unused503]
[unused504]
[unused505]
[unused506]
[unused507]
[unused508]
[unused509]
[unused510]
[unused511]
[unused512]
[unused513]
[unused514]
[unused515]
[unused516]
[unused517]
[unused518]
[unused519]
[unused520]
[unused521]
[unused522]
[unused523]
[unused524]
[unused525]
[unused526]
[unused527]
[unused528]
[unused529]
[unused530]
[unused531]
[unused532]
[unused533]
[unused534]
[unused535]
[unused536]
[unused537]
[unused538]
[unused539]
[unused540]
[unused541]
[unused542]
[unused543]
[unused544]
[unused545]
[unused546]
[unused547]
[unused548]
[unused549]
[unused550]
[unused551]
[unused552]
[unused553]
[unused554]
[unused555]
[unused556]
[unused557]
[unused558]
[unused559]
[unused560]
[unused561]
[unused562]
[unused563]
[unused564]
[unused565]
[unused566]
[unused567]
[unused568]
[unused569]
[unused570]
[unused571]
[unused572]
[unused573]
[unused574]
[unused575]
[unused576]
[unused577]
[unused578]
[unused579]
[unused580]
[unused581]
[unused582]
[unused583]
[unused584]
[unused585]
[unused586]
[unused587]
[unused588]
[unused589]
[unused590]
[unused591]
[unused592]
[unused593]
[unused594]
[unused595]
[unused596]
[unused597]
[unused598]
[unused599]
[unused600]
[unused601]
[unused602]
[unused603]
[unused604]
[unused605]
[unused606]
[unused607]
[unused608]
[unused609]
[unused610]
[unused611]
[unused612]
[unused613]
[unused614]
[unused615]
[unused616]
[unused617]
[unused618]
[unused619]
[unused620]
[unused621]
[unused622]
[unused623]
[unused624]
[unused625]
[unused626]
[unused627]
[unused628]
[unused629]
[unused630]
[unused631]
[unused632]
[unused633]
[unused634]
[unused635]
[unused636]
[unused637]
[unused638]
[unused639]
[unused640]
[unused641]
[unused642]
[unused643]
[unused644]
[unused645]
[unused646]
[unused647]
[unused648]
[unused649]
[unused650]
[unused651]
[unused652]
[unused653]
[unused654]
[unused655]
[unused656]
[unused657]
[unused658]
[unused659]
[unused660]
[unused661]
[unused662]
[unused663]
[unused664]
[unused665]
[unused666]
[unused667]
[unused668]
[unused669]
[unused670]
[unused671]
[unused672]
[unused673]
[unused674]
[unused675]
[unused676]
[unused677]
[unused678]
[unused679]
[unused680]
[unused681]
[unused682]
[unused683]
[unused684]
[unused685]
[unused686]
[unused687]
[unused688]
[unused689]
[unused690]
[unused691]
[unused692]
[unused693]
[unused694]
[unused695]
[unused696]
[unused697]
[unused698]
[unused699]
[unused700]
[unused701]
[unused702]
[unused703]
[unused704]
[unused705]
[unused706]
[unused707]
[unused708]
[unused709]
[unused710]
[unused711]
[unused712]
[unused713]
[unused714]
[unused715]
[unused716]
[unused717]
[unused718]
[unused719]
[unused720]
[unused721]
[unused722]
[unused723]
[unused724]
[unused725]
[unused726]
[unused727]
[unused728]
[unused729]
[unused730]
[unused731]
[unused732]
[unused733]
[unused734]
[unused735]
[unused736]
[unused737]
[unused738]
[unused739]
[unused740]
[unused741]
[unused742]
[unused743]
[unused744]
[unused745]
[unused746]
[unused747]
[unused748]
[unused749]
[unused750]
[unused751]
[unused752]
[unused753]
[unused754]
[unused755]
[unused756]
[unused757]
[unused758]
[unused759]
[unused760]
[unused761]
[unused762]
[unused763]
[unused764]
[unused765]
[unused766]
[unused767]
[unused768]
[unused769]
[unused770]
[unused771]
[unused772]
[unused773]
[unused774]
[unused775]
[unused776]
[unused777]
[unused778]
[unused779]
[unused780]
[unused781]
[unused782]
[unused783]
[unused784]
[unused785]
[unused786]
[unused787]
[unused788]
[unused789]
[unused790]
[unused791]
[unused792]
[unused793]
[unused794]
[unused795]
[unused796]
[unused797]
[unused798]
[unused799]
[unused800]
[unused801]
[unused802]
[unused803]
[unused804]
[unused805]
[unused806]
[unused807]
[unused808]
[unused809]
[unused810]
[unused811]
[unused812]
[unused813]
[unused814]
[unused815]
[unused816]
[unused817]
[unused818]
[unused819]
[unused820]
[unused821]
[unused822]
[unused823]
[unused824]
[unused825]
[unused826]
[unused827]
[unused828]
[unused829]
[unused830]
[unused831]
[unused832]
[unused833]
[unused834]
[unused835]
[unused836]
[unused837]
[unused838]
[unused839]
[unused840]
[unused841]
[unused842]
[unused843]
[unused844]
[unused845]
[unused846]
[unused847]
[unused848]
[unused849]
[unused850]
[unused851]
[unused852]
[unused853]
[unused854]
[unused855]
[unused856]
[unused857]
[unused858]
[unused859]
[unused860]
[unused861]
[unused862]
[unused863]
[unused864]
[unused865]
[unused866]
[unused867]
[unused868]
[unused869]
[unused870]
[unused871]
[unused872]
[unused873]
[unused874]
[unused875]
[unused876]
[unused877]
[unused878]
[unused879]
[unused880]
[unused881]
[unused882]
[unused883]
[unused884]
[unused885]
[unused886]
[unused887]
[unused888]
[unused889]
[unused890]
[unused891]
[unused892]
[unused893]
[unused894]
[unused895]
[unused896]
[unused897]
[unused898]
[unused899]
[unused900]
[unused901]
[unused902]
[unused903]
[unused904]
[unused905]
[unused906]
[unused907]
[unused908]
[unused909]
[unused910]
[unused911]
[unused912]
[unused913]
[unused914]
[unused915]
[unused916]
[unused917]
[unused918]
[unused919]
[unused920]
[unused921]
[unused922]
[unused923]
[unused924]
[unused925]
[unused926]
[unused927]
[unused928]
[unused929]
[unused930]
[unused931]
[unused932]
[unused933]
[unused934]
[unused935]
[unused936]
[unused937]
[unused938]
[unused939]
[unused940]
[unused941]
[unused942]
[unused943]
[unused944]
[unused945]
[unused946]
[unused947]
[unused948]
[unused949]
[unused950]
[unused951]
[unused952]
[unused953]
[unused954]
[unused955]
[unused956]
[unused957]
[unused958]
[unused959]
[unused960]
[unused961]
[unused962]
[unused963]
[unused964]
[unused965]
[unused966]
[unused967]
[unused968]
[unused969]
[unused970]
[unused971]
[unused972]
[unused973]
[unused974]
[unused975]
[unused976]
[unused977]
[unused978]
[unused979]
[unused980]
[unused981]
[unused982]
[unused983]
[unused984]
[unused985]
[unused986]
[unused987]
[unused988]
[unused989]
[unused990]
[unused991]
[unused992]
[unused993]
!
"
#
$
%
&
'
(
)
*
+
,
-
.
/
0
1
2
3
4
5
6
7
8
9
:
;
<
=
>
?
@
[
\
]
^
_
`
a
b
c
d
e
f
g
h
i
j
k
l
m
n
o
p
q
r
s
t
u
v
w
x
y
z
{
|
}
~
¡
¢
£
¤
¥
¦
§
¨
©
ª
«
¬
®
°
±
²
³
´
µ
¶
·
¹
º
»
¼
½
¾
¿
×
ß
æ
ð
÷
ø
þ
đ
ħ
ı
ł
ŋ
œ
ƒ
ɐ
ɑ
ɒ
ɔ
ɕ
ə
ɛ
ɡ
ɣ
ɨ
ɪ
ɫ
ɬ
ɯ
ɲ
ɴ
ɹ
ɾ
ʀ
ʁ
ʂ
ʃ
ʉ
ʊ
ʋ
ʌ
ʎ
ʐ
ʑ
ʒ
ʔ
ʰ
ʲ
ʳ
ʷ
ʸ
ʻ
ʼ
ʾ
ʿ
ˈ
ː
ˡ
ˢ
ˣ
ˤ
α
β
γ
δ
ε
ζ
η
θ
ι
κ
λ
μ
ν
ξ
ο
π
ρ
ς
σ
τ
υ
φ
χ
ψ
ω
а
б
в
г
д
е
ж
з
и
к
л
м
н
о
п
р
с
т
у
ф
х
ц
ч
ш
щ
ъ
ы
ь
э
ю
я
ђ
є
і
ј
љ
њ
ћ
ӏ
ա
բ
գ
դ
ե
թ
ի
լ
կ
հ
մ
յ
ն
ո
պ
ս
վ
տ
ր
ւ
ք
־
א
ב
ג
ד
ה
ו
ז
ח
ט
י
ך
כ
ל
ם
מ
ן
נ
ס
ע
ף
פ
ץ
צ
ק
ר
ש
ת
،
ء
ا
ب
ة
ت
ث
ج
ح
خ
د
ذ
ر
ز
س
ش
ص
ض
ط
ظ
ع
غ
ـ
ف
ق
ك
ل
م
ن
ه
و
ى
ي
ٹ
پ
چ
ک
گ
ں
ھ
ہ
ی
ے
अ
आ
उ
ए
क
ख
ग
च
ज
ट
ड
ण
त
थ
द
ध
न
प
ब
भ
म
य
र
ल
व
श
ष
स
ह
ा
ि
ी
ो
।
॥
ং
অ
আ
ই
উ
এ
ও
ক
খ
গ
চ
ছ
জ
ট
ড
ণ
ত
থ
দ
ধ
ন
প
ব
ভ
ম
য
র
ল
শ
ষ
স
হ
া
ি
ী
ে
க
ச
ட
த
ந
ன
ப
ம
ய
ர
ல
ள
வ
ா
ி
ு
ே
ை
ನ
ರ
ಾ
ක
ය
ර
ල
ව
ා
ก
ง
ต
ท
น
พ
ม
ย
ร
ล
ว
ส
อ
า
เ
་
།
ག
ང
ད
ན
པ
བ
མ
འ
ར
ལ
ས
မ
ა
ბ
გ
დ
ე
ვ
თ
ი
კ
ლ
მ
ნ
ო
რ
ს
ტ
უ
ᄀ
ᄂ
ᄃ
ᄅ
ᄆ
ᄇ
ᄉ
ᄊ
ᄋ
ᄌ
ᄎ
ᄏ
ᄐ
ᄑ
ᄒ
ᅡ
ᅢ
ᅥ
ᅦ
ᅧ
ᅩ
ᅪ
ᅭ
ᅮ
ᅯ
ᅲ
ᅳ
ᅴ
ᅵ
ᆨ
ᆫ
ᆯ
ᆷ
ᆸ
ᆼ
ᴬ
ᴮ
ᴰ
ᴵ
ᴺ
ᵀ
ᵃ
ᵇ
ᵈ
ᵉ
ᵍ
ᵏ
ᵐ
ᵒ
ᵖ
ᵗ
ᵘ
ᵢ
ᵣ
ᵤ
ᵥ
ᶜ
ᶠ
‐
‑
‒
–
—
―
‖
‘
’
‚
“
”
„
†
‡
•
…
‰
′
″
›
‿
⁄
⁰
ⁱ
⁴
⁵
⁶
⁷
⁸
⁹
⁺
⁻
ⁿ
₀
₁
₂
₃
₄
₅
₆
₇
₈
₉
₊
₍
₎
ₐ
ₑ
ₒ
ₓ
ₕ
ₖ
ₗ
ₘ
ₙ
ₚ
ₛ
ₜ
₤
₩
€
₱
₹
ℓ
№
ℝ
™
⅓
⅔
←
↑
→
↓
↔
↦
⇄
⇌
⇒
∂
∅
∆
∇
∈
−
∗
∘
√
∞
∧
∨
∩
∪
≈
≡
≤
≥
⊂
⊆
⊕
⊗
⋅
─
│
■
▪
●
★
☆
☉
♠
♣
♥
♦
♭
♯
⟨
⟩
ⱼ
⺩
⺼
⽥
、
。
〈
〉
《
》
「
」
『
』
〜
あ
い
う
え
お
か
き
く
け
こ
さ
し
す
せ
そ
た
ち
っ
つ
て
と
な
に
ぬ
ね
の
は
ひ
ふ
へ
ほ
ま
み
む
め
も
や
ゆ
よ
ら
り
る
れ
ろ
を
ん
ァ
ア
ィ
イ
ウ
ェ
エ
オ
カ
キ
ク
ケ
コ
サ
シ
ス
セ
タ
チ
ッ
ツ
テ
ト
ナ
ニ
ノ
ハ
ヒ
フ
ヘ
ホ
マ
ミ
ム
メ
モ
ャ
ュ
ョ
ラ
リ
ル
レ
ロ
ワ
ン
・
ー
一
三
上
下
不
世
中
主
久
之
也
事
二
五
井
京
人
亻
仁
介
代
仮
伊
会
佐
侍
保
信
健
元
光
八
公
内
出
分
前
劉
力
加
勝
北
区
十
千
南
博
原
口
古
史
司
合
吉
同
名
和
囗
四
国
國
土
地
坂
城
堂
場
士
夏
外
大
天
太
夫
奈
女
子
学
宀
宇
安
宗
定
宣
宮
家
宿
寺
將
小
尚
山
岡
島
崎
川
州
巿
帝
平
年
幸
广
弘
張
彳
後
御
德
心
忄
志
忠
愛
成
我
戦
戸
手
扌
政
文
新
方
日
明
星
春
昭
智
曲
書
月
有
朝
木
本
李
村
東
松
林
森
楊
樹
橋
歌
止
正
武
比
氏
民
水
氵
氷
永
江
沢
河
治
法
海
清
漢
瀬
火
版
犬
王
生
田
男
疒
発
白
的
皇
目
相
省
真
石
示
社
神
福
禾
秀
秋
空
立
章
竹
糹
美
義
耳
良
艹
花
英
華
葉
藤
行
街
西
見
訁
語
谷
貝
貴
車
軍
辶
道
郎
郡
部
都
里
野
金
鈴
镇
長
門
間
阝
阿
陳
陽
雄
青
面
風
食
香
馬
高
龍
龸
ﬁ
ﬂ
！
（
）
，
－
．
／
：
？
～
那
属于
与
在期间
在之内
处于之中
从事于
按照
穿着
进入
朝里
在里面
在屋里
在里面的
在朝的
执政者
交情
到
向
趋于
向前
be
他
男孩
男人
雄性动物
同样地
例如
做为
当作
当之时
以的方式
像一样
因为
为
至于
在之上
上去
正起作用的
和在一起
以
由于
那个
以致
那么
那样
它
他的
被
经
由
在之旁
经过
在近处
在
对
从
来自
根据
她的
她
##s
你
你们
have
除了
但是
仅仅
是
表示
这
这么
非
未
我的
他们
它们
任何人
一个
一致的
完整的
哪一个
那一个
或
或者
怀有
拿
进行
已经
首先
第一
优先
第一的
开始
所有的
全部的
一切的
全部
全然
并且
他们的
向上的
起床的
涨的
向上
上涨
在上面
向的较高处
谁
外面的
熄灭的
结束的
在外
熄灭
出现
出自
离去
当的时候
何时
什么时候
什么时侯
时间
在之后
后来
在那里
进入之内
深入之中
成为状况
新的
陌生的
最近的
不熟悉的
二个
它的
##a
时侯
时机
时期
期限
次数
节拍
暂停
规定时间
测定的时间
记录的时间
计时
定时
时间的
记时的
定时的
定期的
分期的
将
愿意
拒绝
否决票
没有
不是
绝非
什么
怎么
多么
什么的
到什么程度
在周围
大约
有关
关于
四处
在附近
周围
上述的
我们
结束
越过
从头到尾
遍于之上
上面的
然后
当时
那时
其他的
另外的
从前的
他人
另外一个
如此
如是
如那样
所以
因此
这样
更多
多的
程度较大的
更大的
多
进一步
##e
装罐
罐头
容器
能
可以
如果
是否
无论何时
假设
即使
条件
相似的
同样的
喜欢
想
希望
爱好
同样的人
象
如同
可能
后面的
使后退
支持
倒退
背靠
向后地
背部
后面
她们
唯一的
仅有的
最佳的
只有
只能
不过
一些
一部分
若干
一些的
少许的
某一的
##i
在哪里
哪里
地点
正直的
合理的
正确的
应得的
刚刚
正好
##ing
在的时候
在之前
在前
##n
做
完成
##o
人工制成的
成功的
创造的
学校
鱼群
门派
学派
教育
训练
培养
成群地游
穿越
从头至尾
到底
穿过
对穿的
直达的
完结的
除外
现在
刚才
目前
现在的
年代
岁月
年龄
最多
最大
大多数的
几乎全部的
最多的
最
极其
世界
地球
宇宙
万物
世人
人间
领域
世事
世故
社会生活
大量
五月
愿能
在之间
向下的
下去
降下
往下
沿着
丘陵
软毛
开阔的高地
泉水
源泉
好
涌出
健康的
良好的
适宜的
恰当的
很好地
适当地
好意地
很
完全
好啦
三个
##d
年度
一会儿
虽然
消磨
意志
决心
意愿
意向
干劲
遗嘱
用意志的力量驱使
决意
立遗嘱
下决心
必须
##ed
##r
##y
以后
随后
##t
城市
市
在之下
低于
下面的
从属的
在下面
包围
兜着圈子
到处
do
如此的
这样的
存在
性质
生命
生物
使用过的
二手的
习惯的
状态
情形
国家
政府
领土
国务
社会地位
国家的
正式的
礼仪用的
州的
说明
陈述
规定
人民
民族
平民
使住满人
居住于
部分
局部
零件
要素
等分
职责
角色
部位
分开
分离
断绝
区别
分配
断裂
分手
部分的
局部的
部分地
有些
知道
了解
认识
确信
反对
对着
倚靠
你的
你们的
多数
多数人
许多的
许多
秒
瞬间
第二名
支持者
助手
第二的
其次的
次要的
附加的
辅助的
第二
当助手
大学
两者的
两者都
两者
国立的
全国性的
民族的
##er
这些
西班牙贵族
先生
阁下
穿上
已知的
有名的
关着的
不再生效的
处于境况的
休假的
空闲的
走开
掉
休息
出发
隔断
离开
脱落
不在从事
在之外
滚开
杀死
关闭状态
路
路线
路途
方法
道路
规模
习惯
行业
方面
远远地
非常
直到
在以前
直到时
不动产
房地产
如何
怎样
多少
方式
平坦的
相等的
连贯的
均等的
公平的
偶数的
平均的
平衡的
恰好的
使平坦
使相等
变平
成为相等
甚至
实际上
十分
偶数
偶校验
得到
获得
变成
使得
收获
接通
抓住
染上
到达
成为
变得
救球
生殖
幼兽
头
头脑
领袖
脑袋
最前的部分
为首
朝向
前进
用头顶
朝特定方向行进
结穗
头的
在顶端的
主要的
...
didn
##ly
队
组
把马套在同一辆车上
把编成一组
驾驶卡车
协作
american

##l
天生的
联合的
团结的
和睦的
软片
薄膜
胶卷
电影
覆以薄膜
拍摄
生薄膜
拍电影
自以后
自以来
自那时以后
既然
蒸馏室
寂静
剧照
蒸馏
平静
静止
静止的
不动的
静寂的
不起泡的
静物摄影的
仍然
更
静止地
然而
长的
长久的
冗长的
做多头的
渴望
热望
极想
长久
始终
长时间
长信号
长整型
工作
劳动
职业
行为
功
作品
成果
产品
工程
运转
起作用
被加工
使工作
使转动
开动
使用
经营
使逐渐变得
造成
南方
南的
向南的
在南方
转向南方
become
任何的
任何
高度
高处
高的
高级的
高尚的
高原的
高音的
昂贵的
傲慢的
高度地
奢侈地
再一次
又
到原处
日子
白天
工作日
家庭
家人
族
家庭的
看见
查看
参观
游览
理解
同意
看
观看
注意
考虑
主教的职位
权利
右边
正义
右派
公正
对的
正常的
正面的
右方的
正确地
以有利结果
一直
直接
向右
扶直
整理
纠正
伸冤
使昭雪
恢复平衡
人类
为配备人手
操纵
使振奋
眼睛
房子
住宅
机构
议院
家族
给房子住
收藏
住
躲藏
季节
时节
当令期
给调味
使成熟
使老练
缓和
变干燥
战争
战争状态
战术
军事
冲突
斗争
竞争
进行战争
作战
打仗
战斗
战争的
战时用的
states
包含
包括
take
生活
人生
寿命
一生
生命力
灵魂
无期徒刑
north
相同的
相同的人
每个
每一
个人
各自
被呼叫的
名字
名称
姓名
名义
名誉
文件名
命名
称呼
任命
提名
列举
姓名的
据以取名的
重要的事
很多的
重要的
甚
几乎
地方
位置
住所
座位
地位
处境
特权
空间
余地
职务
位
放置
寄予
认出
评定
名次列前
无论如何
究竟怎样
可是
去
走
达到
查阅
消失
放弃
花费
流传
打算
剩下
以打赌
对付
忍受
出产
为被捕者出
尝试
四个
团体
团
群
聚合
成群
再一的
不同的
又一个
另一个
类似的另一个
建立
创立
铸造
win
区域
面积
范围
空地
在这里
此时
这里
工作情况
地面状况
进行中的
流行的
现存的
10
串联
序列
连续
系列
丛书
套
级数
左边的
左倾的
左侧的
左派的
在左面
左
左面
左派
避难所
故乡
国内的
打中目标的
在家
在本国
打中目标地
音乐
乐曲
最好的
最好地
最好的人
制造
安排
创造
构成
产生
布置
引起
增大
被制造
被处理
构造
性情
爪
指针
掌握
协助
人手
手艺
手迹
支配
插手
交给
搀扶
数
数字
数目
号码
计算
共计
报数
公司
友伴
交往
连队
朋友
一群
陪伴
几个的
各自的
几个
从不
决不
不曾
最后的
末尾的
持续
维持
使维持
够用
最后
末尾
鞋楦头
盥洗室
厕所
嫖客
000
真正的
十足的
特有的
粘贴簿
唱片套
取
抓
带领
就座
接受
吃
吸引
采取
乘
需要
吃掉对方棋子
依法获得财产
收成
奏效
终点
目标
末端
梢
死亡
残余
终结
终止
善行
好处
利益
好的
优良的
上等的
愉快的
有益的
好心的
慈善的
虔诚的
下列各项
部下
追随者
下列的
已发布
释放
比赛
玩耍
比分
得胜
比赛规则
策略
游戏
野味
赌博
勇敢的
有胆量的
关于野味的
跛的
演奏
播放
参加竞赛
一点点
少许
短时间
小的
很少的
幼小的
琐碎的
短暂的
矮小的
很少
稍微
完全不
begin
##m
以前
往昔
老的
旧的
古老的
年长的
老练的
需要的东西
缺乏
贫困
要
应该
缺少
生活困苦
那些
旁边
侧
胁
侧边
血统
旁的
侧的
赞助
hold
自己的
嫡亲的
同胞的
拥有
自认
承认
顺从于
供认
早的
早熟的
很早
初
县
ll
同盟
联盟
盟约
组联盟
加盟
使用价值
用法
使用权
利用
运用
耗费
惯常
西方
西部
西方的
向西的
向西
自西方
在西方
##u
脸
面容
正面
外观
面对
正视
面临
想起
想像
认为
思考
料想
想法
思想的
##es
2010
内阁
##h
三月
行军
步伐
长途跋涉
进行曲
边界
进军
交界
使行军
使行进
come
少的
小型的
低微的
小气的
细微的
些微地
狭小部分
一般
将军
大体
全面的
大体的
总的
一般的
普遍的
常规
城镇
june
##on
列
线
绳
电线
线路
航线
作业线
界线
战线
外形
排
家系
排成一行
顺排列
划线于
加衬里
使有线条
使起皱纹
排队
立基于
以…为基础
某事
某物
##k
september
思想
思维
关心
挂念
瞧
面向
寻找
平行地
国际的
国别设定
2011
空气
旋律
态度
晾
使通风
夸耀
july
俱乐部
木棍
球棒
用棍棒打
缴纳
联合起来
俱乐部的
go
january
october
我们的
八月
威严的
令人敬畏的
april
约克郡
约克王朝
12
不多的
少数的
少数
2012
2008
东方
东
东方的
向东的
向东方
朝东方
显示
表现
展览
卖弄
炫耀
演出
洋相
展现
陈列
表明
指出
露面
显现
成员
会员
学院
学会
2009
父亲
祖先
长辈
神父
创始者
当的父亲
保护
创作
发明
公众
民众
公众的
公共的
公立的
公用的
##us
过来
来
喂
man
五个
日落
同伙
组合
集合
装置
放
安置
设定
使凝结
点燃
确定
点缀
使就位
树立
调整
凝固
定型
搁住
结果
适合
决心的
规定的
故意的
持久的
固定的
老套的
准备好的
车站
站
局
驻地
身分
配置
驻扎
教堂
礼拜
教会
使人接受宗教仪式
教堂的
##c
下一个
下一个的
贴近的
下次
次于
前者的
起形成作用的人
模型
样板
november
房间
空位
场所
住宿
居住
留宿
宴会
党
政党
当事人
聚会
举办聚会
处于
位于
坐落的
december
2013
老年
成年
时代
变老
成熟
get
2007
##g
系统
体系
制度
秩序
分类原则
让
出租
排放
妨碍
被承包
出租屋
障碍
爱
恋爱
爱情
性爱
爱慕
2006
纵然
2014
一看
神色
样子
朝着
显得
打量
看上去与一样
以眼色显示
期待
鸣声
歌唱
歌曲
诗歌
雨水
海水
水位
水面
流水
给浇水
供以水
注入水
使湿
流泪
流口水
加水
水的
水上的
水生的
含水的
世纪
百年
在外面
户外
外面
外部
身体
尸体
主要部分
赋以形体
黑色
黑颜料
黑色的
夜
夜晚
晚上
黑暗
夜晚的工作
内部
里头
在内部
在内心里
大的
非常的
重大的
崇高的
伟大的
顺利地
得意地
大人物
大师
女人
单身的
单程的
单一的
个别的
孤独的
专一的
单打
单程票
选出
击出一垒打
委内瑞拉
建筑物
建筑
大量的
宽大的
广博的
大大地
夸大地
人口
人口数
被指名的
指定的
带子
乐队
联合
结合
白色
洁白
眼白
白种人
蛋白
白色的
纯洁的
白种的
苍白的
空白的
幸运的
启程
起动
提出
开办
##an
一次
曾经
一旦
一经
15
20
将要
18
2015
服务
贡献
雇佣
公职
服役
功劳
仪式
送达
行政部门
保养
维修
武装部队的
服务性的
仆人的
耐用的
顶部
顶端
极点
上面
上部
顶篷
最高地位
首位
陀螺
最高的
顶上的
头等的
盖
加以顶
高达
超越
达到顶点
高出
build
british
公开
空旷
开着的
开放的
开阔的
营业着的
公开的
悬而未决的
打开
开放
展开
国王
君主
使成为君主
君临
统治
移动
移动到
感动
地方性的
当地的
乡土的
本地的
当地居民
本地新闻
境遇
时报
孩子
孩子们
february
书
书籍
帐簿
名册
工作簿
登记
预订
为什么
原因
理由
11
门
必需
有必要
总统
总裁
董事长
院长
校长
主管人
主持人
次序
规则
命令
定货
定购
顺序
阶数
期末考试
结局
决赛
终极的
决定性的
公路
途径
无线、随意及感测网路研讨会
尽管
应得的东西
应付款
到期的
应付的
约定的
主修课
成年人
陆军少校
较多的
大部分的
成年的
严重的
主修
消逝
村庄
乡村的
村庄的
第三
三分之一
know
2016
卖方要价
变质的
被转动的
st
被通缉的
说
讲
念
指明
意见
发言权
##p
一起
共同
彼此
被一般承认的
公认的
干线
体力
力量
主群组
全力的
儿子
女婿
子孙
招待
发球
##en
在后地
在背后
他自己
他亲自
毛毯
毡
制毡
使粘结
粘结
势力
动力
权力
强国
乘方
强度
幂
功率
使有力量
供以动力
激励
足球
橄榄球
法律
法则
定律
法律的制约
法学
司法界
诉讼
起诉
声音
嗓音
嗓子
愿望
表达
喉舌
语态
吐露
调音
游玩
玩笑
运动
跳动
表演
剧本
玩
假装
开玩笑
扮演
演戏
传摇曳
##in
近的
近亲的
近似的
接近
亲近
靠近
近似于
走近
公园
停车处
停车
置于
历史
过去
经历
发展过程
历史学
过去的事
历史记录
30
财产
所有物
2005
16
##man
锯子
谚语
锯
锯开
来回移动
拉锯
母亲
修女院长
照看
收养
##al
军队
陆军
点
小数点
标点
要点
特点
尖端
分数
得分
穴位
弄尖
强调
加标点于
瞄准
指
指向
前面
开头
前线
阵线
对抗
帮忙
帮助者
补救办法
有益的东西
帮助
接济
治疗
款待
有用
救命
english
街道
马路
街区
街道的
艺术
人文科学
技术
巧妙
诡计
美术
迟的
晚的
已故的
很晚
很迟
晚
所有
体操课
体育课
奖品
裁定
判决
授予
给予
##ia
年轻的
无经验的
朝气蓬勃的
青年们
幼小动物
崽
14
摆
发射
投掷
写上
使从事
使受到
驱使
赋予
航行
发芽
掷
股票出售权
笨蛋
固定不动的
已发布的
乡村
地区
乡下的
农村的
除法
部门
师
与相交叉
在的对面
交叉
到另一边
在对面
成十字
tell
13
时常
常常
究竟
永远
french
london
中心
中心点
中锋
中央的
位在正中的
集中
定中心
居中
六
六个
红的
红色的
红肿的
流血的
红色
红颜料
赤字
2017
lead
每天
在白天
把算入
包住
光亮
灯
日光
发光体
光源
杰出人物
火花
眼光
轻的
少量的
轻微的
轻快的
轻浮的
明亮的
淡色的
容易的
照亮
点着
变亮
突降
偶然碰到
轻地
25
发现
感到
找到
裁决
告诉
吩咐
断定
讲述
泄密
告发
在之中
种
类
真实地
实在
相符的
根据而定的
相应地
一半
半场
不完全
一半的
不完全的
半场的
一半地
在某种程度上地
2004
形状
形体
类型
表格
形式
形成
排列
组成
表单
最初的
原始的
有创意的
原物
原作
give
办公室
制造业
制作
发展
内在因素
赚头
制造物
充足
够
很多
充足的
足够
够了
失去的
遗失的
迷惑的
完整
充满的
完全的
丰富的
完美的
丰满的
详尽的
完全地
整整
把缝得宽松
漂洗
开启
未发酵葡萄汁
绝对必要的事物
包括在内
活的
生动的
精力充沛的
实况转播的
活
生存
过着
度过
实况地
赠予的
沉溺的
german
竞赛者
上场队员
游戏者
演员
跑
赛跑
奔跑
奔跑的路程
趋向
流出
运转时间
跑步
竞赛
行驶
蔓延
使跑
参赛
追究
驾驶
管理
使流出
运行
熔化的
融化的
浇铸的
生意
事情
业务
商业
商行
妇女
女仆
女用的
女性的
妇女的
贬称为女人
使成女人腔
社区
共有
共同体
杯子
茶杯
优胜杯
使成杯状
为拔火罐
也许
百万
无数
陆地
地面
地界
地产
国土
土地
登陆
登岸
使上岸
使登陆
使到达
2000
法院
庭院
奉承
献殷勤
追求
招致
求爱
17
短的
矮的
短期的
简短的
简短地
突然
扼要
短片
故意少给
使短路
圆
圆形物
巡回
循环
一轮
一回合
一局
轮唱
圆的
球形的
肥胖的
大概的
圆润的
围着
附近
绕过
围绕着
迂回地
挨个
朝反方向
弄圆
使成圆形
绕行
围捕
把四舍五入
变圆
发胖
环行
拐弯
进展
微光
see
班级
阶级
种类
课
分类
故事
小说
传奇
描述
阅历
层
总是
必然的
必定的
当然
确实地
无疑地
研究
调查
考察
差不多
主管
导演
董事
会议
委员会
la
##2
事业
生涯
成功
用具
用品
局面
形势
情况
岛
岛屿
孤立地区
安全岛
使成岛状
孤立
##z
couldn
汽车
客车
##is
24
完结
靠近的
亲近的
亲密的
严密的
关闭的
狭窄的
秘密的
关
使靠近
封闭
使接近
关闭
接近地
紧密地
武力
影响力
效力
强迫
强夺
推动
提高
##1
较好的
比较好
自由的
享受政治权力的
允许的
免费的
解放
使自由
自由地
免费
支撑
援助
供养
支撑物
支援
证实
控制
克制
控制器
操纵装置
抑制
田地
场地
战场
场
域
使晒在场上
使上场
田间的
野生的
野外的
田赛的
学生
2003
教育学
已婚的
婚姻的
##b
无
不关紧要之事
零
毫不
什么也没有
work
其他人
记录
履历
档案
审判记录
最高纪录
唱片
记载
标明
将录音
录音
可被录音
创纪录的
大量地
内脏
内幕
内部的
户内的
水平
水准
平地
同高的
齐平的
水平的
弄平
夷平
使同等
对准
拉平
任何事
继续的
延续的
弹性
适应性
给
供给
发表
付出
献出
让出
捐赠
支持不住
让步
詹姆斯
##3
军事的
军人的
适于战争的
建立的
既定的
确定的
确认的
确立的
制定的
被送回的
归来的
感觉
觉得
触摸
以为
有知觉
摸索
同情
头衔
标题
书名
扉页
资格
冠军
字幕
授予头衔
加标题于
书面的
写成文字的
事物
东西
物
事件
特征
脚
尺
威廉
远的
久远的
遥远的
甚远地
到很深的程度
到很远的距离
co
协会
坚硬的
硬的
难的
艰苦的
困难的
坚固的
猛烈的
艰难的
结实的
确实的
坚硬地
努力地
辛苦地
猛烈地
牢固地
早已
2002
##ra
冠军身份
冠军称号
捍卫
人类的
似人类的
人性的
有同情心的
西方人
西部片
西部小说
向西方的
来自西方的
西洋的
西部的
100
##na
系
机关
门厅
走廊
会堂
任务
各种的
多方面的
杂色的
生产
产物
21
19
心脏
内心
感情
精神
心情
宝贝儿
鼓励
2001
生计
逼真的
炉火
电炉
火灾
闪光体
炮火
热情
烧制
使发光
激动
放枪
解雇
着火
烧火
开枪
射击
一种描述
版本
译文
##ers
##f
电视
王室
皇族
王室的
皇家的
盛大的
庄严的
##4
工作的
劳动的
经营的
抽搐的
运转的
行动
幕
法案
见效
担当
装作
箱
事实
病例
案例
框子
装箱
包盖
社会
社交界
社团
地带
礼品
出席的
介绍
引见
赠送
呈现
上演
举枪瞄准
无线电
收音机
无线电报
无线电广播
无线电台
用无线电发送
节段
节
句点
学时
周期
当时特有的
过去某段时期的
就是这话
就是这么回事
有…相貌的
有…样子的
最少
最小
最小限度
最少的
最小的
全体的
全然的
计算的总和
共计为
合计
总数
全体
统统
保持
保存
遵守
看守
履行
拘留
记帐
继续不断
england
妻子
太太
夫人
节目
节目单
程序
纲要
大纲
计划
规划
拟计划
安排节目
编程序
通过
兄弟
智力
记忆
心理
情绪
理智
主意
心意
介意
留心
留意
专心于
专辑
专车
号外
特别的东西
负有特别任务的人员
特别的
专门的
特殊的
额外的
特别亲密的
22
##le
am
工厂
工事
活动部件
机件
著作
德行
不久
早
快
宁可
##6
政治的
政治上的
政党的
从事政治的
乔治
自动操纵装置
英国最高勋爵勋章上的圣乔治诛龙图
服务项目
##7
更远的
此外的
更多的
促进
增进
助长
更进一步地
更远地
此外
能干的
能够的
联络
伸出手臂
延伸
大卫
戴维
工会
加入
连接
参加
迫近
紧接着
完成了的
好了的
有地位的
显要的
自负的
社会的
群居的
社交的
联欢会
消息
知识
通知
情报
信息
问讯处
任一的
各一的
任一
要么
##ic
##x
公开露面
姿势
立场
职位
阵地
决定的位置
土地的
地面上的
放在地上
使搁浅
打基础
给以训练
搁浅
落地
基于
磨过的
铅
铅条
领导
超前量
领引
榜样
主角
导线
引导
指挥
致使
加铅于
用铅包
带头
导致
用测深锤测深
被铅覆盖
带头的
最重要的
岩石
岩礁
石头
基石
暗礁
摇动
摇滚乐
摇摆
使摇晃
使动摇
摇
黄昏
模糊
黑暗的
暗的
深色的
隐密的
模糊的
无知的
选举
当选
选择权
23
木板
甲板
膳食
会议桌
乘船
供膳食
用板覆盖
搭伙
france
头发
毛发
些微
课程
过程
一道菜
追
武器
军事行动
给择址
警察
警察当局
治安
维持治安
管辖
女孩
少女
女佣
作为替代
反而
真的
真实的
实际的
实在的
实数的
实数
现实
真正地
语音
吵闹
声调
听力范围
探条
海峡
健全的
可靠的
彻底的
资金充实的
彻底地
充分地
发出声音
回响
测深
试探
听起来
使发声
宣告
听诊
##v
言语
话语
字
片刻
重要
阶段
力矩
##te
有人
某人
##8
夏季
全盛时期
避暑
过夏天
设计
使凸出
放映
凸出
宣布的
存储区域网
较少
较小
较差
write
昔时
往事
早年经历
过去时
过去的
卸任的
过去时的
晚于
超出的可能性
跟随的
服从的
##5
蓝色
蓝色的
下流的
忧郁的
染成蓝色
变蓝
有基础的
创办
成立
al
终于
india
取得
捕获
进款
迷人的
可爱的
会传染的
america
##ne
1999
图样
方案
企图
考虑过的
被尊重的
北方人
北方的
向北的
自北方来的
god
停止
逗留
填塞
音栓
被塞住
塞住
堵塞
阻止
击落
战役
对于
为了
即将来临的
european
外表
外界
外表的
外界的
描写
轨迹
足迹
径迹
小道
轨道
磁轨
循路而行
追踪
用纤拉
留下足迹
沿轨道运行
今天
当今
竞技
语言
文字
措辞
28
呼叫
访问
打电话
号召
召集
要求
叫喊
叫牌
26
hear
专业人才
专业的
职业的
低点
低价
低
牛叫声
低的
消沉的
低等的
浅的
卑贱的
低下地
谦卑地
牛叫
australia
英里
california
赢得
打胜
获胜
影响
胜利
赢
收益
还
绿色
绿色颜料
绿色的
未成熟的
新鲜的
青春的
脸色发青的
##ie
难受的
难堪的
血
流血
气质
使出血
用血涂
##ton
南方人
男风
向南方的
来自南方的
科学
学科
学问
自然科学
大概
可能性
每件事物
所有事物
火柴
对手
使相配
使比赛
与竞争
结婚
相配
正方形
广场
平方
直角尺
正方形的
公正的
平方的
方正的
结清的
成直角地
对准地
一致
符合
结清
使成方形
使平方自乘
调正
使一致
27
嘴
口腔
口状物
装腔作势说话
做鬼脸
说出
做作地说
影像
图像的
电视的
种族
人种
急流
同道
姜根
疾走
与赛跑
使疾走
使猛转
记录的
许可
告别
请假
休假
遗忘
委托
丢弃
生叶
在上方
超出
##9
女儿
女儿的
转轨器
道岔
距离
太空
空白
间隔
篇幅
隔开
分隔
留间隔
1998
博物馆
变化
找回的零钱
找头
更换
改变
兑换
中央
中间
腰部
中庸的
中间的
通常的
共同的
通俗的
##0
迁居
步骤
搬
迁移
搬家
脱手
tv
柱
杆
准星
邮件
邮政
标竿
岗位
哨所
兵营
张帖
邮递
公布
登入帐
使熟悉
快速行进
急速地
##ta
湖
池
色淀
血球溶解
七
七个
试验过的
推选
限于少数人的
十个
保罗
部长
牧师
公使
服侍
救助
主持宗教仪式
##th
月份
惊起
开端
起点
吃惊
有利条件
启动
跳起
松动
起价
使惊起
发动
提议
使松动
使脱落
起用
酋长
长官
首位的
回来
返回
来回票
归还
报答
利润率
报告书
返回的
回程的
报答的
反向的
重现的
复原的
回报
反射
报告
申报
退回
canada
人身
人称
海洋
海浪
发泄
豁免
发行
释放证书
解除
放松
免除
发布
让与
类似的
相似的东西
现代人
有思想的人
现代的
时髦的
bring
睡眠
安息
稍息
支架
休息处
其余者
剩余部分
睡
长眠
安心
依赖
使休息
使支撑
把寄托于
打击
打
冲撞
讽刺
碰撞
打中
袭击
偶然碰上
成形的
成形
mr
##la
1997
地板
楼层
底部
底价
铺地板
打倒
基底
事情的进程
竞赛项目
活动
thomas
1996
robert
小心
照料
忧虑
在意
被杀死的
被屠宰的
镇静的
恒星
星形物
运气
明星
以星状物装饰
用星号标
使成为明星
变成明星
星期
周
需要的
转弯
转动
旋转
翻转
一圈
顺次
改动
性格
特色
转折
使旋转
使转向
驱赶
阻挡
改写
使作对
使流通
转向
回转
转身
变质
晕眩
易脱手
完成的
精巧的
铁路
相当
新闻
报导
健康
卫生
蓬勃
健康状态
send
例子
样本
实例
run
术语
专有名词
学期
任期
价钱
关系
项
界石
称
呼
迈克尔
来临
就要来的
接着的
当前
普通
兵力
武装力量
轻视
憎恨
黄金
钱财
金块
金色
宝贵
金的
似金的
金色的
金制的
50
舞台
戏剧
驿站
级
脚手架
筹划
适于上演
乘驿车旅行
真实性
真相
细节
论据
29
死的
不活泼的
麻木的
死者
直接地
受欢迎的
大众的
人民的
普及的
2018
本来
原来
最初
就起源而论
独创地
germany
或许
发达的
成熟的
成绩
答案
牵引的
扯下来的
赞助者
stand
金钱
一笔款
财富
货币
金额
流动的
跑着的
连续的
mi
有符号的
有正负之分的
已签字的
话
词
诺言
用言辞表达
歌集
meet
旅游
观光旅行
旅行
周游
观光
游历
使巡回演出
平均
平均数
一般水平
海损
中等的
平常的
算出平均数
平均做
均分
使平衡
平均为
呈中间色
团队
参赛队伍
会议记录
节日的
喜庆的
快乐的
节日
庆祝
欢宴
涌流
趋势
流
流通的
当前的
深的
深入地
深渊
深处
亲切的
仁慈的
和蔼的
1995
坚决的
通常
大抵
东方人
东正教徒
自东的
似乎
##ness
插曲
插话
有趣的事件
一段情节
床
睡眠处
河床
底座
路基
一层
提供宿处
栽种
安装
形成坚实的一层
桌子
餐桌
工作台
铭文
表
高原
平地层
搁置
嵌合
制表
把列入议事日程
indian
私人的
私立的
隐蔽的
士兵
隐士
阴部
查尔斯
路径
确定路线
按规定路线发送
可利用的
可获得的
有效的
办法
理想
概念
贯穿全部地
自始至终
遍及
在各处
加法
增加的人
风格
时尚
文体
风度
字体
使合潮流
样式
1994
书评
八个
压
揿
按
人群
印刷机
压力
出版社
记者
报刊
新闻舆论
紧迫
压榨
紧抱
逼迫
推进
强迫征募
催逼
重压
催促
拥挤
奋力前进
受压
低劣的
简陋的
吝啬的
惭愧的
普通的
意谓
想要
意欲
预定
用意
有意义
中庸
墙
墙壁
垣
内壁
分界物
屏障
墙的
给建墙
禁闭
用墙围住
老友记
留下
留待
仍然是
学习
论文
求学
书房
试作
读书
思索
##ch
##um
制定
哦
chinese
有时
往往
可能的
潜在的
合适的
可能的事物
1992
australian
典型
标志
符号
型
式
打字
作为代表
测定类型
用打字机打
褐色
褐色的
变褐色
向前的
迅速的
在前的
进步的
促进的生长
转寄
运送
向前地
谈话
交谈
会谈
讲话
演讲
空谈
谣言
方言
说话
交流
闲聊
说闲话
讨论
谈论
加工
使接受处理
对处置
对起诉
经加工的
有特殊光效的
食物
养料
初次登台
开张
座
位子
席位
所在地
使坐下
使就座
为设座于
使就职
安装在底座上
施行
容貌
产品特点
嘴脸
个性
字符
人物
品格
文科
她自己
她亲自
别的
另外
否则
不然
签
抽签
份额
一堆
划分
抓阄
强壮的
坚强的
强烈的
有力的
强劲地
有力地
russian
山脉
行列
射程
归类于
使并列
放牧
平行
漫游
小时
逐渐消失
逐渐减少
手臂
袖子
狭长港湾
武装
装备
武装起来
##da
早晨
早上
初期
dr
sell
##ry
很快地
定向的
经指导的
被控制的
1993
吉他
china
##w
31
目录
名单
明细表
布条
条纹
列表
数据清单
列出
列于表上
记入名单内
装布条
##ma
执行
媒体
uk
队员
参与者
迷你音碟机
雷射唱盘
玩家
微笑
喜色
笑容
觉得好笑
微笑着表示
##rs
我自己
我亲自
我独自
40
四轮大马车
教练
指导
坐马车旅行
作指导
职权
wouldn
神示
铅板
领导的
整体
完全之体系
纯粹的
官员
公务员
职员
公务的
官方的
有计划的
特意的
庄重的
壮观的
显赫的
雄伟的
宏大的
豪华的
户口普查
实施统计调查
##el
europe
攻击
抨击
动手干
japanese
亨利
1991
##re
##os
十字架
十字架形物件
十字标
交叉路
磨难
杂交
生气的
交叉的
相反的
横过
采煤
采掘
单独的
独自的
独自地
动作
作用
下级的
下层的
降低
跌落
减弱
放下
贬低
网络
广播网
网状物
宽的
广阔的
宽阔的
广泛的
广阔地
遍及各处地
广泛地
大千世界
washington
japan
1990
医院
相信
变化的
改变的
姐妹
姐
妹
护士
修女
姐妹般对待
##ar
把握
把持力
柄
监禁
握住
拿住
占据
持有
有效
保留
离去的
死去的
用完的
hadn
船
舰
以船运送
装船
上船
##ka
学业
院校
炮弹
射手
投篮
射门
子弹
注射
装弹
使成颗粒状
交织着的
渗透的
点焊的
破旧的
正当权利
垒
基础
基地
以作基础
卑鄙的
坏的
坏
坏地
难懂的
复杂的
不易懂的
卷入之中的
累及
与有关
被纠缠的
keep
多量的
最大的
##ist
银行
堤
岸
未来
将来
将来的
未来的
尤其
特别
格外
马克
痕迹
斑点
靶子
刻度
记号
戳记
标准
起跑线
做标记于
打分数
作记号
记得分
倾向
乐章
区段
截面
处
科
扇区
把分段
把切片
被切成片
女性
雌性动物
女子的
杂志
仓库
弹盒
胶卷盒
进度表
程序表
平面图
设计图
轮廓
示意图
订计划
教授
统治者
上帝
称王
作威作福
使成贵族
比较久
##ian
饱和度
走路
散步
小山
小土堆
作成土堆
堆成小丘
事实上
竟然
如今
市民的
公民的
有礼貌的
精力
活力
能量
模范
模特儿
模范的
作模型用的
做模型
做模特儿
使模仿
塑造
大小
尺寸
尺码
能力
浆料
上浆
依大小排列
可比拟
一定大小的
一定尺寸的
到如此程度
航空器
飞机
资料
数据
船长
指挥官
海军上校
首领
率领
##or
打架
争吵
斗志
歌唱部份
声乐部份
面貌秀丽的
被作为特色的
理查德
桥
舰桥
桥梁
桥牌
架桥于
跨越
第四
四分之一
1989
军官
宝石
果核
纪念碑
结石
投扔石子
铺石头
石的
石制的
听到
倾听
听说
审理
听见
听
##ism
手段
工具
收入
医生
体格检查
医学的
内科的
药的
群组
用户组
自己
自我
本性
本质
私心
本人
使近亲繁殖
使自花授精
自花授精
同一的
嘴唇
整个
有生命的
工业技术
渣滓
联邦的
同盟的
锦标赛
联赛
少量
马嚼子
辅币
给马上嚼子
已被传递的
已经通过的
已经过去的
热的
热心的
辣的
热情的
激动的
紧迫的
热
紧迫地
独立自主者
无党派者
独立的
有主见的
不须依赖的
不受约束的
奖项
奖赏
王国
玛丽
用尽的
精疲力竭的
罚款
罚金
晴天
精细
晴朗的
细小的
精细的
精炼
澄清
变清
变细
很好
doesn
报告的
据报道的
##ling
插座
千斤顶
抬起
提醒
扛举
增加
雄的
落下
瀑布
采伐量
下降
落差
堕落
秋天
倒下
失守
阵亡
下跌
倾斜
垮台
轮到
秋天的
凸起的
浮雕的
发酵的
它本身
它自己
停留
制止
延缓
支柱
支索
坚持
用支索固定
中止
忠诚的
真实
准确
准确地
工作室
画室
演播室
电影制片厂
1988
运动会
运动的
适用于运动的
运动会的
与运动会有关的
取代
替换
放回
paris
体制
saint
领导者
社论
领唱者
前导字符
戏院
电影院
剧场
全体观众
戏剧效果
阶梯式讲堂
谁的
市场
交易
集市
推销地区
行情
市面
销路
在市场上交易
使上市
销售
在市场上买卖
首都
大写字母
资本
首都的
父母
双亲
spanish
canadian
泥土
尘世
埋入土中
赶入洞内
躲入洞内
##ity
切口
割伤
切
割
砍
削
伤口
削减
缩短
删节
通路
经切割的
缩减的
减少
刺痛
开辟
雕刻
排斥
切断
显出
相交
抄近路
剪辑
程度
度数
学位
度
书写
笔迹
海湾
狗吠声
月桂
吠
使走投无路
christian
奖给
判给
白痴
自然的
自然界的
本能的
天然的
物质的
自然数的
帐单
清单
钞票
鸟嘴
广告
票据
开帐单
宣布
##as
海岸
滑坡
沿海岸而行
倘若
以为条件
早先的
前面的
过急的
年长者
资深者
毕业班学生
资深的
英尺
山谷
溪谷
流域
凹地
组织
结构
停下来
部件
王后
女王
立为女王
做女王
安全
安全性
防护物
保安
可靠性
担保人
抵押品
保证金
兴趣
嗜好
利息
趣味
使感兴趣
与有关系
叙述
言论
允许
容许的
主人
硕士
母机
主人的
征服
精通
初期的
电话
受话器
耳机
打电话给
物质
素材
实体
有关系
铁匠
金属品工匠
赢得物
得胜的
胜利的
试验
审判
试
考验
审问
提炼
试图
发生
动人的
令人感动的
鼓动的
原动的
竞选运动
参加运动
月球轨道航天器
视线
##ley
呼吸
气息
密切地
中部的
1987
某一个的
日期
约会
枣椰树
定日期
注明日期
过时
italian
african
起立
立着的
经常的
持续的
击倒
一季所伐的木材
折缝
凶猛的
可怕的
艺术家
画家
##ted
秀场
协定
数量
买卖
松木板
处理
应付
做生意
发牌
矿
矿藏
地雷
挖掘
开采
在布雷
破坏
开矿
埋设地雷
勤劳
工业
企业
产业
有组织的劳动
1986
##ng
每个人
人人
共和国
共和政体
界
提供
供应
预备
作准备
抚养
收集
采集
收藏品
募捐
图书馆
藏书
库
研究者
学者
##ville
最主要者
原色
根本的
首要的
基本的
较旧的
经由
重的
巨大的
沉重的
笨重的
过度的
沉重地
重物
严肃角色
##able
注意力
africa
##ri
决定了的
一定的
阐明的
长度
长
期间
一段
梳状剔除器
手指头
指头
部队
司令部
全体人员
工作班子
棍棒
拐杖
权杖
职员的
雇员的
参谋的
为配备人员
皮肤
皮
剥皮
在植皮
长皮
愈合
蜕皮
外国的
外交的
外省的
外来的
不相关的
口子
穴
揭幕
开始的
州长
总督
管理者
理事
好吗
签认
批准
认可
奖牌
勋章
授勋予
杀
杀戮
小河
消灭
使终止
抵消
否决
太阳
阳光
晒
晒太阳
盖子
封面
藉口
覆盖
掩饰
掩护
零活
做零工
打杂
做股票经纪
假公济私
代客买卖
批发
承包
欺骗
1985
胸
胸部
衣柜
箱子
地狱
邪恶势力
苦境
阴间
毁坏
训斥
狂饮
飞驰
摸
触觉
知觉
有感觉的
##ies
成就
集会
遇见
满足
相遇
接触
道理
前提
理性
说服
推论
辩论
劝说
规格
旗
军旗
本位
标准的
合规格的
会面
长篇故事
新奇的
异常的
1984
贸易
顾客
信风
进行交易
做买卖
经商
对换
购物
用进行交换
来源
水源
根源
原始资料
源
##land
玫瑰
蔷薇
玫瑰色
玫瑰色的
玫瑰花的
使成玫瑰色
家伙
用支索撑住
取笑
嘲弄
逃跑
球门
守门员
攻门
射门得分
##ur
篇
重要章节
本地人
土产
当地人
本国的
与生俱来的
丈夫
管理人
节俭的人
节俭
使成丈夫
先
先前
过早
过急
在先
单位
分队
单元
单位的
单元的
有限制的
有限的
有限责任的
特别快车
进入的
威克斯
生产者
制作者
制作人
运作
运营
业务操作
大堆
取走
预备动作
隐蔽着的
掩藏着的
有屋顶的
被迫的
强迫的
用力的
讲述的
叙述的
有关系的
有关联的
roman
完工
使圆满
一帆风顺的
顺利的
钥匙
键
解答
关键
要害
基调
线索
锁上
提供线索
使用钥匙
texas
感冒
寒冷
寒冷的
冷淡的
冷静的
##ya
航道
频道
在上挖沟
形成河道
1980
传统的
惯例的
胶片
跳舞
舞蹈
舞会
清楚的
明确的
澄清的
清晰地
清除障碍
放晴
变清澈
空隙
大致
近于
500
九
九个
货车
篷车
先锋
前驱
前卫
用货车搬运
王子
亲王
国君
贵族
诸侯
有权势的大人物
问题
询问
怀疑
活跃的
起作用的
积极的
主动的
活性的
现行的
现役的
主动语态
积极分子
轮胎
磁道
ireland
地方的
地域性的
银
银币
银器
银的
银制的
银器的
镀银
变银白色
作家
作家的著作
创始人
涉及隐私的
有人性的
人称的
亲自的
身体的
感应
感官
意识
观念
情理
觉察
检测
操作
手术
运算
##ine
经济上的
实用的
节省的
1983
把持
二十
二十个
isbn
速率
速度
迅速
加速
超速
快进
快速传送
使加速
钟头
点钟
课时
翻版
规则的
常例的
有秩序的
整齐的
等边的
合格的
常备军的
正规军
正式队员
经常地
正常体
历史上著名的
有历史性的
shake
km²
秘书
书记
大臣
更重要的
较早的
在先的
小隐修院院长
大隐修院副院长
报道
传说
案情报告
爆炸声
成绩单
汇报
转述
揭发
使报到
写报道
报到
chicago
读
阅读
有学问的
读取
视野
风景
见解
视力
视图
指望
意图
印象
视察
估量
引擎
发动机
机车
安装发动机于
折叠的
刮伤的
1982
问
邀请
飞机场
所有权
属性
预备好的状态
现款
备用的
可以使用的
预先
使准备好
立刻
立即
淑女
女士
贵妇
列出的
合约
婚约
契约
使皱缩
使缩短
感染
订约
缔结
皱缩
收缩
##de
经理
管理员
管理器
他们自己
她们自己
它们自己
台词
##ki
海军
海军人员
海军军力
烟蒂
撰稿者
抄写员
mean
##ts
顺串
泻肚子
流量
##ro
实践
练习
实行
惯例
开业
实习
冠军的地位
维护
歌手
玻璃
玻璃杯
透镜
装玻璃于
反映
成玻璃状
委任状
任官令
所委职责
佣金
犯
所托之事
委任
委托制作
使服役
必需的
森林
林区
植树于
文化
修养
耕种
逐渐地
普遍地
礼物
给予物
入口
发作
存取
伴随
测试
化验
检验
甲壳
接受测验
进行测试
夫妇
数个
使成双
使成婚
把联系起来
成婚
站立
站住
停顿
讲台
看台
法院证人席
坐落
停滞
维持原状
使站立
抵挡
天主教徒
天主教的
宽宏大量的
martin
catch
执行部门
执行委员会
执行者
经理主管人员
执行的
善于执行的
善于经营的
##less
注视
##ey
思考的
有理性的
椅子
显要的席位
主席
使入座
使就任要职
肩
肩膀
衣肩
肩负
负担
担任
用肩推挤
1979
信心
期望
信赖
决定
决断
戏剧集
击败
战胜
挫败
使困惑
自治区
市当局
市民
不论
两个中的哪一个
奉献
慢慢地
迟缓地
痛苦
疼痛
辛苦
使痛苦
作痛
疼
冰
冰淇淋
糖衣
冷若冰霜
矜持
贿赂
使结冰
冰镇
覆以糖衣
结冰
方向
##ion
纸
文件
文章
报纸
证券
证件
用纸糊
贴壁纸于
用纸包装
贴壁纸
纸做的
纸上的
代表团
使命
传教团
派遣
向传教
1981
大部分
主要
200
著名的
显著的
扬名的
个体
个人的
独特的
与中央化计划及管制有关的
托管的
自然
大自然
life
植物
作物
树枝
生长
设施
成套设备
种植
栽培
播种
殖民于
使位于
##ha
除
除了之外
若不是
除非
只是
慎重的
电脑
电子计算机
价格
图形
描绘
演算
估计
关联
后果
出口
争端
造成结果
传下
放出
发给
有含义的
暗示的
值得注意的
损失
遗失
失败
输
错过
伤亡
平息
漠然
死
骰子
冲模
以微笑表示
枪
1972
##am
男性的
雄性的
带来
促使
目的
进球
射中次数
mexico
难题
成问题的
难处理的
远方
遥远
商业的
商用的
商品化的
商业广告节目
十分地
圆满地
特定区域
年刊
年报
每年的
一年一次的
全年的
一年生的
出名的
极好的
驾车
快车道
推进力
驱动
击球
驱动器
开车
猛击
飞跑
1976
脖子
衣领
颈
拥抱
拥吻
割颈
1978
表面
平面
表面的
外观的
肤浅的
水面上的
使成平面
使浮出水面
浮出水面
在地面上工作
使发生
italy
领会
懂
懂得
greek
大道
捷径
错误的
不正当的
失常的
错误地
旅馆
客栈
从…来
出版
joseph
两倍
两倍的
双重的
使加倍
加倍
代替
快步走
议题
争点
债券
音乐片
音乐舞台剧
音乐的
声音美妙的
喜爱音乐的
公司财产
伙伴
城堡
象棋中的车
置于城堡中
盘踞于
流入
检讨
复习
回顾
检阅
评论
温习
再检察
复审
复习功课
写评论
与会者
装配
组件
低沉的声音
男低音
椴树
低音的
国会
议会
设计师
经验
体验
1974
一项
个别项目
详细说明
独有的
挑剔的
步行
行走的路程
竞走
散步场所
处世
走过
遛
使走
护送走
步调
步兵
走在上
给换底
支付
总计
工程学
说话的
多嘴的
富有表情的
窗户
窗子
窗口
给开窗
抛踢球得分的
##ter
失误
避免
小姐
未得到
未达到
未听到
未觉察
逃脱
遗漏
思念
击不中
婴孩
男孩子们
小伙子们
中断
破裂处
绝交
破晓
突变
打破
弄破
弄坏
违反
打断
削弱
破碎
决裂
变弱
分隔符
1975
明星类
边缘
尖锐
刀刃
优势
使锐利
挤进
镶边
缓缓移动
记得
回忆起
记住
铭记
纪念
政策
方针
保险单
入神的
被运的
忘我的
火车
列车
长队
一连串的后果
受训练
锻炼
露天大型运动场
条
棒
酒吧
栅
障碍物
禁止
性别
性欲
区别的性别
引起的性欲
安杰利斯
天使城
证据
迹象
##ge
适当的
助理
助教
有帮助的
助理的
soviet
1977
较高的
上级的
上院的
穿在外面的
北部的
地表的
后期的
鞋帮
上齿
步
步幅
脚步声
踏级
短距离
步态
等级
踏
以步测量
跨步
使成阶梯状
轻快地走
踩
踏上
行走
翅膀
翼
机翼
派别
给装上翼
飞过
使飞
空运
增加速度
飞行
1970
年轻
青年时代
青春
财政的
金融的
伸出
岬
伸出手
传到
##ll
男演员
行动者
数目众多的
多数的
##se
##st
点头
打瞌睡
抵达
抵港
已到达的
##ation
分钟
备忘录
笔记
摘录
测定时间
微小的
详细的
##nt
对…信以为真
难过的
悲哀的
遗憾的
综合体
情结
络合物
组合的
美丽的
克服
圣堂
庙宇
礼拜堂
太阳穴
鬓角
1968
1973
机会
意外
偶然发生
冒险
金属
金属制品
合金
质料
金属制的
以金属覆盖
##son
1945
主教
热果子酒
##et
背风处
避风处
下风处
庇护
避风的
背风的
下风的
保护的
详细地
细致地
树
木料
树状物
把赶上树
le
隐退的
退休的
退役的
科目
主题
臣民
主语
题目
经受者
受治疗者
易患的
隶属的
受支配的
在条件下
使隶属
奖金
战利品
得奖的
珍视
估价
撬
撬动
容纳
包含某字符串
是的
理论
学说
原理
推测
帝国
帝权
##ce
忽然
即席作成
即刻
急速
等候
等候的
服侍的
信任
受托
托拉斯
信托的
托拉斯的
盼望
赊卖给
依靠
记录用的
##to
幸福的
条款
费用
交谊
露营
帐篷
扎营
使扎营
拥护者
战士
保卫
拥护
优胜的
1971
宗教性的
宗教上的
严谨的
修道士
出家人
要隘
通行
护照
及格
传递
忽略
流通
宣判
被忽略
不叫牌
西兰岛
名望
港口
埠
舱门
避风港
左舷
炮眼
意义
左转舵
持
古代的
年老的
雄猫
角落
转角
窘境
迫至一隅
垄断
使陷入绝境
相交成角
代表
体现
作为…的代表
观察
手表
守护
监视
值班人
照顾
守侯
法律的
法定的
合法的
反对者
反对论者
反对的
公平
正确
司法
使产生
使遭受
哥们儿
45
材料
物资
布料
肉体的
简单地
简直
简朴地
坦白地
反应
回答
响应
路易斯
快速的
紧的
紧紧地
绝食
斋戒
##ting
答辩
反驳
适应
答应
负责
60
历史的
史实的
历史上的
1969
直线
直
直的
笔直的
直接的
不断地
建造
面孔的一部分
特写
是的特色
起重要作用
增强的
比率
率
鉴定等级
责骂
被评价
行政
政府机关
virginia
预期损失
活动区
活动性
文化的
教养的
修养的
从头至尾的
一切在内的
总的说来
罩衫
工作服
胜利者
优胜者
程序集
所有程式
篮球
木头支架
腿
守卫者
警戒
护卫队
防护装置
当心
防止
警惕
警卫
超过
在那一边
迟于
在远处
更远处
演员阵容
铸件
预测
特性
投
抛
铸
使弯曲
浇铸成型
博士
授以博士学位
诊断
修改
行医
毫米
逃走
飞跃
飞机航程
班机
迁徙
飞逝
为装上羽毛
使惊飞
剩余物
废墟
代价
价值
使失去
值
使花费
效果
冬季
萧条期
衰退期
冬天的
使度过冬天
过冬
##ble
群岛
会长
grow
司令官
信息系统网络
综合业务网
国际信令网
内码
1967
薪资
付款
补偿
付清
偿还
对有利
为涂防水物
付出代价
得到报应
获得好处
已失败的
挑选出来的
精选的
伤害
创伤
损害
伤心
危害
堡垒
要塞
易货站
设要塞保卫
设要塞
盒子
方框
一巴掌
装入盒中
打耳光
拳击
组编成团
严格管制
大半
日记
日报
35
爱德华
##ke
##ni
show
漂亮的
优美的
机灵的
狡猾的
颇
irish
人物角色
径直地
直率地
正好地
直截了当地
马上
一当就
情景
镜头
发生地点
道具
布景
景色
有可能的
前途有望的
操作的
同意给予
容许
猜想
春天
弹簧
跳跃
泉
春天的
跳
弹跳
裂开
高耸
使跳起
使爆炸
突然提出
##j
年少者
地位较低者
大学三年级学生
年少的
后进的
美貌
偷懒
游手好闲
扩音器
话筒
房子的总称
家园
洋房
同事
同伴的
同事的
同道的
##tion
海滩
婚姻
婚礼
合并
##ham
##ive
条例
油
石油
油画颜料
涂油于
使融化成油状
加油于
加燃油
融化
65
florida
预期的
预料的
附近的
近旁的
近旁地
讨论会
sam
和平
和约
和睦
安宁
静寂
安静下来
不作声
近代的
最新的
罗马数字3
等待
伺候
推迟
等
耽搁
伺候用餐
细胞
电池
##do
多样
变种
杂耍
上菜
一份食物
同意的
通过协议的
请
使高兴
合的心意
取悦
使人满意
讨好
敬请
贫穷的
贫乏的
不幸的
可怜的
拙劣的
乔
太平洋
太平洋的
太平洋沿岸的
爱好和平的
安静的
平息的
木材
木制品
植林于
给添加木柴
收集木材
民主的
块
片
碎片
标准量
修补
修理
拼合
接线头
吃零食
最佳部分
全盛期
加油启动
灌注
填装
##ca
田园的
乡村风味的
很大距离
碰
触
机灵
轻触
格调
缺点
弹力
触及
使接触
涉及
影响到
使轻度受害
提到
看上去好像
小镇
镇区
1964
1966
战士数量
##men
##ized
1965
pennsylvania
关闭者
闭合器
关闭器
战斗的
容易引起争斗的
适于格斗的
好斗的
好战的
斗争的
搏斗的
搏斗
宣称
声称
断言
抓痕
刻痕
帐目
乐谱
终点线
刻划
划线
评价
把记下
记分
琼斯
物理学的
好色的
编者
编辑
主笔
编辑器
编辑装置
##ous
加满的
装满的
满的
特效药
具有特效的
特定地
具体地
入席
就坐
开庭
孵卵
坐着的
就座的
在职的
在孵卵中的
易被击中的
跑龙套角色
冗员
特级品
特大号
特大的
超级的
十分的
过分的
妈妈
##va
被支持的
要人身份
恐怖
害怕
担心
恐惧
为担心
敬畏
商店
贮藏
备用品
存储器
储存
贮藏的
现成的
含义
意味深长的
wales
未成年人
副修科目
较小的
二流的
未成年的
副修
spain
塔
高楼
翱翔
焦点
焦距
聚焦
使聚焦
调焦
恶习
恶行
罪恶
缺陷
恶癖
老虎钳
钳住
坦白的
率直的
老实的
免费邮寄
免费邮寄特权
跟随
沿行
遵循
接着
追随
教区
堂区
独立件
抽印本
分开的
各别的
分隔的
分居
使分离
使分开
区分
使分居
含金的
贵重的
繁盛的
马
骑兵
脚架
骑马
使骑马
系马于
第五
五分之一
支店
支流
分部
分支
出枝
分割
用枝状叶脉刺绣花纹装饰
32
表示"展示
出示"
举向
露出
凝视
##id
美国就业局
秘密
机密
秘诀
秘方
极机密的
暗中的
神秘的
偏僻的
窗体
##co
棒球
确切地
精确地
恰好
确实
恰恰正是
确实如此
##ck
选择
精选品
挑三拣四的
注解
显要
注重
便笺
照会
行进
被传播
使移动
沉着的
实情
russia
球
球状物
捏成球形
颜色
面色
颜料
外貌
把涂上颜色
粉饰
使脸红
歪曲
变色
吻
接吻
爸爸
爹爹
风
气味
风声
卷绕
弯曲
嗅出
使喘气
吹号角
上发条
缠绕
包
绞起
吊起
使迂回
嗅出猎物
吹响号角
卷曲
蜿蜒
迂回
继续
延续
延长
使继续
使延长
环
环形物
拳击场
戒指
角逐
小集团
铃声
钟声
套住
按铃
敲钟
成环形
响
鸣
归类
谈及
送交
参考
算术
数字显示的
数字的
数字仪表
数字式电子表
##ns
米
格律
用于竞赛名称
metres
苗条地
指示
加大
繁殖
1960
有责任的
负责的
责任重大的
一群人
全体队员
规律
章程
破折号
铅线
树木
乔木
树状结构
装甲部队
骑兵队
##no
一文不名的
百
百个东西
百个
一百的
重
重量
体重
砝码
重大
加重量于
压迫
使加权
称重量
小溪
小湾
昏迷
麻木
冬眠
睡觉
记忆力
回忆
存储
内存
防卫
防卫物
安排好的
有规律的
有条理的
代码
密码
法规
法典
把编码
购买力
计算结果
重视
jewish
微软公司生产的“视窗”操作系统
1944
保险箱
冷藏室
安全的
平安的
稳健的
有把握的
法官
裁判员
审判官
鉴定人
鉴定
判断
下判断
作评价
无论什么
军
兵种
实现的
已实现
成长的
炼油工程师
##ga
亚历山大
躺卧
传播
散布
伸展
双唇展开的
伸展的
铺开
推广
涂
敷
扩大
传开
斯科特
字母
证书
字面意义
铅字
出租人
写字母于
在上刻字母
用字母标明
写印刷体字
市长
运输
运输工具
狂喜
流放犯
传送
流放
守望
工人
人员
伸出的
竭尽全力的
广大的
扩大范围的
##li
词语
常态
正常
正规的
师范的
正态的
##ment
图表
海图
制成图表
倍数
并联
多样的
多功能的
边境
花坛
在上镶边
接界
近似
##ba
旅馆老板
节目主持人
当主人招待
作节目主持人
##ner
每日的
日常的
每日地
日常地
mrs
墙体
钢琴
##ko
热度
体温
高潮
加热
激昂
加剧
把加热
使激动
无法
不能
##ate
挣得的
商品
戏剧艺术
纪元
当权者
当局
权威
专家
四季
接合点
年级
坡度
斜坡
分等
分级
评分
属于某等级
逐渐变化
##io
招牌
征兆
正负号
手势
签名
打手势表达
机器
机械装置
自动售货机
机械般工作的人
以机器制造
1963
领地
版图
活动范围
主要地
##wood
骑兵营
分遣队
小舰队
1962
铁
熨斗
铁器
坚强
烙铁
镣铐
烫平
熨
用铁包
19th
##led
可作用
对待
侍应
开球
轮到发球
来到
天空
天色
天堂
击向空中
挂在高处
高涨
演说
发言
坏掉的
打破的
断掉的
指控
冲锋
电荷
炸药
被托管人
控诉
加罪于
使充满
使充电
使承担
要价
收费
千米
公里
离开的
间隔的
远离的
舰船
冠词
物品
物件
校园
大学生活
简单的
朴素的
单纯的
绝对的
初级的
迟钝的
出身低微者
傻子
##ty
拮据的
紧张的
没空的
忙
britain
##ve
树叶
花瓣
最近
cd
软的
温和的
柔和的
柔滑的
温柔的
软弱的
坡度小的
笨的
纸币的
柔软的东西
笨人
纸币
柔软地
温和地
boston
后者的
较后的
近来的
缓缓的
舒适的
从容的
宽容的
流畅的
随便的
自在的
疲软的
容易地
获得的
后天的
poland
##sa
品质
才能
质量
优质的
出席
面前
仪态
计划了的
预定的
根据计划的
有组织的
大多数
群众
弥撒
群众的
大规模的
整个的
使集合
聚集
广播
广播的
经广播
四散地
牛仔裤
牛仔布
斜纹棉布
参与
一份
参股
分担
分享
肖像
想象
图像
形象
作的像
象征
荒野
荒地
野性的
野蛮的
失控的
任性的
杂乱的
轻率的
狂热的
疯狂的
狂暴地
失控地
出价
报价
使出现
献祭
求婚
皇帝
电的
导电的
电动的
读物
阅读的
列有标题的
具有某种类型的头或头发的
才干
晋升的
黄色
黄色的
1942
咽喉
喉咙
用喉音说
开沟于
更小的
政客
政治家
从事党派政治的人
##by
latin
轮辐
装轮辐
用刹车刹住
中美洲研究站
计算机化自动额定值系统
汽车收据结账证书
威廉姆斯
壮丁
雄性
不足
短少
砰然声
枪击
含气饮料
流行音乐
通俗艺术
热门的
使发出爆裂声
开枪打
突然伸出
发出爆裂声
突然出现
瞪大
砰地
80
##ier
装腔作势
代理的
演出用的
视觉
鉴于
由…组成
存在于
表现为
##ti
阶层
1961
榨
强制
压强
迫使
使增压
密封
约翰逊
初级
Junior
克里斯
克莉丝
奥林匹克运动会
环境
心跳
敲打声
拍子
拍打
打败
疲乏的
颓废的
步行的
步行用的
投票
选票
表决
选举权
得票数
投票选举
投票决定
公认
使投票
##field
必须地
carolina
文本
正文
课文
圣经文句
feature
通用的
全球的
综合的
木块
石块
阻塞
封锁
使成块状
衬衫
内衣
汗衫
色阶调整
控制色阶
弗朗西斯科
用途
论题
et
dutch
公爵
领先的
预先的
领先
胜于
在前面
在将来
气体
汽油
瓦斯
两次
保险
平安
保安设备
防护
严肃的
认真的
转弯处
车削工作
非常赞许地
中尉
助理人员
副官
商号
坚定的
牢固的
坚挺的
严格的
使牢固
使坚定
变稳固
变坚实
稳固地
maria
总额
等同
混合的
形形色色的
弄糊涂的
丹尼尔
被提议的
所推荐的
完成时
完好的
理想的
熟练的
精确的
完成式的
使完美
使精通
改善
使熟练
协议
事务
事宜
风流韵事
次级品
二等品
同时代的人
同时代的
属于同一时期的
受雇的
付清的
1943
监狱
拘留所
解救
挽救
储蓄
节省
除之外
厨房
全套炊具
标签
称号
商标
贴标签于
标注
管理的
行政的
有意的
未婚夫
修建
编制
学院的
学术的
不切实际的
大学生
大学教师
学会会员
美好的
正派的
做得好的
精密的
谨慎的
教师
老师
导师
赛马会
1956
从前
合作
法人团体
内室
关上
闭起
幽禁
合拢
轧住
停止营业
1958
鼓
鼓声
遮盖
住房供给
居留
房屋
装饰
维多利亚
好像
仿佛
歌剧
1959
毕业了的
分等级的
分度的
刻度的
官能
功能
函数
行使职责
von
说起
提名表扬
传令嘉奖
采摘的
已收获的
截出的
已清除的
有尖头的
多刺的
体格
经过验证的
简短
唐突地
贸易保护制度
图画
照片
美丽如画的人
化身
生动的描述
形象思维
画
用图说明
著名人士
值得注意之事物
交换
交换局
交换机
汇兑
交易所
选举制
1980s
热爱
百分比
百分数
赛马
赛车
鱼
鱼肉
鱼类
接合板
钓
钓鱼
查出
用接合板连接
捕鱼
用钩捞取
摸索寻找
伊丽莎白
花园
果园
菜园
栽培花木
造园
花园的
册
卷
体积
容量
份量
音量
成团卷起
把收集成卷
冰球
曲棍球
1941
在旁边
决定的
难以消除的
##ford
1940
比得上
参加比赛
反响
报复
draw
1948
女演员
舰队
水兵
海景画
海的
海产的
海底的
船舶的
海运的
scotland
钢
钢制品
钢铁
坚硬
坚固
钢的
钢制的
钢铁业的
使坚强
钢化
使冷酷
一瞥
略视
闪耀
浏览
农场
农田
种田
史蒂夫
1957
危险
保险额
冒的危险
冒险干
今晚
今夜
肯定的
魔术
魔法
魔术的
有魔力的
不可思议的
单打比赛
财物
个人财产
灰色
暗淡
灰色的
灰白的
面色苍白的
阴沉的
变灰色
银幕
屏风
掩蔽物
屏蔽
筛子
掩蔽
筛
甄别
狗
坏蛋
跟踪
尾随
##ja
居民
房客
住院医生
公共汽车
边
面数
台词表
一点也不
没有人
无一物
并无一个
没有的
中级的
文学
文艺
polish
被毁
遭破坏的
飞的
飘扬的
飞速的
飞花
创立者
建立者
使沉没
使摔倒
弄跛
浸水
沉没
摔到
变跛
倒塌
同住在一所房子里的人
一家人
户
1939
产
铺设
下蛋
打赌
隐藏处
世俗的
外行的
储备品
贮量
后备军
自然保护区
拘谨
节制
储备金
延期
usa
最高楼座
画廊
图库
##ler
1946
工业的
供工业用的
工业高度发展的
产业的
工业工人
工业股票
年纪较小者
较年轻的
入门
找商量
爱情大不同
都市的
住在都市的
习惯于都市的
刻录软件
1950
末道漆
磨光
完美
用完
毁掉
大街
林荫路
有权力的
强大的
增长
页
专栏
男侍
标明的页数
翻的书页
分页排版
侍候
翻书页
侍侯
荣誉
信用
尊敬
授予荣誉
承兑
运动衫
项目
企划
先进的
透露
基本原理
基本规律
碱性的
BASIC语言
90
步兵团
一双
一对
一副
成对
设备
拜访
降临
闲谈
33
傍晚
晚间
末期
搜寻
查究
搜查
探求
搜索
授予物
授与
努力
独奏
独唱
单独表演
独奏的
独唱的
放单飞
待遇
埋葬的
共和主义者
共和党员
共和政体的
共和国的
共和主义的
首先地
底部的
给装底
查明真相
到达底部
建立基础
拥有者
物主
所有人
1970s
israel
内幕消息
吉姆
梦
空想
做梦
梦想
剪短
敲击
振动
上下跳动
短发
悬挂的饰品
浮子
摆动
轻敲
5便士
剩余
污点
娱乐场所
当场的
现场的
现货买卖的
现金交易的
抽样的
玷污
准确定的位
用灯光照射
侦察敌方目标
70
注释
生产品
物产
后代
出示
夺标
盟主
联系
交际
熟人
ed
心灵
精髓
鬼魂
黑人的
一般承认的
滑路
del
##ally
损失的
输的
劈开
裂片
裂缝
分裂
派系
柳条
劈开的
被劈开
切开
使分裂
定的价格
主要成分
艰苦
麻烦事
审讯的
试验性的
##ina
1955
20th
猜测
臆测
作为公务员
职务上
官方地
纪念物
请愿书
记念的
记忆的
海军的
军舰的
有舰队的
字首
首字母
字首的
用姓名的首字母签名
##ization
耳语的
低语的
低声说
私语
小声说
私下说
正中的
正中动脉
中位数
中线
工程师
工兵
监造
精明地处理
策划
##ful
悉尼
##go
columbia
实力
浓度
人数
抵抗力
300
1952
眼泪
泪水
参议院
立法机构
评议会
00
卡片
纸牌
明信片
梳棉机
备置卡片
记于卡片上
梳理
asian
代理商
政府代表
动原
媒介
1947
软件
44
拉
拖
拔剑
拖拉
挨近
领取
打成平局
抽签决定
制订
草拟
拔出
平局
暖和的
暖的
温暖的
热烈的
兴奋的
激烈的
多情的
色情的
使温暖
弄热
使兴奋
使充满仇恨
变暖和
变温暖
取暖
暖
保暖物
想象上的
假定的
被信以为真的
com
正面地
##il
呼叫转移
已转运
lean
##at
候选人
投考者
逃亡
避难设备
避开
溜走
逃避
被忘掉
山区
山岳
asia
潜在性
潜力
潜能
势
有潜力的
活跃
娱乐
娱乐表演
象是
交通
交通量
通信量
用作交换
杰克逊
谋杀
损毁
犯杀人罪
36
慢的
缓慢的
迟缓的
冷漠的
落后的
慢地
慢下来
乘积
管弦乐队
乐队演奏处
港
安息所
安置于港中
入港
代理机构
经销商
中介
bbc
teach
网站
喜剧
有趣的事情
不能的
不会的
暴风雨
骚动
风波
风暴
猛攻
起风
猛冲
怒吼
计划的制订
相簿
相册
影集
橄榄球赛
围绕
科学的
系统的
符合科学规律的
攫取
匆忙地做
##hi
以船运
代表性地
作为特色地
1954
1953
首长
本金
主犯
委托人
专注的
献身的
乘骑用马
框
衬纸
乘马
爬上
使上马
装上
装裱
安放
制作的标本
设置
ohio
##berg
精选
掘
精华
牙签
鹤嘴锄
摘
凿
挖
挑选
fight
驾驶员
驱动程序
##der
空的
空虚的
空腹的
空洞的
空的东西
空车
倒空
使变空
使排出
流空
肩部
举止
排序
协调
谢意
感谢
谢谢
berlin
卓越的
突出的
凸出的
解释
利润
算账
报帐
报偿
占
自由
坦率
必要的
转向力
alex
总部
总部人员
遵照
靠拢着
与在一起
des
西蒙
安德鲁
建议的
营业上的
业务的
关于收支的
关于损益的
外科手术的
学识
台阶
步数
1949
甜蜜
糖果
情人
甜的
芳香的
悦耳的
不咸的
灵活的
技术上的
严格根据法律的
轻易地
流利地
34
牙齿
讲话的
适于说的
讲某种语言的
安顿
解决
结算
殖民
殖民地
沉降
衡量
比例
比例尺
数值范围
天平
秤
鳞
积垢
依比例决定
攀登
测量
绘制
刮鳞
使生垢
过秤
剥落
生水垢
重量为
##sh
给…重新取名
改名
光线
射线
闪烁
光辉
射出光线
浮现
放射光线
放射
max
敌人
仇敌
敌军
敌人的
连接处
接合
关节
连接的
合办的
使有接头
贴合
长节
比较的
对照的
##rd
scottish
领导能力
领导阶层
分析
georgia
匹头
毛束
件片块个工件零件
俘获
夺取
夺得
动物
副手
代理人
客人
来宾
旅客
组织起来的
##lin
高贵的
结合的
条理
挑战
盘问
向挑战
对表示异议
1960s
极大的
无限的
需求
欲望
必需品
营
集团
儿子们
子弟
上升
高地
升高
升起
起身
起义
使飞起
犯罪
罪行
显露内心活动的
小路
1951
站台
月台
论坛
平台
坐
骑
衣服合身
1990s
##lo
已分配的
富裕的
富饶的
浓厚的
拔
牵
撕开
有吸引力
拉力
牵引力
划船
##ot
活着的
活泼的
敏感的
热闹的
##za
书信
读者投书栏
实施
为人
穿用的
使疲惫的
磨损的
恰巧
买来的
变为
使显得漂亮
使好看
神圣的
圣洁的
至善的
神圣的东西
政府电子贸易服务
美国政府应急电信服务
广阔
一大片
败北
使落空
语系
语种
语言文字
已经购买的
咖啡
咖啡色
有头衔的
##q
公告的
公然的
应用的
音乐会
和声
协力
音效
爵士乐
喧闹
爵士乐的
喧吵的
演奏爵士乐
跳爵士舞
游荡
奏爵士乐
使活泼
脑
打碎脑部
##me
绘画
油漆
港湾
敏捷的
浅
疾驰
掠过
变换船的位置
税
税款
重负
会费
课以税
使负重荷
斥责
缺口
划痕
刻痕于
弄缺
擦伤
狙击
##ius
michigan
视为
计数
伯爵
动物世界
牲畜
引线
##line
内容
要旨
满足的
满意的
使满足
使安心
##den
出生
起源
##it
梅花
64
宫
宫殿
华丽大厦
批评的
危险的
临界的
遭拒绝的
展览会
市集
美好的事物
按规则进行的
不好不坏的
公平地
有教养地
清楚地
转晴
假腿
路程
笑
发笑
嘲笑
处于有利地位
回复
周围的
编队
提升的
尖的
有尖顶的
锐利的
显然的
有联系的
关联的
连结的
rome
药
医学
内科
给用药
lay
泰勒
圣诞老人
权势
adam
夸大的
共享的
聚焦的
专心的
博学的
聪颖的
精明的
码数
进入点
入场
入学
就任
使出神
使入迷
陨石
##wa
呼唤
##ad
输入源
发起者
choose
在下方
资源
物力
码
工场
##ite
被任命的
被提名的
沉默
无声
湮没
无声息
使缄默
安静
带
环绕
使分成地带
分成区
清晰的
轮廓分明的
有定义的
##que
三十
三十个
38
主体部分
月亮
月球
月光
闲荡
虚度
##ard
被收养的
被采用的
christmas
寄存器
登记簿
注册
提示
把挂号
挂号
成零碎
成距离
分别地
分离着
分离的
iran
总理
首相
任
端上
不知道的
未知的
未知物
未知数
党派
政党机关
同行者
##les
一代
一世
##ff
扩展
快的
灵敏的
急速的
新长出的肉
核心
感觉敏锐部位
字段
场设置
旅
闲适
寂静的
平静下来
使平静
使平息
安慰
教学
教导
衣服
冲击
挤入
撞击
压紧
对发生影响
武装切换
斗争工具
合伙人
股东
伴侣
与合伙
组成一对
做伙伴
单调的
无力的
萧条的
干脆的
无聊的
平直地
断然地
扁平物
平原
平板车
至高
霸权
至高的
极端的
1938
37
##tor
受痛苦
受损害
变糟
变差
1936
威尔逊
小山羊
儿童
着手
创始
##age
1918
座椅
有扶手的
武装的
有防卫器官的
模式
值的
值得的
规章
400
群体
级别
背景
背景资料
谢忱
谢谢你
一刻钟
季度
四等分
肢解
进位
运载
携带
被携带
能达到
杀害的
疲惫的
开本
版式
格式
格式化
含锡砾石下的无矿基岩
镶嵌
沉落
一副餐具
75
建筑学
建筑式样
疾病
弊病
铁路公司
铺设铁路
用铁路运输
在铁路工作
inc
祝愿
请求
愿
亚瑟
亚瑟王
掠夺
使苦恼
强使前行
折磨
骚扰
大门
通道
密度
##di
一伙人
挤满
illinois
胃
食欲
肚子
吃下
音调
音质
语调
语气
色调
气氛
状况
思想状态
给定色调
增强
使的声调和谐
定音调
颜色调和
独一无二的
稀罕的
报表
专题
至少
##ir
自由主义者
慷慨的
不拘泥的
自由主义的
区分编码规则
交通工具
车辆
传播媒介
厚的
粗壮的
浓的
浑浊的
多雾的
口齿不清的
厚地
密地
浓浓地
最浓处
最厚处
最密集处
干的
无酒的
枯燥无味的
干燥的
把弄干
变干
干
干涸
麻药
麻醉药
吸毒
使服麻醉药
使麻木
有某种面孔或表情的
很多地
大半地
容易
灵巧
话题
创作物
奇怪的
生疏的
外地的
异乡的
陆军上校
##mi
革命
大变革
转数
铃
钟
政治
政治学
政见
政治活动
匝数
圈数
手动车床
沉默的
无声的
横杆
围栏
栏杆
铁轨
扶手
秧鸡
以横木围栏
给铺铁轨
抱怨
减轻
救济
调剂
浮雕
换班
起伏
独立
自立
自主
争斗
与战斗
与斗争
形态
身材
定形
使成形
使符合
成长
著述
写
写满
写信给
写字
写信
写作
作曲
已下决心的
销售的
学术上的
手指
指状物
手指部分
用手指拨弄
oxford
假如
1937
遗产
祖先遗留物
继承物
虚构故事
位于的
坐落在的
处于某种境地的
特指的
主持
##est
景观
眼界
即席的
见票即付的
面谈
接见
面试
对进行面谈
估算的
估计的
预计的
减少的
简化的
##ria
多伦多
足球员
足球选手
保管
各位
朋友们
球员
一点
诅咒
丝毫
该死
该死的
罚下地狱
指责
谴责
骂该死
证明有罪
要求权
认领
主张
提出要求
打手势
消遣
户外穿戴的
参加体育运动
戏弄
产生变种
使产生变种
第六
六分之一
##ze
字母N
半方
在中
作为
背后
后方
背面的
后方的
养育
饲养
举起
暴跳
收到
接到
接待
迎接
承受
会客
有手的
用手的
十二
十二个
服装
覆盖物
给穿衣
听众
观众
读者
算是如此
brazil
##well
志气
人格
烈酒
诱拐
鼓舞
##ated
及其他
等等
olympic
众议员
描写的
表现的
代表的
代议制的
典型的
科教资源信息中心
电子遥控与独立控制
密封的
严厉的
烦恼
麻烦
困难
动乱
故障
困扰
使烦恼
费心
综述
复核
饮料
酒
喝
喝酒
吸血鬼
不见的
缺少的
使成横排
重新
家常的
总决赛
波
波浪
波动
潮涌
挥手致意
飘动
挥手示意
使波动
使飘扬
挥舞
使成波浪形
评论家
批评者
吹毛求疵的人
##ee
位相
使调整相位
使定相
逐步执行
massachusetts
飞行员
领航员
航船者
导向器
驾驶仪
向导
领导人
领航
试用
引导的
控制的
试点的
不像的
不像
和不同
philadelphia
聪明的
鲜明的
欢快的
明亮地
欢快地
炮
王冠
王权
顶点
使成王
加冕
居之顶
组织机构
有机体
屋顶
室顶
给盖屋顶
遮蔽
42
各自地
个别地
舌
语言能力
讲话方式
舔
发的音
使用舌头
吹管乐器
有记号的
醒目的
圆周
社交圈
盘旋
狐狸
狡猾的人
奸狡地行动
生斑
变酸
使变酸
为换面
使生黄斑
korea
青铜
铜像
青铜色的
布莱恩
扩充的
展开的
性的
性别的
补给
供应品
补充
替代
你自己
得到灵感的
有灵感的
官方授意的
劳工
分娩
苦干
详细分析
使厌烦
fc
##ah
索引
参照
给加上参考资料
引用
幻想
梦见
气流
草稿
汇票
草案
起草
征兵
前后关系
牌子
烙印
打烙印于
1935
古典作品
杰作
大艺术家
第一流的
最优秀的
古典的
赶
推进的
强劲的
精力旺盛的
绊倒
摔倒
失足
差错
旅程
使跌倒
使犯错
使失败
犯错
结巴
远足
jesus
牢房
小屋
单元格
登录
条目
报关
1920
皆不
两个都不
都不的
两者都不
既非
既不
踪迹
一串
尾部
小径
持枪姿势
落后于
开出路
拖曳
垂下
落后
飘出
蔓生
权利要求
请求权
债权
索赔
atlantic
牧师职
神职
鼻子
突出部分
嗅觉
嗅到
探出
用鼻子触
闻
嗅
探听
告密
害怕的
恐怕的
被认同者
经鉴定的
被识别的
调用
呼吁
癌
恶性肿瘤
侵害
逝去
流逝
经过的
流逝的
目前的
及格的
仓促的
斯蒂芬
定位
帝王的
宗主国的
至尊的
壮丽的
特等品
成灰色
詹森
39
sunday
48
swedish
撤消
额外的事物
另外的收费
额外地
特别地
非常地
叔父
伯父
姨丈
通讯
讯息
教训
预言
广告词
通报
报信
暗礁群
惊奇
奇袭
诧异
使惊奇
撞见
材料费
材料科学
材质
名声
猎人
猎犬
追求者
##ji
1930
公民
规定动作
戴维斯
环境的
被证实的
根深蒂固的
拉屎
在拉屎
粪
屎
狗屁
di
表演的
履行的
不同
差异
声控遥测系统
声控制与遥测系统
评击
##ov
存在的
现有的
提倡
也不
也没有
车间
到处寻找
选购
一概
相对的
对面的
对面
对立面
pakistan
##pa
使发达
进步
洗印
显影
随着发生
结果发生
典型人物
逼真
繁忙的
##ish
几乎不
葡萄酒
果酒
暗红色
会话
全体教员
西北
西北方
西北的
在西北的
来自西北的
向西北
记录片
文件的
核子的
原子能的
核的
中心的
树干
原料
备料
库存
股票
股份
保留剧目
存货的
常备的
平凡的
股票的
保留剧目的
繁殖用的
装把手于
进货
备有
出新芽
备货
囤积
优雅
慈悲
恩惠
体面
赦免
恩典
谢恩祷告
使优美
腐蚀
两者择一
供替代的选择
两者择一的
供选择的
##ps
袋子
袋状物
使膨大
装袋
猎获
感到惊讶的
墓地
公墓
1919
滴
微量
空投
掉下
使滴下
丢失
发现物
sarah
蟋蟀
板球
市区
城市道路
传统
交付
乘坐
乘车
搭便车
漂游
1933
展览品
指标
订指标
耳朵
听觉
穗
抽穗
雨
下雨
雨天
使大量落下
作曲家
调停者
侮辱
公寓
市政的
自治区的
内政的
教育的
教育性的
已占用的
使用中的
无空闲的
netherlands
干净的
清白的
简洁的
清洁地
清理
使干净
出空
被搞干净
打扫
十亿
十亿个
宪法
认识到
得知
1914
最大量
极大
最大极限的
正统派的
经典的
弗朗西斯
浪费
迷失
使迷路
输去
使沉溺于
受损失
敌对
相反
在野党
约瑟
安大略湖
熊
支承
通过卖空使跌价
结果实
压挤
core
辗压的
辊轧的
轧制的
终了
收场
拔出的
永久的
不变的
烫发
乐趣
供娱乐用的
##tes
##lla
吊楔
遗址
举办地点
室
枪膛
装
把关在室内
室内的
赖安
##way
海拔
1934
##house
歌词
凝视的
瞪着眼的
显眼的
55
行政官员
1917
雪
积雪
下雪
雪花形干扰
似雪般落下
使雪白
用雪覆盖
使像雪般落下
最旧的
最老的
##tic
柑橘
桔子
橘色
橘色的
##ger
有资格的
内政
心灵的
内地的
表面上
显然地
继承
成千的
许许多多
晚餐
正餐
家畜的肺脏
灯光
风扇
狂热者
粉丝
很重地
严重地
难以忍受地
41
conservative
发送
使进入
寄
使陷于
寄信
派人
播送
上升运动
碗
木球
大酒杯
滚木球
快而稳地行驶
加上
外加
正的
正号
加号
附加额
正数
增益
输入
回车
进去
捕捉
陷阱
捕捉之物
拉手
赶上
听清楚
燃着
##un
经济
理财
节约
责任
关税
1929
引语
民族语言
官方
公主
王妃
女巨头
性能
译本
毕业生
量杯
已得学位的
研究生的
毕业的
毕业
得学位
逐渐变为
准予毕业
授予学位
分等级
刻刻度
有生力量
牢记
记着
回想起
诗
韵文
诗歌艺术
书桌
办公桌
十字的
划掉的
扮演主角
领衔主演
纯锑表面呈星状花纹
开创
乘客
半升音调
利刃
骗子
锋利的
明显的
敏锐的
急剧的
尖刻的
刺耳的
锐利地
##ant
英亩
驴
傻瓜
屁股
天气
气象
迎风的
使受风吹雨打
侵蚀
使风化
经受住
风化
受侵蚀
经受风雨
落下的
坠落的
下降的
横列
队伍
茂密丛生的
恶臭的
粗俗的
把分等
列为
列队
秩
基金
资金
存款
财源
提供资金
积累
支持的
辅助性的
检查
支票
阻止物
寄物牌
象棋中将军
核对
寄存
托运
逐项相符
开支票
成人
成虫
刊印
正面朝上的
cm
东南
东南地区
东南的
向东南的
来自东南的
往东南
来自东南
巷
弄
单行道
##burg
应用
申请
志愿书
应用程序
bc
##ura
发射脱离系统
使健康
使适应
转让
转移
过户
换车
使转移
调转
调任
转学
转职
预防
显示器
夸示
已离婚的配偶
地域
联邦
凉爽
凉爽的空气
凉爽的
冷却
使冷却
相对地
比较地
相当地
相关地
而且
1928
命运
嫁妆
给嫁妆
##town
混合物
混乱
糊涂
使混合
弄混
使结合
混淆
相混合
##ding
反作用
反动
主持牧师
快车
快递
专使
丝毫不差的
表露
山峰
巅
山顶
尖峰
帽舌
最大值的
到达最高点
消瘦
变憔悴
逐渐缩小
使竖起
使达到最高点
1932
##tte
计算器
计算者
柜台
筹码
反方向的
反方向地
相反地
宗教
信仰
链
枷锁
束缚
用铁练锁住
囚禁
罕有的
珍奇的
稀薄的
半熟的
非常好的
厂主
蛾
大会
约定
外援
有助于
谎言
假象
躺着
说谎
停泊
谎骗
移动的
易变的
机动的
活动物体
班
小队
编成班
奇迹
惊愕
想知道
惊讶
横躺的
说谎的
发狂的
刀
剑
剑状物
##ping
企图的
未遂的
100年
一世纪
100分
千秋
weren
哲学
人生观
哲学思想
哲理
达观
沉着
类项
##ize
安娜
感兴趣的
47
sweden
狼
残忍贪婪之人
极度穷困
狼吞虎咽
大吃
频繁
被抛弃的
无约束的
恣意放荡的
千克
公斤
文学的
文艺的
精通文学的
作业
困难的工作
派给工作
使辛劳
给与名称的
##ay
throw
晋级
创建
产生地
代理店
英式足球
表面暗淡的
无光泽的
表面粗糙的
不光滑的
fm
取得的
52
防卫设备
内在的
persian
43
研究方法
##ging
被捕的
逮捕的
被拘留的
不同地
别的方式
cambridge
节目的计划
编制程序
村镇
初步的
选区
英国教区的分区
罪犯
犯人
刑事
犯了罪的
刑事的
有罪的
矛盾
争执
抵触
苦恼
撕咬
使焦虑
训练过的
受过培训的
培训
1931
努力去做
信号
暗号
近因
导火线
向作信号
用信号通知
发信号
作为信号的
鸟
羽毛球
打鸟
卡车
对进行交易
来往
实物工资
蔬菜
废物
废话
以卡车运输
以物易物
后来的
接下去的
##ol
49
共产主义者
共产党员
详细资料
忠实
保证
扇形
函数尺
象限仪
段
把分成扇形
帕特里克
笑声
大笑
以笑表示
##ss
受约束的
克制的
korean
起因
出身
燃料
木炭
加燃料
供燃料
得到燃料
邪恶
不幸
邪恶的
有害的
讨厌的
1927
##ent
摘要
简报
对作简报
节录
身份
相同
恒等式
暗
深色
隐密
无知
住址
写地址
水塘
石油层
联营
合伙经营
共享
汇聚成
汇合成塘
淤积
投偏
未抓住
出版物
网
蛛丝
蹼
织物
圈套
卷筒纸
结网
形成网
织蜘蛛网于
使落入圈套
行星
命运星辰
杰出的人
重大影响的事
伊恩
安妮
舞台两侧
侧景
##tt
扼要地
简明地
轻拂
##be
工业设计优秀奖
气候
社会趋势
气候区
成为…的原因
walter
更坏的事
更恶劣的事
败局
更坏的
更恶劣的
更坏地
更恶劣地
艾伯特
成功者
陈的
有岁的
东北
东北的
向东北的
来自东北的
向东北
来自东北
牌楼
闸
装门于
疑惑
不信
1922
木制的
呆笨的
木然的
##ky
诗人
造反
叛乱
上升的
高涨的
新兴的
46
交通设施
通讯系统
猛烈
暴力
暴虐
暴行
打印份数
复印份数
复制品
副本
特制的
浅滩
福特汽车
涉过
涉水
审查
技能
技巧
1924
电子的
##ak
##ial
##han
最终
办事处
歌声
谅解
餐馆
饭店
明天
未来地
流行
风尚
时样
造
作
christ
病房
守卫
监护
行政区
锁孔内的榫舌
使入病房
da
罗马教皇
架子
货摊
流程
流动
洋溢
泛滥
涨潮
流泄
畅流
川流不息
飘扬
使流动
淹没
通风
晾干
受委任的
受任命的
泰然自若的
淡的
精神饱满的
冒失的
最新地
americans
##per
摔跤
被认可的
经过检验的
小山羊肉
小孩
小山羊皮制的
哄骗
尊重
问候
套装
合适
相称
1925
天使
守护神
善人
使适合
陷害
愤怒的
卖的
销路好的
出售的
1950s
薄的
细的
瘦的
稀疏的
弱的
使变薄
使变细
使稀少
使淡
变薄
变少
变淡
薄地
稀疏地
微弱地
细小部分
发觉
##nd
温度
发烧
指令
声明
ali
住户
汤斯
广的
狭窄部分
隘路
仔细的
勉强的
狭隘的
手紧的
变窄
使变狭窄
51
简
图片
意象
约定的事情
有指望
允诺
预示
有前途
到某处
在某处
物体
对象
宾语
客体
抱反感
提出来反对
苍蝇
两翼昆虫
飞
飞翔
飞越
逃出
##ls
1912
办公处
海角
披肩
斗蓬
1926
周刊
周报
每周的
一周一次的
周刊的
每周
一周一次
总统制的
总统的
首长的
统辖的
立法的
有立法权的
1921
##ai
##au
下水
汽艇
使下水
起飞
投入
##ny
978
##ring
火炮
炮兵
炮术
罢工
殴打
侵袭
取消
打掉
刺透
使生根
搏动
触礁
敲
穿透
打动
un
滚动
案卷
压路机
滚
飘流
绕
使滚动
作者
码头
降落
动产
凯文
再也不
不再
pp
##ut
律师
适宜
合身
痉挛
使合身
使合格
广告牌
布告板
宣传
农业的
seek
戴夫
被承认了的
mexican
##bury
charlie
明确地
按特性
孔
洞
漏洞
挖洞
掘坑
进洞
凿洞
输入阀
交互式视讯
自变量
霍华德
贷款
学分
归功于
赞颂
moscow
开敞或半开敞锚地
意外事件
机遇
事故
次要方面
1923
prove
戴
耗损
耐久性
留
磨损
磨成
使疲乏
变旧
耐久
渐变
渐渐消失
受罢工影响的
嗨
禁卫军
后卫
素质
织品
装填
slide
扩充
开展
膨胀
1915
猫
恶妇
呕吐
计算机辅助教育
计算机辅助测试
计算机辅助翻译
计算机辅助排版
安东尼
##kin
melbourne
敌对的
对抗的
补充人员
潜水艇
胶层
订户
附属的
次级的
转包
西南
西南方
西南地区
西南的
来自西南方的
往西南
来自西南
建筑师
设计者
缔造者
失败者
破产
平的
平面的
将刨平
刨平
掠过水面
乘飞机旅行
刨掉
1916
##ron
地图
天体图
映像
映射
绘制地图
照相机
摄影机
密谈室
暗箱
槽
柜
罐
池塘
储水池
坦克
储于箱中
听从
湿气
潮湿
水分
湿的
潮的
搞错的
下雨的
反对禁酒的
变湿
传入
采用
初步
大都市居民
都主教
宗主国的公民
大都市的
都主教区的
连结物
链接
火把
连结
挽住
连接起来
EP盘唱片
斗士
好战者
战斗机
英寸
身高
小岛
慢慢前进
慢慢移动
使缓慢地移动
长大的
长满某物的
基因
忿怒
激怒
使发怒
发怒
买
购买
买得的东西
数字化视频光盘
可汗
商队宿店
驯养的
全世界的
小教堂
礼拜式
压榨机
磨坊
制造厂
碾磨
磨细
搅拌
使乱转
乱转
被碾磨
列证
##head
发展中的
1910
火鸡
无用的家伙
土耳其
击打
网页点击数
采样数
口袋
钱袋
钱
装在口袋里
隐藏
私吞
击入袋
袖珍的
压缩的
金钱上的
安东尼奥
官方文件
使长满
电路
环道
18th
关心的
有关的
参与的
担心的
依恋的
充满爱心的
新闻记者
从事新闻杂志业的人
选文
行程
修改的
改变信仰的
外地人
粗野的人
省的
偏狭的
描画的
着色的
刷上油漆的
涂脂抹粉的
矫揉造作的
听讯
雅伦
爱伦
否定
否定语
负数
底片
否定的
消极的
负的
阴性的
负值
小声说的话
旁白
在一边
对…感到好奇
骑士
爵士
授以爵位
膝盖
下摆
衣兜
山坳
重叠
围住
轻拍
抱在膝上
使重叠
泼溅
纵览
俯瞰
审视
通盘考虑
测量土地
ma
##ow
噪音
杂音
响声
谣传
警棍
##ium
猎场
引导者
导游
指南
路标
任向导
卧室
祭司
神质人员
僧侣
泰斗
反抗
耐力
阻力
电阻
马达
原动力
马达的
发动机的
汽车的
发动的
以汽车载运
乘汽车
巨人
大力士
巨大怪物
庞大的
##mer
150
现场
场景
匹敌
同辈
平等的
胜任的
平静的
不相上下的
等于
连环漫画
喜剧演员
滑稽的人
滑稽的
有趣的
喜剧的
病人
隐藏的
固体
稳固的
固体的
实心的
纯质的
立体的
立方的
使朝移动
午后
下午
精神不太正常的
受感动的
现金
结婚周年纪念日
运河
水道
管
沟渠
开运河
sr
金姆
条约
谈判
turkish
赞誉
认得
识别
居住期间
大教堂
宽广的
辽阔的
宽阔地
宽阔部分
膝
膝部
坐下时)大腿朝上的面
事变
小事
附带的
易于发生的
入射的
成某种形状的
制成一定形状的
有某种形状的
计划好的
有目标的
因祸得福
norwegian
把手
把柄
柄状物
手感
搬运
易于操纵
句柄
颊
厚颜
脸蛋
争论
争取
争辩
再赠送
再上演
提出异议
##pe
美人
##sen
鸟类
禽
优点
便利
紧急状况
紧急事件
紧急需要
有包装的
制图
布告
预告
短评
提及
关注
粉红色
石竹花
典范
头面人物
极度
粉红的
石竹科的
比较激进的
脸色发红的
精致的
有点下流的
刺
扎
射伤
使面红耳赤
使变粉红色
变粉红色
##ong
不知何故
单身汉
学士
第七
七分之一
收集成的
镇定的
注册的
登记过的
记名的
挂号的
确立
艾伦
假装的
装的
化学药品
化学的
化学上用的
人事部门
人事科
对!
行!
好!
退休
隐居
撤退
杰夫
portuguese
wear
发明物
恐吓
恶兆
威胁
行过的路程
使前进
使提前
预付
##ised
斜床
租用
雇用
manchester
全国橄榄球联盟
构筑物
业务方式
##bo
网球
saturday
出售
卖
拍卖
销售额
廉价出售
应用软件
会合处
交叉点
臀部
蔷薇果
忧郁
熟悉内情的
使忧郁
给造屋脊
喝彩声
根据法律组成的公司
邻近
穿好衣服的
打扮好的
去内脏及分割加工好的
典礼
礼节
##ds
影响性的
对…起作用
视觉的
楼梯
十年
十年间
内心的
kansas
hang
赚到
获利
市中心区
市中心的
往闹市区
忙碌的
austria
时钟
计时器
绣花边花
绣花样
记时
记录时间
norway
确定地
栅栏
暗淡的
变苍白
变暗
失色
使变苍白
使失色
用栅栏围
受保护的
1913
员工
雇员
从业人员
碟
盘子
盆中物
金属板
图版
金银餐具
印版
金属牌
镀金
电镀
用金属板固定
给装钢板
为制印版
打球入洞
被…环绕着的
##ists
终点的
勃鲁斯乐曲
伤感的
伤心的
热带的
##ries
minnesota
philippines
赞成
承担
采纳
接纳
容忍
54
重新取回
恢复
1900
使担心
使挂念
安德森市
安德森
gordon
结果良好
有成就
vietnam
##dy
后退
衬背
后援
杰出的
未偿付的
未决定的
muslim
横越
横渡
渡口
人们
亲属
民间的
生产的
查询
重现
观测的
观察的
受过教育的
有教养的
##ana
kelly
细绳
字符串
串起
成串
收紧
缚
成一串
快乐
愉快
令人高兴的事
高兴
预算
编预算
编入预算
廉价的
名目
所有物品
安静地
沉着地
秘密地
colorado
菲利普
象征性的
##worth
导出的
衍生的
派生的
600
幸存
活下来
比…活得长
经历…之后还存在
幸免于难
挺过
可用座位公里
客运运能
心智的
精神病的
心理的
颏的
精神病患者
##ide
56
乡下佬
犹太人
犹太教
卓著的
ltd
1911
斯里兰卡
神圣罗马帝国
极端地
53
大声的
不断的
高声地
大声地
数千
闷闷不乐的
阴影
荫
影子
阴暗
幽灵
隐蔽处
使朦胧
变阴暗
输送
交通车辆
马匹
兵器
角斗场
重要性
重要地位
自大
使用者
受限用户
蒂姆
已缴入的
贡献的
分配的
龙
凶暴的人
道格拉斯
知道的
有觉悟的
参议员
约旦
约旦河
尿壶
姐妹们
火车头
旗标
旗子
信号旗
菖蒲
悬旗
打旗号
铺石板
无力地下垂
投资
撒母耳
塞缪尔
震动
震惊
突击
禾束堆
休克
长毛狗
使震动
使休克
使受电击
震惊得
吓人
蓬乱浓密的
有能力的
能的
克拉克
使成排
划
痛骂
划动
轮子
车轮
轮
方向盘
重要人物
针对
关系到
请教
开庭期
熟悉的
常见的
熟友
常客
视窗网际网路名称服务
恨
厌恶
憎恶
仇恨
被保持的
畜群
汉密尔顿
哈密尔顿
申请书
受伤的
受损害的
被触怒的
地下
地铁
地道
秘密活动
地下的
在地下
礼拜仪式
教派
基督教牧师
徒步者
轻便鞋
隧道
地下道
挖隧道
掘隧道于
愚蠢的
农业
柔和地
静静地
温柔地
橱柜
内阁的
细木工做的
接缝
连接物
indiana
##ea
##ms
推
奋斗
进取心
使伸出
推行
努力争取
枣子
大枣
消耗
用尽
树林
蛋白质
蛋白质的
轻轻地
狩猎
追逐
追捕
在上镶嵌宝石
追赶
morgan
言及
燃烧的
象燃烧一样的
烧
燃烧
叫醒
激发
醒来
醒着
觉醒
活跃起来
守夜
尾迹
被想到
镜子
写真
映出
管道
铁撬
的确
不可能的
难以置信的
令人无法忍受的
singapore
涂漆
印刷品
掩护的
掩盖的
##nes
军人
兵蚁
从军
尽职
磨洋工
定位件
出席的人数
背叛
出卖
推销术
失望
历史学家
记事者
wisconsin
侵犯
侵入
油漆匠
迭戈
egypt
##don
富有经验的
##ku
missouri
vol
沉淀物
口头讲的
口语的
switzerland
##gan
改革
改正
改造
改过
革新
重整
旋转的
波动的
起伏的
轰响
动摇
嘿
哈
哈哈
忘记
忘
大而重的
宏伟的
听任的
已辞职的
burn
tennessee
上锁的
不灵活的
下定决心的
对价值的看法
准则
价值观念
改良的
##mo
星系
不舒服
有病的
恶心的
厌恶的
渴望的
病态的
追击
使去攻击
贴边
饰面
包裹
一伙
背包
包装
捆扎
塞满
包装货物
挤
群集
被包装
购买品
紧握
绞辘
努力取得
用滑轮起
##pur
##ul
融合
周年纪念
1908
煤
加煤
砖块
积木
用砖做的
用砖造
用砖砌
understand
朝代
王朝
queensland
移植生长
百货商店
用作贮藏处的
贮存的
危机
危险期
紧要关头
晋升
推销
景点
一副纸牌
一副扑克牌
纸牌游戏
打扑克
仲裁人
调解人
仲裁
裁判
扩展名
伸缩的
##si
增高
唤起
使复活
筹集
arizona
改良
提高的价值
变得更好
殖民的
殖民地的
形式的
礼仪的
拘于礼节的
拘谨的
正式的社交活动
充满强烈感情的
带电的
气氛紧张的
##rt
手掌
棕榈
与握手
藏于掌中
吉祥的
好运的
侥幸的
兽皮
躲藏处
藏
隐瞒
遮避
剥的皮
援救
营救
救出
脸面
脸色
95
情感
报考者
申请求职者
攻读学位者
最后命运或结局如何已显然可见者
胡安
##ell
货物
周末
周末休假
59
卢克
路加
兑现
堕落的
落下来的
陷落的
##om
业已交货
做作的
受影响的
安装的
已装入的
小心地
谨慎地
swiss
hollywood
诉讼费
lincoln
##he
海滨
斜撑柱
把送上岸
公文箱
文件夹
卷宗
锉刀
列队行进
用锉刀做
归档
锉
琢磨
固有的
专属的
正规地
合规则
正常地
maryland
暴涨
惊跳
跃过
突升
使跳跃
常数
恒量
时常的
奉献物
牲礼
上市的股票
友好的
互助的
友善地
大片的水
领海
近海
海域
江水
湖水
河水
矿泉水
实现
使显得逼真
变卖
自制
用战利品装饰
800
合伙
合股
合作关系
因素
因数
系数
58
音乐家
叫声
哭声
大叫
哭
叫
喊
大声说
哭出
跃
回跳
装有封面的
有义务的
被束缚的
准备去的
便秘的
弹起
使跳
限制
形成的疆界
bind过去式和过去分词
oregon
表明的
指示的
标示
表明或暗示…的可能性
英雄
超越常人者
男主角
houston
半生熟的
##ure
几分
##ara
57
自行车
一段时间
整套
轮转
骑自行车
使循环
使轮转
##che
啤酒
摩尔
弗雷德里克
十一
十一个
最坏
最坏的时候
最坏的
最恶劣的
最不利的
最糟
不牢固的
虚弱的
无权力的
不充分的
安排的
下巴
颏
借出
借
供应货款
借给
宇宙的
一般概念
捆绑物
粘合剂
保证人
关栈保留
存入关栈
使黏合
十五
十五个
式样
样品
图案
模仿
仿造
以图案装饰
形成图案
消失的
消失了的
##ney
##zed
唇
口缘
唇状构造
以嘴唇碰
轻轻说出
口头上的
arab
抓取
捕获之物
迷住
保险业
保险费
##chi
去掉
摆脱掉
换挡
凹陷
塌落
使凹陷
损坏的基础
警告
预兆
型材
外套
外面覆盖
给穿外套
小块土地
地区图
图
阴谋
情节
绘图
密谋
味道
臭味
察觉
发出的气味
散发气味
发臭
饲料
一餐
靠为生
吃东西
用餐
高尔夫球
打高尔夫球
喜欢的事物
幸运儿
特别受喜爱的
喜爱的
宠爱的
中意的
小刀
匕首
切割
戳
表决的
角度
学历
财政
财务
供给经费
负担经费
筹措资金
魁北克
翻译
转化
平移
转译
礼貌
有横隔线的
有直线行的
受统治的
动手术
产量
宁愿
欲
作出选择
乐师
被发现的事物
困惑的
混乱的
疲累的
厌倦的
不在一起生活的
水流
人潮
涌
献身于某种事业的
超群的
摔下
匆匆穿上
抛弃
摆脱
丢
掷骰子
白吃饭的人
闲散人员
量度器
量度标准
量具
限度
分寸
措施
测度
权衡
调节
拿作较量
度量
惊骇
惨状
迷
爱好者
煽动
刺激
吹拂
成扇形散开
采矿
沙
沙子
沙滩
光阴
撒沙
以沙掩盖
盐
风趣
含盐的
咸的
风趣的
辛辣的
加盐于
用盐腌
平稳
风平浪静
镇静
水坝
筑坝
跑步者
赛跑者
送信人
走私船
操作者
滑槽
##ik
匆促
冲进
灯心草
冲
奔
闯
赶紧
匆促行事
涌现
使冲
突袭
用灯心草做
紧急的
同伴
关联的事物
使联合
使发生联系
greece
##ker
里弗斯
河流州
河水钻
联贯的
matthew
##ski
叹气
叹息
悲鸣
叹着气说
叹息道
方形物
矩尺
棋盘上的方格
纵横字谜
方阵
文档
蒸汽
蒸汽的
蒸发
蒸
煮
散发
鞋带
领带
领结
不分胜负
打结
约束
与成平局
被告
1905
##ini
islamic
分布式的
bruce
微风
呼吸的
发疯的
狂欢的
狂怒
light
到达者
凝结物
混凝土
具体的
混凝土的
凝结
用混凝土浇筑
品味
味觉
感受
审美
尝
察觉的味道
体会
品尝
察觉味道
有某种味道
08
作文
挥动
业余爱好者
外行
毗连的
邻近的
1906
双胞胎中一人
一对非常相像的人中的一个
双胞胎的
成对的
孪生的
生双胞胎
怀
使成对
fly
##ran
tokyo
##tone
显而易见地
明显地
脊
山脊
储藏
1907
carl
页数
青年侍从
得出结论
推断出
沙漠
应得的赏罚
沙漠的
不毛的
遗弃
擅离
逃掉
有紧迫感的
晚期糖基化终末产物
终端机
极限
终点站
致死的
结尾的
末端的
晚期的
续发事件
按顺序排好
自治的市镇
250
选民
有创造力的
创作的
产生的
堂兄弟姊妹
表兄弟姊妹
经济学
美梦
玛格利特
显著地
著名地
分解
使衰退
把分解
把归纳
减肥
缩小
蒙特利尔
模态
调式
17th
电声额定系统
已保存的
获救的
jan
嗓音的
声音的
有声的
歌唱的
元音
声乐作品
##ica
1909
安迪
##jo
骑术
概略地
粗糙地
粗暴地
受到威胁的
##ise
公尺
其时
其间
同时
于此时
拥有土地的
有田地的
重复的
再三的
草
草原
牧场
czech
有规则地
一丝不苟地
正式地
手续费
运费
茶
茶叶
突然的
意外的
恳求
诉请
上诉
吸引力
将上诉
##ung
溶液
记述
形容
作图
皮埃尔
高兴的
喜欢的
情愿的
停车的
##ning
物理学
物理过程
物理现象
99
雷切尔
添加
附带说明
计算总和
做加法
积累而成
增添
hungarian
带有
远征
探险队
被损坏的
赠予
天才
孩童时期
85
五十
五十个
##red
数学
防卫的
防备用的
自卫的
守势
防卫姿势
每小时英里
哩/时
##ux
##gh
吃力的
试验的
##hip
数百
芽
推力
摄影
急送
滑运道
射中
喷出
投射
挥出
飞速行进
挥霍
给注射
射出
发出
所有者
业主
事项
事态
情事
烟
雾气
烟熏剂
抽烟
烟色
吸烟
冒烟
弥漫
以烟熏
抽烟而导致
israeli
kentucky
安在马上的
裱好的
祖父
始祖
艾玛
赢利
有益
赚钱
有益于
argentina
##gs
不假
li
劳伦斯
芸苔属植物
海甘蓝
detroit
乐意的
自愿的
甘愿的
分支机构
微笑的
miami
享有
玩得快乐
录像
##dale
贫穷
人种的
种族的
艳丽的
放荡的
##bi
盖理
arabic
09
伴奏
伴随的
相伴的
##one
##ons
鱼业
钓鱼的
住宅的
与居住有关的
酸
酸类物质
尖刻
迷幻药
酸的
酸性的
##ary
alice
退货
用星装饰的
用星号标明的
受命运支配的
担任主角的
盔甲
邮寄
给穿盔甲
##ang
乔纳森
战略
##ue
罗网
净利
净价
净的
最终的
用网捕
撒网
净赚
编网
四十
四十个
厨子
厨师
烹调
煮饭
在煮着
营业额
同等物
等价物
相等物
相当的
同意义的
国民整体
坏事
灾难
生病的
不吉利的
敌意的
不良的
不顺利的
有害地
不幸地
##cy
严肃地
认真地
##ors
##ped
轮班
应急办法
移位
推卸
变速
转换
转变
推托
哈里斯
里约
设想
想像起来
客套语
公式
担保
##ber
图解
图谋
有时候
偶而
好意
喜爱
赐予
##and
##ore
1930s
差别
对比
对照物
使对比
成对照
绞死
绞杀
悬挂
猎区
打猎
猎食
1904
乐器
仪器
受害者
牺牲者
受灾群众
danish
克里斯多夫
使忙
忙碌
魔鬼
糖
糖块
甜言蜜语
加糖于
使甜蜜
美化
制成糖
移民队
平衡
差额
相等
比较
##ks
belgium
打滑的
运货马车夫
05
看得见的
可见物
戏剧表演
iraq
fifa
##im
恳谈
公社
亲密交谈
融为一体
零点
零度
乌有
最低点
零的
调零
对作协调校正
07
讲的是
传奇文学
图例
浴室
选项
后部
辫子
随员
特务
燕尾服
限定继承
在后面的
从后面而来的
限定继承的
尾部的
后部的
为装尾
附于其后
使搭牢
船尾搁浅
肉体
黏土
女儿们
枕边杀机
尖锐的
颚
颌
唠叨
访问者
游客
##ded
器件
航空
航空学
飞行术
拉塞尔
凯特
##vi
被试者
##ino
暂时的
临时的
临时工
临时雇员
游泳
眩晕
往前
向外
平滑的
平稳的
安祥的
圆滑的
调匀的
无毛的
使光滑
使平和
消除
变平滑
变平静
一块平地
平滑部分
鬼
幻影
一丝
鬼似地游荡
音频的
矮树丛
岩石礁石
运动健身
埃迪
##tz
荣誉的
无报酬的
道义上的
06
达拉斯
纯的
纯净的
无瑕的
抽象的
层组
承诺
有…希望
66
harvard
首席执行官
执行总裁
16th
国会的
议会的
议会制度的
受益
肉
肉欲
人性
众生
人体
以肉喂
激起的杀戳情绪
使肥
赋以血肉
长胖
dublin
louisiana
1902
1901
承受者
忍耐的
容忍的
有耐性的
坚忍的
睡着的
1903
会员的资格
全体会员
会员数目
海岸的
沿海的
沿岸的
中古的
中世纪的
欠缺的
不足的
不够格的
元件
元素
奖学金获得者
聪颖勤奋的学生
文人学士
米饭
稻
将压成米粒状
62
界限
限定
比活得长
生还
幸免于
化妆品
化装
虚构
补考
额定功率
明确无疑地
勾结
明白的
平淡无奇的
##tan
老板
上司
岩瘤
母牛
ms
男爵
生日
显示连环遗传的
土壤
温床
污物
粪便
水池
弄脏
污辱
变脏
主教教区
##lan
全国大学生体育协会
##mann
令人不快的
侮辱的
攻击性的
贝壳
壳
去壳
炮轰
脱壳
shouldn
腰
##tus
朴实无华的东西
无格式
不好看的
罗丝
风琴
器官
解析
坚定
决议
图形分辨率
制造业的
亲戚
关系词
肯尼迪
98
和同时
只要
而
蛾害
乌头叶菜豆
行销
哗啦声
猛撞
崩溃
粗布
撞碎
坠毁
速成的
72
起始字
合作伙伴
记入贷方
卡洛斯
电缆
海底电报
缆
索
打海底电报
发海底电报
缚住
##zi
marshall
##out
瓶子
酒瓶
装瓶
围困
被弃之物
落选者
拒绝的
不用
拒收
有反应
有效果
有影响
持续存在
04
denmark
锁
刹车
水闸
一缕头发
拘禁
拴住
刹住
锁住
啮合
过闸
##ating
全麦的
粗面粉的
全麦粉制成的
路由
有才干的人
天资
委员
行政长官
毒品
药物
无虑的
安心的
保险的
固定
使安全
停止操作
船抛锚
测验
为王
为君
当政
精力恢复的
摄影术
##gi
出资
oklahoma
谋划者
制图者
圆盘
灌唱片
露齿笑
露齿而笑
seattle
旅鸫
暂停放音
暂停放像
亚特兰大
不寻常的
罕见的
与众不同的
##gate
称赞
赞美
颂扬
崇拜
阿拉伯国家联盟
大气科学实验室
光敏开关
一笑置之的
人造卫星
hungary
##sky
行李仓
打扮
装甲板
诗集
诺曼第语的
诺曼第人的
##water
stick
说话人
讲演者
发言人
喇叭
扬声器
来复枪
步枪
用步枪射击
抢夺
迅速翻查
首次公演
##her
dc
连环画
漫画
电影演员
01
声望
排除
除掉
干掉
天花板
囚徒
俘虏
被夺去自由的人
手稿
正本
手写体
改编为演出本
##nce
皮革
皮制品
马镫的皮带
覆以皮革
鞭苔
抽打
皮革的
皮制的
奥斯丁
英国制汽车牌名
mississippi
飞快地
迅速地
赶紧地
舰队司令
海军上将
旗舰
相匹敌之物
平行的
与平行
与相似
相比
使平行
水果奶油布丁
犯罪的
有过失的
自觉有错的
心虚的
工具菜单
工具箱
性
分界线
分歧
水果
果类
##bs
实验室
研究室
化工厂
肩下握颈
想象的产物
与结婚
娶
嫁
飞快的
急促的
陡的
阿姨
姨妈
舅妈
姑妈
伯母
宗族
部落
调整需要量
面貌
方位
自杀
自杀者
自杀的
在当中
adams
骨头
骨
骨制品
剔骨
专心致志
乌克兰
abc
踢
反冲
后座力
凹底
扩展企业应用套件
edinburgh
圆柱
纵队
柱形物
粗糙的东西
毛坯
未加工品
梗概
草图
暴徒
艰难
粗糙的
粗暴的
蓬乱的
草率的
大致的
暴风雨的
使粗糙
使不平
使蓬乱
粗制
粗暴对待
对动粗
变粗糙
上帝们
众神
诸神
泛指神灵
猎狐
百老汇大街
推断
关注点
关注者
##ek
经费
开销
总产量
总收率
12th
啪啪作响
突然中断
猛咬
给…拍快照
太阳的
日光的
源自太阳的
骨骼
##tta
iowa
损耗
垃圾
地面风化物
废弃的
荒芜的
多余的
使荒芜
变消瘦
指数
编入索引中
做索引
franklin
博爱
慈善团体
施舍
汤普森
斯图尔特
顶
垃圾场
小费
轻击
指点
秘密消息
装顶端
使倾斜
使翻倒
泄露
告诫
暗示
给小费
翻倒
倾覆
踮脚走
闪光
闪现
一瞬间
使闪光
山水
风景画
从事景观美化
美化景观
friday
享受
欣赏
singh
诗般美的事物
监听
助听用的
##back
第八
八分之一
佛瑞德
偏差
适合的
炸弹
轰炸
投弹于
乌克兰的
乌克兰人的
外科
手术室
换球术
社团的
合伙的
公司的
大师赛
无论何处
##more
奇数的
古怪的
剩余的
零散的
各种各样的
奇特的事物
怪人
肖恩
portugal
奥尔良
词典
誓言
kent
侵蚀的
腐蚀性的
puerto
清除
96
预期
97
吉他弹奏者
黑金石
有关电的
应允
认定
深度
深奥
垂死的
嵌板
仪表板
专题讨论小组
全体陪审员
嵌镶板
挣扎
##ged
半岛
突出的地方
伊比利亚半岛
暴露
vienna
初次表演
鞋子
tamil
流行歌曲的作者
相识
开会
证明
查验
勘探
证明是
建议
场合
引以为例
举例说明
担惊受怕的
惊慌的
吓坏了的
信件
神赐
天降
标记
唛头
台面标志
艺术的
艺术家的
富有艺术性的
移居
马以斜横步前进
使传代
长者
占优势的人
上级
出众的
高傲的
03
值得注目地
意味深长地
买东西
##tive
拦住
止住
##izing
malaysia
面颊
##ola
养兔场
拥挤的地区
生活费用
扶养
极端
尽头的
极度的
偏激的
联盟的
联姻的
联系起来的
120
版面高度
##yn
装满
填充
充满
变得沉重
充分
填方
忠告
劝告
alabama
cleveland
帽子
给戴帽子
刺痛的
剧烈的
巧妙的
伶俐的
潇洒的
著作家
创造者
发起人
10th
声迹
声槽
声带
行使…职能
扮演角色
有日期的
陈旧的
磅
文学士
辉矿类
扫视
略说
使掠过
整装
结合体
好笑的
滑稽人物
外部的
在外的
远离中心的
大使
罗伊
可能的事
夫妻
力偶
坎贝尔
dna
放任
放纵
宽松的
松的
散漫的
不精确的
开船
变松
开火
松散地
伊桑
日用必需品
生活用品
存货
补给品
1898
88
怪物
恶人
巨物
##res
发抖
间谍
特工人员
频率
频数
斯普林斯
瘦狗类
61
帮
成群结队
结成一伙
使成群结队
塑料
可塑体
可塑性物质
塑料的
塑造的
有可塑性的
造型的
易受影响的
更简单
容易些
漩涡
隔阂
吞没
叶片
刀锋
刀口
暴露的
无掩蔽的
易受攻击的
国旗
旗帜
船旗
衣帽
徽章
绶带
实业公司
市场组合
平锅
浅盘
盆地
硬土层
拍摄全景
上下左右移动
摇镜头
淘洗
淘金
神经紧张的
不安的
神经的
选举人的
选举的
排行榜
立法
物主身份
##idae
防水胶布
雨衣
老兄
老弟
委任的职位
委派
盾
保护者
挡开
起保护作用
摹仿
一册
复印
抄袭
复制
发动攻击
社会主义者
社会党党员
大修道院
石碑
执照
许可证
特许
王座
喋喋不休的人
93
代替者
特许状
宪章
发给特许执照
云
烟雾
疑团
以云遮敝
笼罩
使黯然
乌云密布
阴沉
有动力装置的
用动力推动的
产生动力的
苦难
受苦
账号
会计账簿
账目
橡树
橡木
橡木制的
connecticut
强有力地
坚强地
激烈地
水晶
水晶装饰品
结晶
水晶的
水晶一样的
透明的
13th
上下文
来龙去脉
welsh
广播电视网
浊音的
gabriel
偷工减料的
##cing
额
前额
前部
mp
##ens
达成
时间表
一览表
计划表
议事日程
编制目录
使再混合
再搅拌
重新合成
##ii
丛林
一丛
一片
占有
占有期
占领
占领军
打印
印刷物
印刷业
印刷字体
印花布
印章
印刷
留印记于
用印刷体写
尼古拉斯
brazilian
战略的
战略上的
吸血蝠
高利贷者
活板门
机械师
76
乡土感情
归根之情
寻求
探索
订正
仪器的
器具的
可作为手段的
comb.
表示“水
波浪”
阿尔佛雷德
有背的
有财力支持的
单脚跳
跳上
加蛇麻子于
服麻醉药
##des
斯坦利
罗宾逊
富有旅行经验的
旅客常到的
韦恩
欢迎
欢迎词
可随意的
可喜的
austrian
如愿以偿
67
退场
去世
退出
脱离
1899
长条
条状
脱衣舞
脱衣
被剥去
剥夺
拆卸
脱衣服
##cs
唱
唱歌
演唱
啼
歌颂
嗖嗖声
深刻地
在深处
深沉地
冒险经历
草堆
把堆成垛
杰米
小心的
成份
戴帽子
胜过
脱帽致意
有用的
特有特性
名人
膝行
用膝盖碰
##shi
有精力的
富有进取心的
莽撞的
02
抗议
抗议书
ca
土耳其人的
土耳其民族的
土耳其帝国的
交响乐
交响曲
##sis
63
1890
进程
就而论
考虑到
可观的
吨
##work
##ft
##nia
制桶工人
制桶
亲爱的人
亲爱的
急迫的
啊
深爱地
高价地
举动
传导
91
违法的
不合规定的
苹果
革命者
革命党人
革命的
革命性的
假日
假期
度假
定义
精确度
清晰度
更难的
更努力的
更坚固的
##van
毁灭
##lle
受大众欢迎
握力
握手方式
手提包
抓紧
抱住
吸住
握牢
分类的
被归入某类的
被指定为机密的
liverpool
唐纳德
baltimore
现金流量
92
机械的
机械性的
力学的
迄
直到为止
放钱的抽屉
备用现金
冰碛
意外发生的事
以雕像装饰
雕像
批评家
鉴定家
渐增地
立即的
接近的
商务
瞪视
显眼
盯
##ster
indonesia
餐
巡视
船艇
面包师
正统的
惯常的
不景气
消沉
沮丧
洼地
形式上
用旧的
穿旧的
裸体的
无装饰的
无保护的
赤贫的
克莱儿
轻声低语
咕哝地抱怨
句子
命题
11th
埃米莉
公文
为引证
77
批评
非难
但愿
企求
脉管
精神上的
鬼的
招魂术的
有关教会的事
弯曲的
处女
处女的
贞洁的
初始的
停放车辆的人
最低的
最小值
默里
墨累河
午餐
danny
印刷的
印好的
印花样的
编纂
编辑物
键盘乐器
键盘
虚伪的
假的
不老实的
不准确地
欺诈地
吹
花开
风吹
吹响
开花
是…的成员
应被放在
68
78
切下
路堑
##board
pittsburgh
##up
81
讨厌
不愿
为…感到抱歉
本土的
国产的
乔恩
15th
barry
有文化者
学习者
##zer
脚踏铁锤
##gy
棍
枯枝
茎
条状物
插进
刺入
钉住
粘贴
粘住
陷住
苏珊
会见
的兴趣
被吸引的
符咒
魅力
轮值
工作时间
一次发作
拼写
拼成
轮换
拼字
浪漫的
风流的
传奇性的
空想的
浪漫派的
##ver
亚萨卡
乒乓底板
酵母抽提物
1895
相片
逼真的描绘
照相
照相的
摄影用的
详细记录的
酷似的
想要知道
查问
客户
##ac
1896
洛根
复兴
复活
恢复精神
苏醒
关键帧
密钥
改进的
应得
工装裤
##ious
弄翻的
心烦的
弄翻
颠覆
推翻
打乱
使不适
使心烦
擦伤处
半成品
生的
未加工的
不成熟的
阴冷的
擦掉皮的
侦探
侦探的
隐匿
隐藏之事
隐匿之所
痛打
常驻程序
居住者
留鸟
居留的
定居的
vincent
##bly
亲身经历
钻石
菱形
覆盖的范围
保险总额
新闻报导
卢卡斯
客观的
帕克斯
公民权
特许经营权
免赔额
给以特权
给以公民权
海伦
圣经
继承者
接任者
敲打
叩击
叩诊
击发
打击乐器组
驰名的
il
昂扬
电梯
清偿
剽窃
消散
耸立
侧面
传略
描绘轮廓
写的传略
氏族
romania
##ied
米尔斯
##su
小人物
无名小卒
无人
功业
耸肩
过错
毛病
挑剔
产生断层
弄错
1897
节奏
韵律
匀称
张弛节律
主动行动
首创精神
主动权
自发的
起始的
早餐
碳
复写纸
700
69
暴力的
凶暴的
74
伤疤
使受伤
打伤
视野范围
知识范围
见地
杀人者
屠杀者
猛兽
致死
杀手
止痛药
限制器
瞄准器
°c
美元
94
调动
除去
开除
移交
升级
间距
sing
化学
化学过程
##vin
立法机关
立法院
disney
##bridge
制服
统一的
一律的
始终如一的
泄出
逃离
互相协调的
紫色
帝位
紫色的
华而不实的
成紫色
拒签
液体
流体
流音
液体的
卡尔
有影响的
有势力的
莫里斯舞
每夜
在任何夜晚
小石头
石子
实验的
根据实验的
扭曲的
71
84
##ld
步法
踱步
缓慢走
用步测
踱步于
nazi
米切尔
ny
蒙蔽物
窗帘
盲目的
瞎的
不加思考的
使失明
蒙蔽
遮暗
盲目地
报告者
报章
14th
烧毁
烧伤
发热
盆
forget
集合物件
修道院
手册
手的
手动的
手工的
体力的
长沙发
睡椅
卧榻
横躺
躺下
蹲伏
只
附属物
结束语
口头禅
附加语
浑名
标记符
附以签条
添饰
起浑名
紧紧跟随
传教工作
塞巴斯蒂安
复位
三倍数
三个一组
三倍的
使增至三倍
增至三倍
73
老人
前辈
朱莉娅
武士
勇士
julian
确信的
深信的
令人惊异的
辞谢
谢绝
下倾
商人
店主
商人的
碰巧
产生结果
输出
finland
赤裸的
无遮蔽的
坦率的
使赤裸
芭芭拉
缺席
不理会
不顾
黎明
受伤处
##port
制造者
制片人
##ram
82
##ities
允许进入
开向
贵的
奢华的
费用浩大的
乱化钱的
电
电流
电学
电力供应
全美篮球协会
例外
异议
代号
信条
##ving
ladies
阵雨
淋浴
一阵
展出者
显示者
下阵雨
淋湿
倾注
郡治安官
县治安官
特质
##je
钮扣
按钮
扣住
钉钮扣于
扣紧
有效地
最高阶层
最高级会议
政府首脑的
最高级的
角
谋取
博取
斜向移动
转变角度
使转动角度
在钓鱼
获取
陪审团
评判委员会
应急的
空头
收养的
养育的
抚育
抱
船舶
血管
裤子
长裤
短衬裤
女式运动短裤
作成
演
埃文斯
一打的
广告业
广告的
踢蹬
对生气
体育运动
巡逻
巡逻员
侦察队
1889
终生
一生的
终生的
原则
道义
节操
##logy
birmingham
资助
为慈善活动捐资
发起
倡议
赞助的
发起的
89
抢掠
提名权
1893
听觉的
声学的
音响的
##sm
创造物
最长的
##tra
演职员名单
工作人员
藏匿
入港停泊
灰尘
尘埃
粉末
花粉
骚乱
拂去灰尘
撒
弄成粉末
化为粉末
说笑
无恶意的戏谑
##so
地盘
奶
乳状物
挤乳
榨取
产乳
基础结构
基础设施
thailand
印第安人
印度人
利昂
大主教
##sy
前倾
音高
螺距
节距
摊位
树脂
沥青
向前倾跌
竭力推销
为定调
定位于
用沥青涂
搭帐篷
向前跌
猛然摔倒
坠落
布莱克
整齐
女朋友
塞尔维亚人的
塞尔维亚的
运作的
从此
忧愁的
香味
香水
闻出
使充满气味
嗅猎
发出气味
毛皮
以毛皮制作
使生苔
使生水垢
生苔
积水垢
dj
会期
hp
提交
归诸于
把提交
使求助于
咨询
很少地
罕有地
##ora
存在量词
1892
##ten
科学家
肮脏的
处罚
刑罚
罚球
报应
不利结果
破裂
突发
爆发
爆裂
人像
半身像
竖排格式
种子
籽
萌芽
精液
在播种
催发育
脱籽
结实
79
pole
竞争者
竞争的
1894
马房
牛棚
稳定的
安定的
赶入马房
被关在马厩
希腊字母表的第一个字母
墓穴
坟墓
低沉的
宪法的
立宪的
体质的
酒精
逮捕
拘捕
开花植物
盛时
发育
旺盛
用花装饰
使开花
神秘
奥秘
有关建筑的
建筑学的
情爱关系
血缘关系
栖息地
居留地
自生地
聚集处
##istic
larry
改革论者
进步论者
前进的
累进的
疏远的
微少的
棉花
和谐
有好感
##ics
##ok
喝醉的
河段
游
围
层级
##ming
86
学术成就
奖学金
决策
決定
哥伦比亚广播公司
共电式振铃设备
欢喜
乐事
使快乐
令人高兴
教
讲授
教书
可以教
1885
版次
一期
一版印刷总数
击
怦怦跳
把…撞击成
前夕
前夜
搜索的
遍寻的
在一定程度上
缝隙
间断
通用汇编程序
打开缺口
造成缝隙
豁开
活生生的
能活动的
注定
出色的
##ett
na
87
交替的
轮流的
轮流
交替
圣人
圣徒
年纪最小的人
最小的儿子/女儿
##ily
爬
登山
##ita
##tors
促成
启发
使人想起
##ct
刚性结合
撑法
加劲
拉线
唱诗班
唱诗班的席位
合唱
湖泊
湖畔
夹克
护套
给穿夹克
给装护套
岁入
税收
税务局
虽然如此
有帽舌的
有尖端的
消瘦的
有病容的
觉得奇怪的
疑惑的
一年一次
每年
节约的
尼尔
1891
毛圈
毛圈织物
##ice
适用
临床的
门诊部的
brooklyn
击中目标的能力
对准目标
致力
轮圈外缘装有倒钩的车轮
侧翻筋斗
轮转烟火
车轮窗
与性交
性交
杂种
他妈的
混帐
农民
有形状的
有图案的
用图表表现的
用图画表现的
第九
九分之一
骄傲
自尊心
自豪
勇气
以自豪
休
进化
开方
平常的人
卷入
牵连
困窘
舒服的
轻松的
盖被
大声讲
技术学院或学校
受到鼓舞的
台湾
表示法
##lia
##em
恐慌
惊慌
没有理由的
恐慌的
使惊慌
使狂热
准确的
强求
急需
相互矛盾的
抵触的
脂肪
脂油
肥肉
肥的
胖的
油腻的
文件分配表
哭泣
喊叫
83
1920s
时刻
pa
客舱
关在小屋
边缘地区
utah
marcus
##isation
恶劣地
极度地
肌肉
##ance
victorian
变迁
过渡时期
临时转调
警告者
告诫者
预告者
赌注
##rin
奴隶
从动装置
卑鄙的人
拼命工作
令人恐惧的
极坏的
相像地
类似于
赛斯
欧洲足球协会联盟
着迷
奖章
福利
效益
专科学院
无瑕疵地
完整地
运输线
使通过
##ye
##kar
出版者
发行人
##ened
harrison
死亡数
仰角
##ae
长眠的
熟睡地
机械
叹息着说
灰
灰烬
勉强是
论证
诱因
惹起
父母亲
leo
衰退
使降低
婉谢
衰落
偏斜
1888
捐助
捐助之物
##ua
专心
1000
适当的时机
就业的良机
hispanic
看守者
监护人
保护人
hips
泥瓦匠
共济会会员
用砖瓦砌成
量
血腥的
嗜杀的
有血的
论争
论战
直径
不动摇的
使稳定
变为沉着
稳固
错误
误会
误认
误解
凤凰
不死鸟
死而复生的人
完人
殊品
认为等同于
使参与
认同
小提琴
##sk
违背
偏离
里士满
自旋
情绪低落
纺织
纺
编造
纺纱
吐丝
作茧
葬礼
出殡
危害物
大敌
1864
齿轮
以齿轮连起
连接上
逐字地
按照字面上地
不夸张地
康纳
随意
随机
任意的
胡乱的
随机的
胡乱地
警察小队长
军士
抓握
强占
东方沿岸帆船
抢去
霸占
无秩序
1865
传输
变速器
见多识广的
op
献给上帝的
祭祀的
悬浮的
暂停的
缓期的
关口
portland
幸运
好运
侥幸
靠好运成功
代理
代理处
船体
行家
内行的
臂力
产卵鸡
放置者
分层堆积
压植
现实的
实用性的
雕塑
当雕刻师
jerusalem
劳埃德
统计学
统计资料
更深
被推荐的
鼓吹战争的人
尚武
arkansas
食堂
伙食
用膳
一份食品
乱七八糟
困境
将弄糟
使紊乱
使就餐
陷入困境
搞乱
支承结构
赡养
格雷格
鹰
鹰状标饰
1880
重新获得
演唱会
协奏曲
合奏
匆忙的
贸然的
##ano
站点
停靠站
鸡蛋
蛋
初次公演
首次露面
初次的演出
首次的
基思
##vo
德里
车工
体育协会会员
深坑
矿井
地窖
绝境
窖藏
使凹下
使有麻点
去之核
使留疤痕
使相斗
使竞争
起凹点
恋爱事件
信念
绘画作品
绘
##zing
配偶
将死
使配对
结伴
成配偶
紧密配合
##ach
##ev
受害人
牺牲品
##ology
withdraw
红利
##ud
格拉斯哥
科技
成为有固定利息的长期借款的
nbc
改编
改编本
##ata
画像
描画
配合
支持单位
支持单元
士师记
伯纳德
贾斯廷
玄关
ralph
##ick
渐渐变为
渐渐消逝
取得资格
争论的
论争的
被议论的
大陆的
洲的
欧洲大陆人
蜘蛛
设圈套者
咬
一口
##ho
赏识
具结
混合
混频
##ese
egyptian
弓
眼睛框
用弓拉琴
弯成弓形
鞠躬
屈服
观光业
推想
假定
夺走
老虎
虎
占统治地位的
占主导地位的
强势的
受控的
参加者
有份的
##ru
保姆
奶妈
看护
喂奶
看护病人
一部分地
不公平地
录音带
磁带
窄带
卷尺
以带子绑起
##rum
心理学
心理状态
##rn
本质的
游览的
二重唱
投票的
民法专家
平民的
百姓的
民用的
情绪的
情感的
水槽
录音声道
##king
清晰可见的
表面上的
hebrew
1887
配给面包
实物工资制
运送者
邮递员
带菌者
交集
十字路口
畜生
野兽
兽性
hudson
##gar
##zo
新星
长椅子
论述
肋骨
肋脉
叶的中脉
##ered
恐怕
不幸的是
得到公认
##lis
岩石的
多石的
像岩石的
无情的
摇动的
摇晃的
##dae
围攻
再三的努力
友谊
友爱
友善
蜂蜜
爱人
蜂蜜似的
甜蜜的
甘美的
加蜜使甜
对说甜言蜜语
说甜言蜜语
##rian
1861
艾米
诀窍
附着
踌躇
使悬而未决
悬着
被绞死
悬而不决
贴出
通告
政权
可转让政府证券
柯林斯酒
以回答
承担责任
野生动植物
首选的
操作员
经纪人
算子
运算符
##po
劳拉
怀孕的
思想丰富的
成果丰硕的
视频文件
影像资料
丹尼斯
有嫌疑的
擦靴的仆役
靴子
立即地
即刻地
怪异的
超自然的
自动手枪
自动机械
自动的
无意识的
实业家
工商业家
被断言的
所谓的
出盘
ph
生气
1862
梨子酒
犯罪地点
审判地
喷射流
喷嘴
煤玉
迸出
喷射
黑而发亮的
墨黑的
余数
削价出售
出售削价剩书的
##lli
##ci
激情
酷爱
强烈感情
耶稣受难
生物学的
男朋友
1863
污垢
水牛
研究法辛烷值
片段
分节
fa
滥用
虐待
辱骂
##era
流派
笔划
中风
抚
摩
冲程
划尾桨
划去
染色的
重音
重点
应力
加压力于
着重
重读
行使
显示的
##gen
##tti
往国外
到室外
往国外的
在室外的
广泛四散的
戏剧性的
令人惊奇的
奇妙的
其后
从那时以后
madrid
成分
组成的
构成的
充分伸展的
广布的
流传广的
##sed
托德
monday
1886
温哥华
海外的
国外的
在海外
在国外
培育
施加压力
促成的
施加压力的
叫喊的
嚎哭的
迫切的
臭名昭著的
##ris
商讨
重要材料
有实际价值的东西
实质上的
有内容的
用户等级
当权期间
政体
社会制度
情态
1870
外省
边远地区
乡间
开关
电闸
软枝
鞭子
切换
使转轨
变换
击鼓
作鼓声
打鼓奏出
赞恩
翻晒
大群
不能透入的
证明用的
防的
耐的
校对
使不被穿透
lp
乳酪
奶油
面霜
研究员
调查者
志愿者
志愿的
自愿
庄园
丝
绸
绸锻类
丝织品
丝的
丝织的
milan
献
捐
捐献
协约国
同盟国
风险
敢于
主义
递送
交货
引渡
事业心
干事业
##ves
##ans
马齿龈
传统上
传说上
习惯上
巫婆
女巫
施巫术
迷惑
使想起
铜
##uk
pete
埋葬
在中间
高尔夫球场
科林
在别处
时常发生的
频繁的
时常来访
常常聚集
常与交往
##oy
尖叫声
尖叫
尖啸
令人震惊
尖叫着说
大叫大嚷着要求
##hu
紧张
不安
拉紧
张力
电压
使紧张
海底生物
海中的
生长在海中的
用潜水艇攻击
在下疾行
在下滑动
finnish
辩护
防守
进行辩护
适时
毫不迟疑
熟记地
人为的
详情
详述
选派
画详图
1884
有关连的
英国斯图亚特王室
布景主题
桌面主题
别墅
机床
傀儡
用工具加工
使用工具
belgian
统治的
支配的
折叠
交叉合拢
失败垮台
把牲畜关在栏中
得到许可的
度假胜地
凭借
常去之地
诉诸
常去
摧毁
拆毁
吃光
德国人或荷兰人的绰号
汉斯
露西
1881
狮子
狮子座
国际狮子会会员
克雷格
##fa
顿顽
生成的
发生的
beth
贵族的
辉煌的
债务
罪过
yorkshire
使直立
竖起
ss
islam
电话机
零售
零售的
##ible
chile
m²
罗伯茨
十六
十六个
##ich
汉普郡
无罪的
不懂事的
天真的人
双的
双数
英镑
重击
有格子图案的
闭音节的
选中的
章则
规程
afghanistan
反诈骗腐败组织集团犯罪法
冒失
资产
期权
选择项
天使投资人
使降级
使降职
把…归类
贡物
颂辞
威尔斯
主治的
叶
在上长叶
翻的页
##yan
男管家
司膳总管
romanian
公开讨论的广场
法庭
月刊
每月的
每月一次的
丽莎
gmina
##tory
麦迪逊
飓风
暴风
一次回转
加快转速
##ians
bristol
##ula
精锐
中坚分子
有价值的
宝贵的
可估价的
灾祸
彻底失败
民主政治
民主主义
德国人
德语
弗蕾亚
##ins
圈
弯曲部分
使成环
以圈结
以环连结
打环
翻筋斗
绝对地
确确实实地
支付的
付款的
有利的
赢利的
合算的
全体居民
特定人
maine
脚掌
鞋底
独身的
上鞋底
触底
祈祷
祷辞
祈祷者
针织短外衣
斜桁纵帆
门口
公牛
##ani
午夜
子夜
半夜
午夜的
半夜的
结论
结尾
##sson
十三
十三个
百合
百合花
洁白的
纯白色的
mediterranean
##lt
全国曲棍球联合会
骄傲的
自大的
自豪的
范例
抽样
##hill
鼓手
旅行推销员
几内亚
##ova
马铃薯
爬升
##ston
即时的
认为是
把归于
把品质归于某人
认为某事
角质
号角
角制的
用角触
长角于
铁道
铁路系统
史蒂文
##ao
成熟期
渡船
敌手
根
根本
使扎根
使固定
根除
肃清
搜出
用鼻拱
生根
源于
用鼻拱土
捧场
旅行的
旅行用的
有担保的
回廊
人口密集地带
拉伸的
伸展了的
候补陪审员召集令
床单
张
纸张
裹尸布
薄片
盖上被单
遍布
大片落下
片状的
成薄片的
三人一组
三个一组的东西
三位一体
牛
家畜
高端激光打印解决方案
manhattan
糟蹋
彻底打败
打垮
1882
文雅的
祖母
女祖先
矿山
震撼的
震惊的
维加斯
过程管理
##light
caribbean
##ou
连续不断的
不顾一切的
危急的
令人绝望的
极渴望的
喝醉了的
历史上地
从历史观点上说
三重唱
波浪形的
英国皇家空军
经营行为
南森
蝙蝠
用球棒打
眨眼
呐呐地说
喁喁细语
中断的
被阻断的
被遮断的
被打断的
定居
拓荒者
倡导
作先驱
开路
最早的
开拓的
先驱的
有开拓者特点的
哈罗德
亚伦
##net
三角洲
希腊字母的第四个字
试图夺取或攻克
试图征服
未成年
少数民族
属于少数派的
同类中的极小者
微型汽车
超短裙
微型的
合唱队
齐声
齐声说道
走向
有某种的倾向
易于
护理
有眼的
负荷
担子
重担
装载量
负载
工作量
加载
装载
使担负
装货
上客
装料
更新的
现代化的
监牢
下狱
##llo
丰富
富裕
##ved
斯拉夫人
护林者
突击队员
充分的
足够的
rebuild
##wick
红衣主教
鲜红色
深红色的
洪水
大量之水
使泛滥
注满
被淹
溢出
涌进
穆罕默德
每当
不论何时
每逢
家属
滑行装置
页边行数
奔跑者
道德
品行
寓意
道德的
品性端正的
补救
修复
电视观众
观看者
勘查孔
看片机
报仇
复仇
小阿飞
无用的
腐朽的
沐浴
美观地
低语
使喘息
发散
竞技场
回合
盘
有插画的报章杂志
耳语
密谈
沙沙声
沙沙地响
投票者列表
投票人
克林顿
结
终极
基本原则
极限的
最远的
~发出尖叫声
高声喊
发出大而尖的声音
呼啸而过
beijing
腰角
雄狮
安德烈
虚构的
编造的
小说式的
舒适
安慰者
雷达
无线电探测器
相配的
使退去
驳回
hms
禁令
取缔
松树
松木
憔悴
怀念
手腕
腕关节
大气
voivodeship
投标
用木材建造
##ned
##nan
癸干忒斯
巨人族
##ane
卡梅伦/隆
复原
痊愈
重获
uss
恒等的
完全相同的
类别
转换的
塞尔维亚
noah
合唱曲
全套服装
民族学
令人同情的
##off
地方性地
局部性地
在当地
珍珠
珠灰色
杰出者
珍贵之物
用珍珠镶
使成珠状
成珠子状
采珍珠
用珍珠做
台
纲领
各处
芭蕾舞
附录
兰卡
楞伽
赫伯特
户外的
屋外的
露天的
到…旅游
德里克
1883
空格
控制室
争夺
sweep
1878
排外的
独占的
轻蔑
怠慢
纤细的
脆弱的
苗条的
关系学
##dra
吞下的气
管乐器
给…上发条
囚犯
战俘
集体的
聚集的
bangladesh
软管
把装管
使通过管子
公然地
以公众名义
富有的
丰裕的
thai
##ys
孤立的
孤零零的
被挑选者
精萃
##ric
坚决宣称
坚持认为
坚决要求
钢笔
笔
笔调
笔杆子
禽畜
关入栏中
动笔
兴隆
大量财产
票
券
车票
入场券
证明书
加标签于
为购票
有斑点的
斑纹的
弄污了的
根据传说
根据传闻
据报道
活泼
卡通制作
贮水池
大容器
110
欧文
##time
打盹
晃动
点头表示
压缩
拉伸
击中
##hn
格雷戈里
打斗者
奋斗者
解决方案
应对措施
溶液剂
##ery
要求的
被请求的
peru
芦苇
芦笛
簧舌
纤弱的人
用芦苇盖
用小凸嵌线装饰
大使馆/领事馆的一等秘书
司法官
大学校长
面具
假面具
石膏面模
戴面具
使模糊
参加化装舞会
劳动者
最年长的
排行中第一的
最年长者
排行中第一者
火焰
火苗
缩影
1860
义务工作者
自告奋勇者
主动做某事的人
自动提供
自愿效劳
主动建议
举荐
自愿参军
当志愿兵
##tis
##hl
电报
电信
铁丝网
金属丝
用金属丝捆扎
拍电报
打电报
顾问的
咨询的
劝告的
地方病
某地流行的
移民
侨民
从事
敲门
互撞
消费者
1876
eu
复合词
化合物
院子
复合的
化合的
化合
和解
妥协
使复合
使化合
大厦
宅邸
伊凡
使展开
施展
部署
有效地利用
皱眉
牵涉
机理
远景
透视感
视角
透视法
看法
透视图
透视的
透视法的
商店用包装纸
管理分析与规划系统
界标
邓肯
外国人
外侨
相异的
拳头
拳打
握成拳
纽带
##pers
feed
德比
德比赛马
大赛马
吞
咽
##ros
专利权
专利品
专利的
特许的
取得的专利权
请准专利
sara
恶意
冒险活动
奇遇
滑
滑道
山崩
雪崩
幻灯片
使滑动
偷偷放入
滑动
滑落
不知不觉陷入
偷偷地走
hawaii
司法权
审判权
管辖权
##op
##side
阿德莱德
搭板
跳板
生物学
se
##ties
罗杰斯
乐爵士
振幅
音律
涨落
秋千
行动自由
大摇大摆地走
吊运
悬挂的
强节奏爵士音乐的
坚固地
使球越过边界线的击球
疆界
##rie
准备
筹备
使在思想上有准备
调制
安装启用
steal
##sha
证明合格的
colombia
edwards
车库
汽车修理厂
机库
把车送入修车场
##mm
使想到
勾起
##ball
愤怒
情绪激动
狂暴
大怒
狂吹
害处
nigeria
乳房
胸怀
以胸对着
##ren
家具
帆具
瞳孔
弟子
门生
有背长椅
使定居
下陷
沉淀
安下心来
安家
##lus
cuba
胡说八道
alaska
21st
线的
直线的
线状的
插
猛推
口头攻击
插入
强加
庆典
latino
创始的
遗传的
起源的
遗传学的
可怕的人
##cia
##ening
闪电
闪电的
封地
付费给
证人
目击者
证词
目击
作证
作证人
作为证据
门房
支部
旅舍
分会
临时住宿
倒伏
寄宿
投宿
把射入
存放
头盖骨
好学生
##ique
头巾
兜帽
强盗
罩上
##ei
谋反
王安电脑公司
喜好运动的
运动用的
冒险性的
已警告的
发射物
导弹
飞弹
火箭
可发射的
投入的
深爱的
激进主义分子
门廊
参加礼拜
十四
十四个
套装软件
包装用物
程序包
打包
一揽子的
1871
装饰的
修饰的
##shire
封装的
##ock
国际象棋
起航
坐船旅行
掠
oscar
琼
宴请
作东
加西亚
杰里米
##ire
占优势的
雅克
##gon
##wan
1879
修订
依大小排列的
依大小调整的
型号的
尺码的
升降口围罩
同时发生
一齐
同时存在
排球
纺成的
增加量
增多
制动
填充物
填塞料
风幛
隔墙
风墙
喜好
倾向于
自觉感情
征募
拟稿
扔
摇荡
摇匀
掷硬币决定
守候
侦察
侦察员
侦察机
1875
薄膜形成
乱推
乱放
随便放
胡乱丢
munich
保有期
垂直的
直立的
冒险故事
浪漫史
写传奇
作空想
pc
##cher
提出理由
##ical
技艺
精心制作
距离修正
广泛搜索
www
公开赛事
旷野
诚实的
坦直的
秘密会所看守人
昨天
实际上起作用的
虚的
实质的
事实上生效的
##let
muslims
揭露
启示
窗侧
门侧
蛇
阴险的人
曲折行进
急抽
激进分子
词根
根式
激进的
根的
发出尖叫声的
极滑稽的
惊人的
演说家
发言者
焚烧
添煤
搭救的
保留的
补偿的
安乐
安逸
悠闲
使安乐
灵活地移动
照明
照明设备
舞台灯光
地方长官的职位
过失
责备
归咎于
农夫
农场主
饥饿的
荒年的
摩擦
搓
擦
横梁
容光焕发
用梁支承
照耀
感到欣喜
子公司
附件
辅助者
津贴的
##cha
armenian
区段刻录
安全咨询意见
点滴
滴下
##fer
microsoft
答复
回击
有资格
使有资格
准予
插播广告
花点布
点子花纹棉布
置球点
1867
汗
汗水
水珠
焦急
出汗
渗出
冒出水气
结水珠
懊恼
使出汗
榨出
使汗流浃背
节期
会演
##ken
医师
内科医师
解除痛苦者
沙的
沙地的
多沙的
辩解
艾萨克
以撒
##fish
雄赤鹿
雄鹿
传授
接纳新成员
出品
一家之主
家长
户长
观光客
旅行者
旅游的
不管
不注意
滑行
溜
滑台
插条
后裔
板条
瘦长的年轻人
滑倒
变坏
滑过
闪开
塞入
从取接枝
滑动的
滑移的
活络的
有活结的
最靠近的
##ction
的确地
安全地
苏丹
预习
在船上
在火车上
在飞机上
砰地关上
用力一放
使劲一推
猛劲一摔
baptist
实验
实验仪器
进行的
不间断的
州际的
器官的
有机的
组织的
NBA
季后赛
##ika
1877
130
##tar
hindu
误差
图尔斯
图尔市
陷入困境的
受到限制的
捕获的
收集的
已励磁的
已激发的
激昂的
sink
ho
athens
1872
denver
幸福
福利事业
福利的
市郊住宅区
郊区
运动员
体育家
擅长运动的人
健儿
欺诈
谋略
恶作剧
决窍
愚弄
有决窍的
特技的
欺诈的
靠不住的
变化多的
腹部
使鼓起
鼓起
匍匐前进
排他地
专门
仅
唯一地
专有地
号叫
叫着说
1868
##med
改变宗教信仰
换位法
##ette
1874
国际性地
在国际间
计算机
指挥者
售票员
易感的
感光的
基于标准的
地球仪
天体
成球状
烟火
急升
猛涨
用火箭运载
amsterdam
航班
楼梯的一段
住旅馆
自治市
自治市或区的政府当局
强烈的情感
参考文献
推荐信
3d
##mus
航空业
航空公司
制造的
已制成的
pm
考古学的
考古学上的
1873
德文郡
德文岛
备注
##ites
金钱或财产的转让
接吻的
专制的
绝对事物
套房
组曲
继之而来的事
外加的
印象深刻的
了不起的
barcelona
沙利文
苏利文
杰弗逊
塔器
空中跳台
jesse
朱莉
##tin
##lu
孙子
外孙
标准度量
计量器
精确计量
和有关
看待
吊环
采访
提问
迹线
缰绳
回溯
追溯
沿路走
雷蒙德
拇指
以拇指拨弄
笨拙地摆弄
用拇指翻旧
迅速翻阅
作搭车手势
络腮胡子
分期连载作品
连载小说
一连串的
连载的
分期偿还的
保加利亚人
保加利亚语
众多
举行示威游行
示范。展示
##ix
1866
狭海峡
亚伯达
在的下面
古罗马化
用罗马字书写
##ward
宽慰的
解除的
减轻的
获得物
惯用语
词组
成语
措词
乐句
用短语表达
把分成短句
悬崖
绝壁
揭示
汉朝
汉民族
近路
归并
风俗
海关
自定义
定制的
##dar
娘家姓
gilbert
分划
##nts
评估
估定
评定的款额
咖啡馆
酒店
难点
swing
民主人士
民主主义者
民主党党员
詹尼弗
下议院
公共食堂
1940s
小树林
##yo
使完善
使完整
填写
对焦点
活动中心
集中点
兴趣中心
病灶
震源
疫源地
总和
概要
概括
代用品
代替物
代用
代替的
代用的
代用品的
轴承
生育
张开
连绵
一段路
可伸缩的
弹性的
曲解
使过度伸展
招待会
##py
反射的
得自他人的
本质上
目的地
##ched
残存
幸存者
赖以生存的
财力
急智
##bach
提升
使
双打
留言板
泪滴
撕
扯
飞奔
撕破
赶快
被撕破
撕裂
戳破
拉掉
撕掉
使精神不安
##down
##fully
游行
阅兵
florence
哈维
现任的
依靠的
负有义务的
领圣俸者
在职者
偏袒的
偏爱的
分音
骨架
参照标准
观点
900
彼得牌戏
冻结的
冰冷的
严寒的
冻伤的
冷酷的
手续
奥利维亚
控制元件
控制装置
##mic
庇护所
躲避
亲自地
当面
就本人而言
针对个人地
气温
高烧
##od
布里斯班
经过试验的
经受过考验的
经验定的
检验无病的
大理石
石弹
雕刻品
大理石的
冷酷无情的
有大理石花纹的
有理解力的
氧
伦纳德
##kov
就任的
开幕的
就职演讲
iranian
谘询
寓所
营房
住处
##ivity
主流
有内衬的
具线纹的
mars
达科他
norfolk
不成功的
##°
激增
爆炸
直升机
由直升机运送
乘直升机
会议的
##sing
检查员
巡视员
母狗
母狼
母狐
封条
海豹
海豹皮
火漆
封蜡
玺
盖印
盖章
猎海豹
以往的
死了的
神的
非凡的
神学家
##ters
辅导
教练技术
考试
惩罚
制造业者
厂商
藏垢的场所
污水槽
下沉
渗透
使低落
使下沉
陷于
未组成社团的
未被承认为自治组织的
未包含
讯号
指示灯
用信号传达
用信号通讯
发暗号
示意
nevada
squeeze
狄伦
尚武的
威武的
曼纽尔
曼努埃尔二世
十八
十八个
升降机
拉过绒的
板材
平板
常春藤
##len
sleep
专科的
特化的
专化的
税务
税捐
税金
曲线
曲线球
弯
成曲形
受限制的
磋商
爱好的事物
统计的
统计上的
统计学的
阿诺德
灵感
鼓舞人心的人或物
妙计
吸气
死刑
大胆的
粗体
中间物
中级
起媒介作用
意味
页边的空白
余裕
差数
加边于
加旁注于
直尺
划线板
哥特风格
哥特式的
有知识者
知识分子
凭理智做事者
智力的
用脑力的
依赖他人者
依赖的
留心听
听信
听着
有资格当选的
有资格者
合格者
适任者
寡妇
孀妇
使成寡妇
syria
赚得
博得
cincinnati
倒塌的
暴跌的
收缩的
倾陷了的
领受的
容易接受的
感受性强的
领受者
容纳者
隐私
易接近的
可进入的
可使用的
可理解的
philippine
海上的
海事的
海员的
女神
美女
受崇拜的女性
办事员
文书
当店员
交出
使投降
投降
自首
地形突变
岩层中之小断层
双方得分相等时的最后决赛
复赛
数据库
##ified
##lon
最后目标
观念的
唯心论的
甲虫
大槌
快速移动
捶
肥皂
阿谀
以肥皂洗
附带条件
弦乐部分
弦乐器
使膨胀
扩张
英国人
较短的
更短的
更矮的
使交叉
使杂交
休息寓所
退避
隐退
向后倾
退
恶棍
强硬的
坚韧的
咬不动的
硬币
华莱士
用法说明书
热切的
冲压件
##oon
装运
船舶吨数
对照
比喻
总联机程序和信息控制系统
侄子
外甥
##mes
优等成绩
优等成绩奖金
给予优等生的荣誉
荣誉标志
呈齿状起伏的山脉
ibn
##over
筑要塞
以要塞防守
sa
辨别
认可的
有雕刻的
1869
客户端
救济对象
应受账款
委托方
##dan
故意
##mar
长途客运汽车
旅客车厢
面包
裹以面包屑
##ington
被打败了的
筋疲力竭的
敲平的
踏平的
在西北部的
西北方的
##ona
功绩
功过
值得
应受
视频网站
虚脱
瓦解
使倒塌
查问口令
em
史学工作者
宗旨
宾格
实物
如实的
无偏见的
宾格的
递交
病毒
滤过性病毒
毒害
进攻
攻球
公鸭
蜉蝣类
僭越
##ere
病害
疾病种类
病
榨渣
船首
堵塞物
摘掉茎
装柄于
堵住
逆行
利兹市
##cus
##ab
耕作
眼镜
双筒望远镜
##lock
无处
到处都无
伙伴关系
共同参与
相应的
怀孕
饭馆
菜馆
101
不变地
时常地
军事基地
枪靶
投放范围
第十
十分之一
诗句
用诗表达
作诗
领土的
区域性的
本土自卫队队员
##ira
篇章
腐败
贪污
##hs
继承权的
通过继承得到的
背面
挫折
反面的
颠倒的
使颠倒
使逆转
使倒退
使反向
反向
倒转
反转
加强
强语气
##vic
受雇人员
拱门
拱形
足弓
使成弓形
拱起
成弓形
调皮的
傲慢无礼的
罐笼座
拉比
watson
支付的款项
int.
嗯啊
##ala
女性化的男人
女性化的
同性恋的
##tre
venice
最快速的
有性感的
被禁的
艾德里安
艾德里安市
怜悯
悲哀
触地
触地得分
着地
板子
纸板
园
圆圈
好感
偏爱
赞同
偏袒
关切
赐与
给与
有利于
像
体恤
ok
旅途
旅行笔记
游记
分散的
散乱的
断然
##ular
holland
许用
内燃机
柴油机
柴油
kenya
兽穴
洞穴
起源于
##ral
守护程序
魔族
恶魔
重新开始
重新占用
拖动
打滑
松懈
骑手
##rus
仆人
有用物
眨眼睛
闪亮
tear
##ias
##sey
输入电路
粗粉
进餐
圆筒
圆筒状物
汽缸
柱面
营地
野营房
##fe
逻辑
逻辑学
推理的方法
推理
逻辑性
##wn
croatian
进化了的
有益健康的
卫生的
愚人
受骗者
奶油拌水果
干傻事
傻的
巧克力
巧克力制的
明智的
慎虑的
劝导
腌
禁猎
加工食品
加工成的食品
禁猎地
保护区
pradesh
##ess
分别的
1850
##ew
小鸡
鸡肉
人造的
非原地产的
总量
总共的
未打折扣的
恶劣的
粗野的
总共收入
通信的
宣判有罪
笼
战俘营
关进笼内
凯若琳
对话
用对话表达
##dor
叙事的
故事体的
陌生人
门外汉
马里奥
br
christianity
如果没有
失败的
特伦特
特伦托河
指挥的
威风凛凛的
居高临下的
buddhist
1848
莫里斯
yale
脚踏车
##ering
老鼠
胆小羞怯的人
鼠标
捕鼠
窥探
##sley
老手
退伍军人
老兵
老树
老兵的
经验丰富的
##ig
拉过来
神学
失事的
季节性竞赛
军团
众多的人
##ability
拖累
沉重缓慢地走
优秀
卓越
被取消的
废除
注销
删去
强烈
原谅
申辩
做为的托辞
致歉
饶恕
借口
##lar
里加
由多人一起参加的
由多方一起参加的
股票使持有人有权参与分享的
起一份作用的
印刷术
印花
##burn
易变的事物
变数
可变物
变量
可变的
不定的
变量的
##rk
好奇的
求知的
祖先传下来之物
遗赠物
文艺复兴
文艺复兴的
##my
病徵
症状
症候
装订
声乐家
舞蹈演员
跳舞者
##nie
语法学
入门书
福音
真理
民主党员
年轻人
偏航轴
sc
希特勒
##ser
云彩
白云
数学的
辞职
使解除
导向的
##heim
基波
原音的
硬件
五金器具
给人深刻印象的
相等地
平等地
使相信
同盟者
内疚
抚弄
赶走
抛掷
咯咯声
颈肉
卡盘
驱逐
用卡盘夹住
咯咯叫
滑行的
##ware
有磁性的
有吸引力的
催眠术的
彼得斯堡
彼得堡
bulgaria
玫瑰油
哲学博士学位
熟练
熟练工人
##ama
文选
校对人
讲师
有把的大罐
瓶状体
投手
摊贩
贮藏处
贮备
水库
同情心
心形物
自动地
机械地
预料
认为会发生
难解的
班尼特
广大
广延
外延
大面积
粗放
广博
广泛
误认为
种子状物
子孙后代
监督器
级长
监听员
班长
监视器
告诫物
监督
##ative
新闻业
报章杂志
努力的
奋斗的
苦斗的
签字
识别标志
调号
大牧场
经营牧场
相会
遭遇
邂逅
会战
偶然相遇
摄影师
摄影者
观测
观察力
##pin
有影响的人
##hr
日历
日程表
列入表中
##all
克鲁兹
croatia
火车头的
hughes
自然地
以自然力
天生地
shakespeare
地下室
墙脚
钩
钩状
镰刀
挂于钩上
钩住
引上钩
偷窃
弯成钩状
钩紧
已褪色的
已凋谢的
挑动
大胆
敢
胆敢
飞利浦
菲利普斯
充填物
填料
狂怒的人
奥巴马
##ain
有效率的
弧
弧形
弓形
弧光
投递
搜捕
教养
使正式就任
俱乐部的联合会
里格
效率
效能
功效
轴
montana
老鹰乐队
老鹰
##ked
有提供的
备有的
凯伦
克伦邦
采摘
撬开
存水弯
设圈套
设陷阱
诱捕
诱骗
使受限制
锚
抛锚停泊
基督教徒
使多样化
有不同
偶然的
电子学
上议院
上院议员
纽卡斯尔
昏厥
昏倒
微弱的
变得微弱
创新
搜集
由收到者付款的
由收到者付款地
情境
交战
160
克劳德
##feld
同等的人
窥视
费力地看
隐现
与同等
封为贵族
薄的织物
薄纱
棉纸
一套
连合活字
徽标
瘦肉
倾斜度
歉收的
##ration
°f
楼地面
层数
##ven
减低
减轻体重法
减肥法
##our
##ments
粗绳
绞索
捆
绑
圈起
以绳将系住
拧成绳状
1859
ottawa
##har
采样
银行业务
辞呈
francois
沙乌地阿拉伯的
提倡者
展出的
潜水服
装甲
为装甲
twins
离婚
与离婚
##ras
亚伯拉罕
暂时
一时
临时
母体
子宫
基质
脉石
矩阵
按自然规律
身体上地
脉冲
脉搏
豆类
脉跳
使跳动
用脉冲调制
鬈发的
卷曲的
##ena
难度
难事
孟加拉
惯用法
习惯法
##ban
骑的人
附文
附加条款
发给证明书
用证书批准
用证书证明
##pi
小孔
破洞
华沙
有特色的
杰西卡
##mon
相互的
共有的
1857
关卡
圆形的
循环的
间接的
尤金
切除
有负载的
有含蓄的
加重的
不公正的
小湖
仅仅的
只不过的
易受伤害的
有弱点的
成局的
世代
继承人
嗣子
后嗣
不费力地
攀缘而登的
斜的
人字形的
功课
一堂课
试播节目
自动驾驶仪
nepal
公羊
撞锤
撞
反复灌输
只读内存
随机存取内存
随机存取存储器
谷歌
搜索引擎技术
谷歌公司
准备的
角钉
曲头钉
路易丝
有声誉的
##₂
liam
##ably
购物区
杂木林
索菲
光辉的
灿烂的
有才气的
账单
议案
##bar
##nik
难完成的
难做的
丑恶的
乱糟糟的
大陆
本土
服伺者
上菜用具
发球员
服务器
捉拿
经验丰富的人
猛拉
猝然一动
失灵
使失望
不及格
希腊字母表的第二个字母
刷子
毛笔
刷
擦过
辐射
储存的
温暖
温情
暖和
东南方的
全国英语教师协会
罪
失礼
和…比速度
伯克利
贝克莱
笑话
笑柄
作弄
运动选手
指定
躯干
主干
象鼻
把放入旅行箱内
树干的
躯干的
干线的
箱形的
##low
罗兰
档案室
插图
艺术作品
受光面
法庭的
审判上的
司法的
储量
后备队
##bed
wake
就职
亚洲广播联盟
漂浮的
浮动的
假货
假造
伪装
较少的
兴奋
分界面
接触面
界面
集中的
浓缩的
编址的
收信地址
特性的
阿曼达
萨克斯管
和尚
pref.
表示"自己"、"本身"
表示"自己的"
表示"自动的"
##bus
松释动作
脱扣释放
卵
挑唆
调蛋黄
凋谢
交互作用
交感
防卫者
防护者
辩护者
ce
暴动
光荣
荣耀
壮丽
繁荣
钟情的
##bert
续集
自觉
http
醒着的
唤醒
使意识到
被唤起
意识到
滑雪橇
滑雪
##ress
新手
眉毛
了不起的人
传记
赠与
布
溶解的
溶化的
受到挑战的
仪表
以仪表计量
心理学的
lt
提高的
重振旗鼓
群众集会
跌停回升
重整旗鼓
团结
挖苦
##tha
大学本科生
大学肄业生
大学生的
专门医师
专家的
venezuela
陈列品
开展览会
车棚
脱落之物
分水岭
protestant
分泌液
可改变的
结构的
建筑的
英尺长度
英板尺
连续镜头
Japanese
Antarctic
Research
Expedition
日本南极科学考察队
坚持的
并立的
被掠食者
捕食
##ska
继承权
继位
演替
地层次序
深思
被反射
放逐
被放逐者
使背井离乡
lebanon
拭
擦去
拭去
被怀疑者
嫌疑犯
令人怀疑的
不可信的
可疑的
shanghai
休眠的
综合
与环境协调的行为
集成
保藏
奇异事物
罕见例子
惊异于
惊异
变体
异体
有差别的
海盗
剽窃者
侵犯版权者
非法播音的人
羊
胆小者
滚圆的
航海术
启航
航行的
聚居区
聚居人群
原稿
底稿
手写的
变奏曲
变更
功能的
松懈的
不严密的
不严格的
放松的
得到休息的
随意的
不拘束的
咒骂
azerbaijan
重量级拳击运动员
有影响的要人
最重量级的
绰号
昵称
给取绰号
叫错名字
编辑的
主笔的
社论的
ring
格子
栅格
变紧
绷紧
加紧
地震
发出闪光
miguel
急流的
旺盛的
##ches
增加或修改
改进
小木箱
布鲁克斯
180
消费
消费量
痨病
分子的
由分子组成的
菲力克斯
费力克斯制导炸弹
上流社会
社群
重复地
再三地
变奏
aids
市的
制图法
制图学
图解算法
图形显示
专业人员
自治的
接收器
接受者
收信机
收款员
接待者
延时的
研讨会
义勇军
民兵组织
国民军
安乐椅
餐椅
王牌
法宝
打出王牌赢
出王牌
吹喇叭
峡谷
海底悬崖
##point
伸长
适当
##jan
桩
炮烙刑
木柱
打桩
用桩撑
下赌注
大使馆
大使馆全体人员
惠灵顿长靴
汉娜
##ella
索尼
bishops
发誓
使宣誓
希腊字母的第14个字母
粒子
即
就是
换句话说
1854
斯坦福
斯坦福大学
那什维尔
胆量
绘画似的
图解的
交押
承担义务
守备队
驻军
守备
派兵驻守
##bin
小村
清扫
票据清算
反叛者
吸引人的事物
读写能力
识字
精通文学
烹饪
虚墟
遗迹
边撑
伸幅器
寺庙
纺纱机
移动吊车
母驴
祝贺
举行
hasn
船货
货运
以货运运送
租
六十
六十个
叛徒
抵抗
反感
造反的
反抗的
私生子
劣货
私生的
杂种的
不合标准的
##art
牛顿
##ada
鹿
##ges
##ching
delaware
歌唱家
唱歌的人
##ets
进场
助攻
火舌
用火焰给灭菌
用火焰传送
##ph
林荫大道
桶
装入桶内
##ome
##sia
因果关系
标杆
帖子
水浅的地方
变浅
请柬
引诱
ride
停车场
贮藏所
欧内斯特
凯恩
竿
笞鞭
小枝
普勒斯顿
chambers
打击的
罢工的
一阵风
枯萎病
炸
使枯萎
猛烈抨击
枯萎
晚辈
子节点
衍生物
蒙哥马利
量程
人世
世间
##lay
##ari
指距
全长
跨距
小范围
以手指测量
架设
大混乱
混沌
赞扬
表扬
##ag
1855
圣所
耶路撒冷的神殿
泥
诽谤
fbi
##ions
预调
单一
harper
令人讨厌的人
激浪
使烦扰
钻孔
英俊的
大方的
相当可观的
美观的
中世纪的骑士比武
雷
雷声
打雷
轰隆地响
怒喝
大声喊出
轰隆地发出
nebraska
琳达
建筑物的正面
卖出选择权
感到满意的
银白色金属
银白色鱼鳞
阿根廷人
银色的
阿根廷的
小谷
软木塞
软木树
软木
圆顶
加圆顶
成圆顶状
panama
##yl
1858
苦差事
人才
##ates
进料
加料
供给饲料的
摄取食物的
等式
##las
##ida
##tu
使忙碌
使从事于
使参加
布赖恩
##ax
嗯
四重奏
曲子
美妙音乐
曲调
解散
散伙
解体
谢菲尔德
堵塞的
被封锁的
喘气
喘息
倒抽气
很想要
迟滞
延迟
maggie
把…看作有关联
由…联想到
给…接通电话
##non
舰对岸
特殊处理钢
倾
倒
倾泻
creator
出版商
出版公司
##we
有指导的
有向导的
埃利斯
灭绝的
耗尽的
使沾沾自喜
增进单向开槽
单向开槽
##ord
##bility
民意测验
选举投票
投票数
一组人中的一个
头颈和后脑部
鹦鹉
对进行民意测验
获得票
剪树枝
轮询
剪过毛的
修过枝的
咬紧
##use
量子
背骨
脊柱
尖刺
cdp
幽默
诙谐
迎合
牵就
顺应
杀敌数
歼敌数
治理
半决赛
##du
遇到
曾遭遇
不理睬
忽视
##bu
##maker
烦扰
操心
纠纷
讨厌的人
roosevelt
140
中途的
不彻底的
半路地
在中途
在半途
如流的
文明
爆裂声
啪地一声
邻接的
航线的设备
##ses
##view
##mate
##ec
渐增
使聚集
积聚
狼皮
残暴成性的人
贪婪的人
阴险狡猾的人
追逐女性的人
色狼
色鬼
马拉松
耐力的考验
使改变形态
使改变外观
使改观
##ill
巡航
巡弋
颂歌
欢乐的歌
欢唱
打洞器
钻孔机
冲压机
冲床
潘趣酒
以拳重击
开洞
冲压
用拳猛击
与展览
展示会
计数的
编号的
惊恐
警报
警钟
使惊恐
评级
默默地
##stein
皇后区
意念
印记
印数
底色
线路接口单元
刘
战术的
用兵上的
策略的
##rat
元帅
陆空军高级将官
典礼官
执法官
引领
统率
各就各位
黛拉
箭
箭状物
箭头记号
##ings
休息得好的
畏惧
为…忧虑
感到害怕
嫩的
柔软的
微妙的
棘手的
审慎的
使变嫩
变柔软
看管人
供应船
小船
偿付
属于自己的东西
苦的
痛苦的
怀恨的
刺骨
变苦
顾问
劝告者
指导教师
护送者
护卫者
护航舰
护卫
护送
##ides
备件
备用零件
备用轮胎
省掉
宽恕
省用
##ene
飞龙
龙族
同行
摄像机
##und
吸
吮
吸收
堆
建筑群
桥桩
痔疮
堆起
堆积
猛烈攻击
堆于
累积
堆叠
打桩于
用桩支撑
兴致
prague
陈述句
状态说明
陆标
划时代的事
地界标
围墙
买卖赃物的人
剑术
用篱笆围住
练习剑术
击剑
搪塞
拷问
苦闷
再创造
永久
不变
持久
残存者
生还者
筑成池塘
找出
做密探
侦查
前任
先辈
前身
投弹
砰然的一击
出乎意料的行动
政变
##og
投保
关税保护
变形
赤热
热烈
红光
发红光
红光焕发
##lands
##book
dig
教士
安德里亚
壮举
技艺表演
灵巧的
整洁的
谷仓
跳跃的
##chen
##ologist
##con
人员伤亡
船尾
臀
auckland
导管
输送管
管状器官
尖细的声音
烟斗
笛
以管输送
吹哨子
吹奏
尖声唱
吹笛
吹长哨发令
批量
显露的
揭露的
ba
##bel
trevor
仁慈
光谱
杨
勾结叛国
中邪魔的
被妖魔缠住的
史诗
叙事诗
史诗的
叙事诗的
blow
谢恩
##ack
洛佩斯
已承兑或付款的
受尊敬的
牺牲
供奉
祭品
祭祀
贱卖
判决书
理解为
锤
铁锤
钉锤
锤打
钉
连续锤打
音乐电视
准男爵
主旋律
为调音
调谐
das
传教士
负有任务者
传教的
传教士的
被单
片材
板片
350
中立者
中立国
非彩色
空档
中立的
中性的
无色的
口试
口头的
口述的
口部的
胁迫的
吸引人的
有魅力的
遮光物
灯罩
帘
浓淡
底纹
使阴暗
使渐变
微减
aims
神学院
发源地
##master
1856
米歇尔
枪伤
伤处
避难者
难民
制造商
##nic
水银
汞
使者
并发症状
综合征
同时存在的事物
大楼管理员
搬运工人
侍者
服务员
##iya
##din
汉堡
身份证明
楼上的
在楼上
向楼上
处于更高地位
钱包
小钱袋
募捐款
囊状物
缩拢
皱起
放宽
加宽
变宽
间歇
休止符
在乎
清音的
有气的
使紧密联系
使附属
发生联系
santiago
阻碍
celtic
渔夫
食鱼动物
渔船
125
招聘
吸收某人为新成员
动员…
byzantine
再建
进一步的
##mp
日常饮食
照规定饮食
忌食
缘故
au
怨恨
使人烦恼的事物
故意刁难
欺侮
轰动
##ert
成为空白
使无效
退职
105
##hon
vladimir
大批
##lie
调和
通融
向提供
常轨
眼眶
绕轨道而行
进入轨道
膜拜
祭仪
一群信徒
索非亚
把存档
档案馆
档案文件
##ify
##box
持久不变的
不懈的
杂乱
扰乱
使失调
东北方的
在东北的
战斗中失踪的
堇菜
紫罗兰
堇菜科的
紫罗兰色的
可能造成威胁的人
毯子
掩盖
点火
火力
划成行政区
仿效者
契约附页
向西南的
来自西南的
西南部的
原型
航海
航程
航行越过
归因
适度的
节制的
使缓和
变缓和
主持会议
礼仪
拟定
手枪
信号枪
以手枪杀死
##eo
问问题
对表示
黄铜
黄铜制品
黄铜的
铜管乐器的
镀以黄铜
1852
编写
##ual
道格
维的
动态的
有活力的
动力的
不断变化的
动态
##san
1851
发出音的
读出来的
断然的
感谢的
感激的
令人快意的
找
追寻猎物
不舒服的
不自在的
隆隆声
急速发展
发隆隆声
使兴旺
总统职权
总裁职位
史蒂文斯
玩弄权术者
陈
quinn
diana
清真寺
部落的
宗族的
朝圣者
变戏法的人
毛虫
一份遗产
分享的部份
以前的
某一时间的
改天
来日
切斯特
宝物
珍爱
秘藏
西联
工作单位
武汉航空公司
变弯曲
使屈服
数百万
##osa
eat
初步做法
初步措施
预试
预选赛
预备的
布兰登
虚拟
ps
外在的
介入
调停
端口
备有证明文件的
圆木
日志
计程仪
伐木
讲稿
训诫
说教
讲演
出击
##itz
vermont
看不见的
无形的
使成为岛状
住在岛屿上
品种
##ator
新闻工作者
驿马
替班
中继
接力
分程传递
转播
使接替
接力传送
谈
从某种观点来说
向后的
探险
探测
探究
中场队员
活跃地
积极地
大炮
加农炮
金发的
白肤碧眼金发的人
肯尼思
居中的
奴仆般受制于…的人
服务于…的事物
联营企业
缝条
链条
图书馆查询系统
函数库
马尔科姆
essex
henri
奴隶的身分
奴隶状态
奴隶制度
##hal
设备管理控制与时间调度程序
Facilities
Administration
Control
and
Time
Schedule
仙女
精灵
仙女的
cassie
高级电视研究中心
计算机自动测试系统
通信和跟踪系统
综合分析试验系统
洗过的
警官
##fi
公告
告知
一则
2000s
乙烯基
活性化的
马尔科
显示地图
展现地图
发狺狺声
作隆隆声
低声咆哮着说
##das
忠实的
忠贞的
有造诣的
善社交的
莱斯利
宗教仪式
仪式的
依仪式进行的
肯尼
##00
罗马数字
napoleon
窟窿
凹的
形成空洞
挖空
混血儿
混合语的
杂乱的一堆
弱肉强食的地方
friedrich
有价值
数出总数
算得上
##ulated
白金
铂
银灰色
剧场的
夸张的
戏剧演出
橡皮
橡胶
做摩擦动作的人
按摩师
决胜盘
用橡胶制造
涂橡胶于
幽谷
1840
多样性
治愈的
恢复健康的
遗传素质
本能冲动
存粮
给养
口粮
粮食
行政官
哥伦布
##oe
支流的
纳贡的
纳贡者
属国
te
自信的
##uous
享有声望的
验讫
检查过的
讲课
冗长的训斥
grammy
罗纳德
关联分析
协会组织
城郭
外栅
散文
论说文
横笛
凹槽
吹笛子
用长笛奏
刻凹槽于
信任他人的
有信仰的
征询意见者
行径
会议录
记录汇编
活动记录
1853
成套工具
喀拉拉邦
yugoslavia
好朋友
墨守成规者
##ith
中心区
中枢
置于中央
把…当作中心
成为中心
勤务兵
##nda
体臭
汗臭
狐臭
暂时无法满足的订货
戏院票房
戏院售票处
船坞
被告席
尾巴的骨肉部分
使靠码头
使进港
进港
stockholm
肺
肺脏
严格
严肃
严重
严厉
朴素
##nk
引证
举例
日本漫画
##ugh
偷偷地做
窃取
偷偷地行动
孟买
iraqi
机械人
新娘
播音
广播节目
乱传
彻底废除
废除的
壶
坩埚
奖杯
装入盆中
在锅中煮
随手射击
joel
经常开支
普通用费
在头上的
高架的
在头顶上
在空中
在高处
从头到脚全部没入地
弗朗茨
满座的
挤得满满的
压坚实的
塞满了的
挤满了人的
拥挤的
勘察队
约翰
引入
有把手的
有把柄的
博士头衔
建设
饮品
palestine
##nis
##aki
继续说
拯救
胜诉
布兰得利
谷粒
颗粒
谷类
纹理
成谷粒
补缀
斑
拼凑
买得起
足以
传染
传染病
国家主义者
民族主义者
传说的
传奇中说的
传奇般的
传说中的
##ath
立体交叉道
互换
交替发生
地心引力
重力
踏勘
琥珀
琥珀色
琥珀色的
琥珀似的
生命的
充满活力的
生死攸关的
致命的
希望的事
许愿
鲍威尔
教条
手肘
弯头
用手肘推开
推挤
电影剧本
##bird
投稿
出力
indonesian
宠物
受宠爱的人
宠坏的孩子
不悦
表示亲昵的
养着观赏的
特别珍爱的
格外的
宠爱
溺爱
抚摸
爱抚
发脾气
##com
酶
回飞棒的一种
纪律
药水
滴剂
manila
饥饿
饥荒
使挨饿
挨饿
##ien
层面板
图层面板
图层集合
遭受
热病
后台智能传输服务
建设集成时序供应
二进制数字
monica
设法对付
##hood
找寻
探查
##bad
里德
##war
信?
congo
##ification
##dia
si
##via
凯西
1849
遗憾
后悔
悔恨
抱歉
歉意
为感到遗憾
惋惜
懊悔
感到抱歉
斑纹
加条纹
变成条纹
强奸
葡萄渣
芸苔
syrian
短距离赛跑
全速跑
冲刺
全速跑过
鱼塘
兽栏
强烈打击
捣烂
关入栏内
连续重击
即将出现的
酒馆
##xi
拉紧的
时态
##els
有经验的
精通的
回声
回音
回波
发回声
随声附和
重复
行业协会
摩托车
莉斯
##zar
族长
想得到的
埃琳娜
再会
回头见
珍贵的
过于精致的
珍爱的
全神贯注的
一心一意的
亭
摊棚
钢琴家
钢琴演奏者
##mal
国籍
市民权
市民的身份
##ceae
##hed
注释法
公证文件
四分卫
担任四分卫
冲动
推动力
迫切的要求
驱策
力劝
竭力主张
强烈要求
公顷
##gue
幺点
好手
发球得分
一流的
冬青树
##tal
亚麻色的
白肤金发碧眼的
白里透红的
白皙的
淡黄色的
肤色白皙的金发女人
davies
已泊车的
足可支撑的
养得起的
可以忍受的
第二十
二十分之一
银河
巢
窝
休息所
隐匿处
筑巢
找鸟巢
为设窝
使套叠
屑片
削成碎片
削下屑片
##nell
黄褐色
鞣料
马戏团
黄褐色的
鞣皮的
晒成棕褐色
把晒黑
鞣
狠狠鞭打
箭杆
矛
装杆于
必要条件
##zy
乐园
伊甸园
烟草
香烟
复兴的
重建的
越南人
越南语
##cker
##ju
易传染的
福尔摩斯
enjoy
yourself
玩痛快些
md
trips
小马
苔绳
无经验的年轻人
持有人
支持物
蝴蝶
叶脉
神经
鼓起勇气
改革过的
改革派的
樱桃
樱桃树
樱桃色
保龄球戏
追踪者
拖车
马车
再见
鉴别
为而感激
增值
涨价
玩具
小玩艺儿
小型的东西
供玩耍的
作为玩具的
玩弄
调情
joshua
相互作用的
相互影响的
激活的
使可行的
潜心于
##kan
颈圈
扭住衣领
给装上领子
果断
串
束
脸谱网
召回
回想
使恢复
短裤
男人的短衬裤
监督人
主日学校校长
主教的
主教制度的
英国国教的
顿挫
giovanni
第十九
十九分之一
激光
私下地
布署
发行量
##ovic
armstrong
协约
令人烦恼的
通行证
使放手做
给以机会
提供可能
岐视
辨别力
##wi
白羊座
行将隐退的
行将退休的
就寝的
茅舍
ni
##sta
地平线
视地平
埃伦
jamaica
fernando
回
章节
游戏机
赞助人
演讲者
导航
georgian
输出品
输出物资
solomon
竞争对手
褐雨燕
快速爬行的小蜥蜴
蝙蝠蛾
大滚筒
立刻的
敏捷地
十七
十七个
rodriguez
princeton
独立地
自立地
短袜
袜子
鞋内的衬垫
轻软鞋
巨款
存钱处
银箱
一击
1847
实存物
铸成品
角色分配
一束
用帆眼圈系牢
奥克兰
地理的
地区的
密尔沃基
沉思
责难
被称为的
译制的
##tv
立定
使停止
使立定
蹒跚
有缺点
华丽的
勇敢者
勇敢地面对
brunswick
工业部
内政部
弓形结构的
拱形的
柯蒂斯
离婚的
大多数地
突出地
有衬垫的马鞍
数据流
流控制
丑陋的
险恶的
不祥的
丑陋的人
动物园
遭透的
极讨厌的
弄弯的
buenos
暴躁的
字典
矢量
传病媒介
导引
给导航
神学上的
一把
棘手事
安定
稳定性
坚实
巩固
punjab
积弓形片模型
段数
##lly
圣坛
祭坛
姿态
作手势
作姿态
小恶魔
坏人
##stone
股
大腿
食用的鸡腿
料想不到的
经营者
电话接线员
投机取巧者
突然地
铸币
杜撰
编译的
合作人
联合公司
有启发的
有教育意义的
移往
大头针
针
别针
栓
销子
图钉
插头
管脚
品
将用针别住
压住
牵制
使不能动
归罪于
针的
销子的
闩的
##ose
紧凑的
紧密的
使紧密结合
腼腆的
不露感情的
含蓄的
缄默的
##urs
四分之一决赛的
四分之一决赛
花名册
还原
匆忙
急忙
急促
急派
椭圆形
卵形的
椭圆形的
##cies
1846
martha
##del
严厉地
厉害地
##rated
坚决主张
提出理由证明
如死一般地
图纸
图示
提用
提款
符号表
表演者
完成者
##iel
未经世故的人
限制条件
安德鲁斯
java
日记账
学术期刊
arabia
组成成分
作品辑
D字形马具
刺穿
打眼于
洞悉
响彻
照进
深深地打动
穿入
透入
拆迁
hindi
卡西诺赌场
卡西诺牌戏
跑道
过道
百姓
老百姓
nasa
大饭店
##zation
安全地带
避难
给予庇护
租金
房租
出租物
租出
分裂的
破裂的
保有
留住
付定金聘请
可能地
潜在地
郊外的
郊区的
土气的
见识不广的
郊区居民
##tto
##tions
##tle
下来
下斜
遗传
屈尊
由远而近
由大而小
大屠杀
残杀
##cal
军火
弹药
地形
叉子
叉状物
分岔
做成叉形
叉起
支数
切尔西
durham
驱动力
出租车
出租汽车
出租马车
乘出租马车
##bank
珀斯
佩斯
明确无误的
清晰生动地
palestinian
finn
辛普森
##dal
贝蒂
##ule
粒子系统
微粒
碎木料
红衣凤头鸟
基数
帷幕
塞条
塞子
住帐蓬
宿营
暂时居住
用帐篷遮盖
使住帐篷
用塞条嵌入
求值
##oid
题字
碑铭
##works
wednesday
克洛伊
镶板
控制板
艾希莉
##nation
丛
簇
丛生
##wing
同源语
教会法规
圣典
##ap
塞进
翻折
盖住
卷起
##ws
聚积
##mas
##can
##sville
埃文
独唱特写镜头
咏叹调
清洁
扫除
家畜的胞衣
扫除出来的垃圾
大败
输得精光
除伐
巨额利润
伊娃
壁橱
小室
空谈的
把关入小室
钱和设备
供给食物及必需品
apollo
诊所
临床教学
鼠
破坏者
变节者
变节
弄蓬松
##ez
必然地
必要地
ac
##gle
##ising
犯罪现场
场馆
轻弹
快速翻转
急挥
受托人
信托公司
经认可的
经授权的
##sco
失望的
##ado
别致的小东西
持续时间
小号
喇叭声
用喇叭吹出
吹嘘
犹豫
吞吞吐吐
顾虑
形成顶部
brussels
面包卷
卷轴
辊碎机
理论的
理论上的
假设的
推理的
使明确
侵略的
挑畔的
进取的
反复
重做
复述
使再现
洗
洗涤
冲洗
洗的衣服
冲积物
洗清
用水冲洗
流过
弄湿
粉刷
镀金属薄层于
洗澡
被冲蚀
漂浮
和平的
和平时期的
喜爱安静的
眼睛的
光学的
宽度
宽广
依其申述
麦克唐纳
麦当劳
版权
著作权
##illa
投资者
出资者
损伤
果酱
拥塞之物
使塞满
混杂
压碎
使堵塞
见证
见证人
…就是证据
是…的迹象
发出声音的
响亮的
听上去堂皇的
水深测量
探空
搜集意见
米兰达
michelle
雨果
##pp
有确实根据的
有法律效力的
正当的
林恩
怒目而视
发强光
尼娜
102
将的总部设在
潜水
跳水
gibson
##ncy
阿尔巴尼亚人
沼泽
湿地
沼泽的
日常工作
例行公事
常规的
deal
增大的
加强的
er
智能的
了解的
实质
主旨
牢固
应募入伍的
碰见
了解到
观察值
观察结果
丽贝卡
capitol
签证
签发
各式各样的
装束
看来似乎
表面上看来
印度地方
西印度群岛
赔偿金
工资
外科医生
军医
船医
thursday
兵工厂
军械库
westminster
郊外
以清除
使获自由
使摆脱
anglican
##ridge
结头
食品
男毕业生
男校友
点火者
点灯工人
打火机
驳船
以驳船搬运
弗雷则河
弗雷泽
无论谁
肝门的
丑闻
中伤
耻辱
流言蜚语
##ray
加文
知情的
教员
充溢
血崩
恐怖分子
##ale
十三岁到十九岁的
间歇的
五官的感觉
鸭子
没入水中
闪避
猛按入水
艾比
热望的
##ile
新港
纽波特
格伦
价格上涨
羞耻
羞愧
使羞愧
##cc
优先权
轰炸机
投弹手
nicolas
给予保护的
360
卡通画
画漫画
凯瑟琳
煤屑
轻而易举的事
吹微风
孤单的
孤寂的
荒凉的
可信的
受信任的
亨德森
理查森
松弛
变从容
休养
使松弛
使松懈
特别好的
冰糖
用糖煮
使结晶为砂糖
结晶为砂糖
手心
棕榈植物
不平常的
##rio
民间传说
传奇人物
板球队员
玩板球者
随笔
短文
任命为牧师
授予圣职
判定
艾德蒙
来福枪
卡宾枪
触发器
扳机
触发
松开扳柄
##uri
##away
帆
篷
帆船
帆状物
张帆而行
航行于
驾船
警觉的
留心的
使警觉
1830
宾夕法尼亚大学
苏塞克斯
印第安纳波利斯
耐得住
抵制
防染材料
接替
回避
避免了
1845
##ulation
内陆的
内地
##tie
##nna
商议
法律顾问
表白
年代记
编年史
把载入编年史
##una
终于的
出血
革新的
创新的
富有革新精神的
治愈
治疗法
腌制
加工处理
使硫化
受治疗
被加工处理
被硫化
##dom
街道办事处
会计学
清帐
精读
仔细研究
默记
反面地
从反面
反对票
肺结核
广度
观察仪器
导弹射程
石南花
似石南的
稳定的进程
思路
大意
誊本
票据的限期
男高音
男高音的
剧情
取出内脏
毁坏的内部
传令官
先驱
预报
传达
欢呼
编码
规范
缩放
鳞屑
磅秤
四轮马车
##oo
奢侈
豪华
奢侈的
锡
马口铁
在镀锡于
锡制的
较喜欢
喷泉
本源
三角形
三角关系
可爱的人
可爱的物
护航
弄干了的
思想感情
身心
金衡
金衡制
特洛伊城
用金衡制表示的
偶然地
意外地
猛然
猛烈的抨击
猛然关上
调查结果
检验发现的情况
smell
浸渍
险峻的
陡峭的
急剧升降的
浸
泡
波斯尼亚
波士尼亚
表面配置
通行费
征收
鸣钟
勾引
征税
演出者
演奏者
履行者
大厅
休息室
游说议员者
游说议员
游说
哲学的
达观的
哲学上的
哲学家似的
对进行构思
构成物
圣地
神龛
庙
将置于神龛内
聚集体
合计的
合计达
长靴
效用
使穿靴
舵手
做舵手
现象
奇才
未开化的
无礼的
残酷的
粗鲁的
未开发的
用暴力对付
凶猛攻击
原始人
粗鲁人
患精神病的
极愚蠢的
单独地
雷诺兹
生活方式
##ima
作为整个民族
举国一致地
全国性地
占有的财产
所持股份
使能够
埃德加
顷刻
函购
邮购
军医主任
邮政汇票
##tein
吵架
调职
归属
偶然
某事发生的可能性
原子的
毂
木片
连接词
笨拙的
通货
通用
最后乐章
终曲
kumar
undergo
掌舵
精心计划的
详细地说明
用心地制作
发挥
变复杂
作详细说明
赠品
天赋
静脉
明理的
光明
希腊语的第22个字母
付给
溶解
求解
山径
游径
有人居住的
道德规范
哼
言论集
语录
轶事
套间
公寓住宅
布局
规划图
页面布局
版面编排
##ces
大块
显得大
显得重要
##oma
家乡
##wall
##mont
破碎的
声音嘶哑的
看懂
接壤的
准许进入
入场费
录用
翼展
可恶的
选集
诗选
lancashire
品牌
球棒的使用
棉絮
cuban
虔敬的
##lyn
104
容积
想像力
##ade
但丁
##ship
拼命地
绝望地
##yne
呻吟
发牢骚
专题讨论会
工作坊
研究会
有信心的
复滑车
杰拉尔德
米尔顿
马戏
不确定的
无常的
不确信的
不可预测的
斜率
扛枪姿势
弄斜
扛
copenhagen
索菲娅
雾
最生草
苔藓
被雾笼罩
变模糊
以雾笼罩
哲学家
哲人
思想开创人
达观的人
生动的描写
口音
注重点
加重音号于
骑脚踏车兜风
骑脚踏车消遣
幼虫
幼体
蚴
加勒特
详细说明的
凹形边饰
充分考虑的
到期
卢瑟
库尔特
拍击
无价值的东西
厉声说出
叱责
抢走
使着迷
发敲击声
##kes
空中的
航空的
空气的
天线
750
ferdinand
es
情不自禁的
使万分激动
##shan
尽管如此
##orn
##gal
汽车公司证券
要求高的
费力的
##sburg
##brook
使联盟
使有关系
结盟
盒式磁带程序设计系统
计算机辅助产品检索
ghana
沾污的
褪色的
demo
通报表扬
床上用品
床组
ap
##bling
功用
有用之物
实用
公用事业
实用程序
有多种用途的
##iro
理查兹
1837
同谋
阴谋集团
有意识的
知觉的
觉察的
光亮的
步距
脚步
观察者
遵守者
观察员
cyprus
怂恿
忠贞
忠诚
开发者
或然率
几率
概率
橄榄
橄榄树
橄榄色
橄榄枝
黄绿色的
橄榄色的
加固的
+体育馆
体育训练
体操
奇事
昆虫
昆虫类
昆虫纲
1844
我们自己
氢
亚马孙河
卡蒂
罚单
##pm
位面
##pan
密集的
神灵
斤
喧闹的
粗鲁悍妇
莽汉
强烈味道
特殊的气味
柄脚
当的一声
墨角藻
使发气味
装刀柄于
使发出当的一声
发出当的一声
货栈
大商店
储入仓库
门罗
突然巨响
刘海
发巨响
砰然地
突然巨响地
存档
过了中年的
稍老的
科学研究
学术研究
亚历克
花岗岩
矿物
无机物
苏打水
矿物的
似矿物的
相互干扰
土著的
土著居民
土生生物
卡洛
##zu
机械学
力学
斯坦
僵硬的
刻板的
罗德岛
裙子
位于边缘
est
##berry
##horn
强加的
施加的
石灰石
否认
被提名者
被任命者
memphis
强烈吸引
残废的
有缺陷的
失效的
##als
兴味
aa
牛肉香肠
猪牛肉混合香肠
玉蜀黍
鸡眼
使成颗粒
全民公决
全民投票
多重复合
缓行
减速
磁盘
未意识到的
无知觉的
控告
提出诉讼
提出请求
##zhou
一扭
扭曲
曲折
螺旋状
新手法
拧
扭
捻
编织
使扭转
盘绕
使混乱
扭动
呈螺旋形
##cio
idaho
chad
研制者
显影剂
显色剂
消灭者
起破坏作用的东西
驱逐舰
103
不免一死的
临终的
打横褶的人
打褶装置
使疲倦
使筋疲力尽
金斯敦
禹
卡尔森
1800
穴裂口
惠特尼
惠特尼山
geneva
伪称
自命
自称
次元
维数
标出尺寸
稳定水平
maya
##une
自由式
##bc
巡游者
海上掠夺
艾滋病病毒
##ids
特里斯坦
教室
展望
勘察
##hus
真诚地
公正地
文凭
毕业证书
热量的
温泉的
上升温暖气流
辅助物
附属机构
助动词
酒席
享乐
请客
参加宴会
尽情地吃
不太可能的
国际航空运输协会
##tel
morocco
重击声
国库
宝库
财政部
国库券
立陶宛
1841
菜肴
1812
地质学的
地质的
协调的
跌跌撞撞地走
绊脚
出错
游行示威
brien
作友好表示
蛋糕
饼
使结块
加块状物于
结块
尼科尔
##mie
tuesday
低音提琴手
受惊的
鱼雷
水雷
用鱼雷袭击
##list
##phone
安东
智慧
明智行为
名言
贤人
毁灭的
没落的
荒废的
##ulate
医疗保健
卫生保健
健康护理
健康服务
定理
霍尔斯
荷氏
aka
水平线
水平面
水平位置
水平线的
横的
几十
学到
永恒的
厚实斜纹织物
潮流
大量拥有
游过
使浮起
掠夺者
鹰派成员
放鹰行猎
像鹰一般地袭击
清嗓
咳嗽
咳出
兜售
叫卖
散播
规费
附近地区
近处
减少量
用兵学
兵法
##ography
pakistani
##ole
铸件孔穴
##hall
威利
秘密地除去
秘密地消灭
压制
石南荒原
低矮灌木
算法
积分
整数
整体的
整数的
积分的
粉
火药
搽粉于
搽粉
撒粉
使成粉末
变成粉末
elliott
陆军准将
准将
杰基
塔特
种种
较暗
比较暗的
##cho
近来
纸烟
某种类型的人
高级数据显示系统
美国陆军数据分发系统
应用数字数据系统
##ree
##ensis
##inger
爆炸了的
分解的
被破除的
被戳穿的
决赛选手
决赛队
cia
对某事物造成极大的伤害
参数
给…起绰号
罗伯森
喷射机队
喷气机
坦帕市
博客
部落格
网络日志
吵闹地
1838
ai
malta
质询
询盘
群众或部队的集合
罗马数字8
倾斜的
翘起的
忧愁
悲痛
战略学
对策
狂怒的
吵闹的
欧元
平等
均匀
科恩
毒药
毒
毒物
有毒害的事物
毒杀
使中毒
放毒
下毒
四轮双座轻便游览马车
无线的
无线电的
荒谬的
可笑的
moses
##esh
##room
销声匿迹
无影无踪
##ito
巴尔内斯
诱惑
莫里森
istanbul
##iness
缺席的
不在的
缺乏的
漫不经心的
使缺席
请愿
诉状
陈情书
祈求
祷文
正式请求
janet
##logical
满意
快事
赔偿
赎罪
报仇的机会
故意地
天文台
气象台
了望台
曲面
拼音
小说家
严格地
坎特伯雷
oslo
互相拥抱
收买
ibm
嫉妒的
羡慕的
戒备的
洲
自制的
桃乐茜
doc
过度
剩于
超额
过量的
陈词
讲解
说明…的原因
书库
枪架
烟囱
存贮栈
堆满
暗中对做手脚
撤销
避免的
回避的
长矛
柳叶刀
执矛战士
以长矛攻击
急进
故事情节
最高权威
威严
雄伟
庄严
贫穷地
不充分地
贫乏地
身体不舒服的
长钉
鞋钉
钉状物
尖峰状物
以大钉钉牢
用尖物刺穿
弃置不用
磁盘操作系统
布拉德福德
渡鸦
乌黑的
崔维斯合唱团
特拉维斯
古希腊、古罗马文学
伏特数
枕头
靠垫
枕状岩
作的枕头
垫
枕于
靠在枕上
拳套
粗大的一头
烟头
靶
1842
把…理解为
演绎
##car
1839
以为担保
以为赌注
电报机
打电报给
电汇
流露
显示出要的样子
镜片
晶状体
给摄影
有希望的
把…除名
排出
不经意的
便装的
待命士兵
收集家
收取款项的人
尺度
##min
糊涂的
nintendo
##kh
##bra
楼下
楼下的
在楼下
多疑的
怀疑的
afl
裤子前面的开口
茫然的
空缺的
uganda
多产
意义深长
已被定罪的
定了罪的人用的
lutheran
概数
便宜的
不值钱的
可鄙的
便宜地
法令
天意
颁布
发布命令
saxon
剥去的
极蠢之人
订金
寄存处
付
放入
矛盾的
对立的
奉献者
提出者
冰川
im
伤感情
爱德温
##ori
竖式的
##long
门闩
螺钉
闩住
脱口而出
囫囵吞下
囫囵吞枣
射箭
脱缰
退出党派
##ois
震荡
掷钱币决定
猛抬
使不安
被到处扔
颠簸
辗转
掷钱币决定某事
地理学的
##izes
生态环境
细致优雅的
美味的
印
深奥的
抽象概念
使抽象化
泽维尔
钉子
温莎
种植园
大农场
植树造林
新开垦地
saskatchewan
漂
吹积
漂泊
顺牌
有关联的一组事物
一组镜头
使反感
使恶心
##stic
1843
抢先占有土地者
抢先而获得不正当利益的人
熔合物
熔合
nato
溜冰
1836
背地里
衰败
使毁灭
使破产
租约
租期
租得
##oc
编校
##nne
植物群
焦虑
令人焦虑的事
红宝石
深红色
红宝石色的
使带红宝石色
##ological
##mia
试验仪器清单
一回
较量
乘出租车
用出租车送
emmy
霜
冰冻
冷漠
覆着霜
冻结
结霜
受冻
起霜
彩虹
五彩缤纷的
复合物
使严重
地基
降雨
降雨量
暗杀
梦魇
恶梦
可怕的事物
多明尼加共和国的
##win
业绩
该得到
应得报答
奥兰多
尚未被人碰过的
原封不动的
armenia
##nte
卡尔加里
情人节礼物
106
马里恩
正式宣布
希欧多尔
排钟
喇叭裤
天井
gonzalez
藉慰
控制台
一队
结队
成群而行
极微的
最小限度的
monte
每天的
##ence
##if
后盾
迫随者
护身织物
恐怖主义
恐怖统治
恐怖状态
纨绔子弟
鞍马
培克
碱水
自夸
马背突然拱起
吹牛
马背突然拱起将骑手摔下
用碱水洗
公开地
坦率地
长老派的
长老宗的
长老教教友
长老制支持者
活动家
地毯
地毯状物
铺以地毯
铺盖
##iers
研磨
摹拓
##yi
想出
构想
法律上
合法地
##cht
千禧年
一千年
大提琴
共同减量
亚洲的一个恐怖组织
救援
使免遭损失
加的夫
1835
雷克斯
浓缩
胡须
抓住胡须
公开反对
已渲染的
白热的
灼热的
通红的
鲜艳的
一营
协同作战的部队
参赛者
雕刻家
大学情况一览
编入目录
北极的
极寒的
北极圈
北极
离子
印度王公
哇
巨大的成功
轰动一时的成功
十分有趣的事物
草地
草坪
上等细麻布
##woman
绅士
灯塔
计算出的
##val
变型
##gne
过劳
扭伤
血缘
口吻
使劳累
过分使用
滤
尽力
紧拉
被滤出
##ui
温斯顿
##nus
着陆
brady
迦勒
卡莱布
“天狗”发射装置
衰颓感
类似
发出回声
粉碎
迷恋
压破
塞
弄皱
被压碎
起皱
hon
受祝福的
主人公
海耶斯
有生命危险的
濒临灭绝的
巨大
星等
剪辑师
##tine
##mel
倒车
做备份
候补的
对…著迷的
zurich
失意的
挫败的
泄气的
##eau
艾哈迈德
踢腿
反撞
连指手套
棒球手套
拳击手套
马萨诸塞理工学院
麻省理工学院
用手铐铐住
会计
出纳员
司库
1832
圣经的
扔掉的
受惊吓的
感到恐惧的
抽水机
打气筒
泵
抽吸
用唧筒抽水
打气
使疲惫
抽水
上下运动
诚恳的
坐牢
回绝
推却
拒绝给
普利茅斯
##hen
卢
##nen
发抖的
战栗的
南极的
南极地带的
南极地区
##tas
小派系
内讧
在顶上
在的顶上
##borough
围巾
包裹物
换行
裹
穿外衣
包起来
兰开斯特
胜算
不平等
霍普金
埃里克
lyon
##eon
bros
##ode
使突然中断
拉断
使有啪啪声
厉声说
突然射击
用快照拍摄
扑
折断
劈啪地响
砰然关上
猛扑
劈啪声
申斥
快照
一般时期的寒冷天气
揿钮
装搭扣的
猛地
所在
小贴士
小窍门
皇后
女皇
戴王冠的
象戴着王冠的
有帽顶的
cal
受到赞扬的
轻声地笑
##ory
克拉拉
淡味的
软性的
手巾
毛巾
擦干身子
##fl
##day
##а
期盼着
僭越的
不逊的
##bal
##die
一起活动
互相影响
互动
eden
拨火罐
海伦娜
##lf
独立制片人
独立制作的影片
点头示意
招手
##fire
filipino
男巫
术士
男巫的
巫术的
##lam
##born
返回引用中的行数
偶像
崇拜物
宠儿
幻象
谬论
albany
代表团成员
##ees
##sar
##ex
受教育的
得到指示的
被委派的
belgrade
高速公路
劳伦
定方位
亚历山大港
亚历山大市
亚历山大大帝
阿卜杜勒
音乐节拍
差拍振动
心脏跳动
薪水
给加薪
团圆
重聚
路德维格
没问题的
至交
slovenia
热烈地拥抱
紧靠…走
抱有
缠紧
缚紧
布赖顿
热中于…的人
令人极痛苦的
女用披肩
圣衣
牛拉货车
艰苦跋涉
牛车旅行
斜面
山坡
有斜度
悄悄地走
潜行
修理费
修理工作
入伍
政治上
在下面的
增进的
波音
##bb
伊莎贝拉
##и
挽歌
痛哭
唱挽歌
细菌
belfast
ussr
450
lithuanian
排骨
球面
球体
使成球体
放入球内
martinez
公鸡
雄禽
龙头
头目
锥形小干草堆
使耸立
堆成锥形小干草堆
翘起
尴尬的
窘迫的
推荐
赞成提案
分段
未完成的部分
##fs
##wski
上述各点
上述房屋
鳍
鱼翅
鳍状物
五元纸币
猛挥鳍
装上翅
切除鳍
1500
高山的
高山生长的
敌得过的
随意地
无拘束地
慷慨地
免费地
有界限的
Jason
贾森
套管
缝上袖子
##af
赌胜负
桥墩
支框
防波堤
粒子数增加的
##like
弗朗西丝
洪水浸没的
浸没的
淹没的
灌溉
充斥
##dle
骤雨
灌
注
诉说
倾吐
蜂涌而来
下大雨
训练员
驯马师
遭到陷害的
有构架的
参观者
访客
挑战的
引起争论的
猪
猪肉
猪一样的人
生小猪
象猪般地生活
三柱门
两个三柱门之间的场地
击球的一轮
##fold
被感染的
电子信函
##pes
arise
##aw
报酬
酬谢
赏金
给应有报应
ecuador
ch
穿梭
梭子
往返移动之物
穿梭移动
往返运送
##usa
过独身生活
某项体育运动的)最佳运动员排名表
被禁止的
严禁的
康沃尔
塞伦
消耗者
用户
布鲁诺
稀奇的
脚趾
朱利叶斯
宣传活动
iceland
炮击
潮
潮汐
使随潮漂流
顺潮行驶
联系人
联络方式
触体
妻
##rah
麦当劳快餐店
albania
器具
使生效
雏菊
一流人物
分接的
抽头的
sudan
钢盔
盔
防护帽
给戴头盔
安吉拉
主妇
女主人
情妇
##lic
农作物
平头
收割
修剪
凹陷的
##craft
怀敌意的
敌对分子
##ute
##tsu
拳师
fr
调整过的
习性
使穿衣
投票用纸
投票选出
拉选票
女高音
最高音部
女高音歌手
女高音的
##zen
缺德的
刻毒的
淘气的
晚年
大量的人或物
不见
app
##gia
##oa
兔子
猎兔
让见鬼去
发生的事
小插曲
敌对行动
词目
##cion
餐具
##oi
引介
##ati
##fied
生手
大学一年级学生
中学一年级学生
水沟
细长孔
硬币投币口
缝
狭槽
狭通道
一档
开槽于
把纳入机构
jill
滑车
钓具
阻截队员
与某人交涉
向某人提起
巴罗克风格
巴罗克式
巴罗克式的
绮靡的
以俗艳标新立异的
后背
脊背
##iest
寂寞的
倡议者
教父
定数
总而言之
皈依者
改变宗教信仰者
使改变信仰
倒置
皈依
##aro
合意
同感
二维造型体
示范
实证
基本上
男女平等主义者
史前古器物
人工产品
##bing
最强壮的
啁啾
唧唧喳喳声
啭
颤抖
嘁嘁喳喳地讲
抖动
哈里法克斯
2019
allmusic
有势力的人
极
亚历山德拉
中提琴
##los
##ille
手写本
##illo
丰碑
扁叉
刀片
简陋的房子
警察所
springfield
年轻未婚女子
未婚的
初次的
整理过的
巩固的
电子
##end
浆果
采集浆果
兜风
小麦
nobel
内含物
布莱尔
地理学
地理
蜜蜂
cc
eleanor
起反应
反攻
##hurst
afc
马尼托巴湖
##yu
su
阵容
阵形
布阵
一组人
合宜
合理
恰当
消遣的
娱乐的
投资的财产
投资学
升空的
空运的
空中传播的
空降的
##dis
埃德蒙顿
##row
刷新
##cast
婴儿
初学者
婴儿的
幼稚的
破产者
楼阁
亭子
大帐篷
观众席
置于亭中
##yer
木匠
退隐
戒毒过程
梯
梯状物
发迹的途径
袜子抽丝
成名
##hy
商量
可信赖的
达成协议
rochester
##abad
弯曲状
安非他明胶囊
大麻叶香烟
220
右前斜位
大人
应受尊敬的
教士的
减小
107
呆板的
生硬的
刚强的
粘的
稠的
死尸
醉鬼
不肯付小费
商议的
任专职顾问的
naples
克劳福德
特蕾西
缎带
色带
带状物
用丝带装饰
把撕成条状
形成带状
##lee
压碎的
倒碎的
一致标准的
十三岁到十九岁的少年
易接受的
赞同的
探险家
探测者
勘探器
地极
截然相反的两极之一
sanchez
复活的
再生的
感应的
诱发型
换回
进行易货贸易
作物物交换
逃
区域变量
悲剧
惨案
悲剧作品
燕子
吞咽
喉
耗尽
轻信
吞下
咽下
汉纳
示威
##ela
salvador
教化
##ines
罗兹岛
罗兹市
弗莱彻
威吓者
虚张声势的人
说大话
吓唬
看重
##ough
纳什
心理上
精神上
智力上
walt
不易了解的
不清楚的
含混的
##eus
翻新
整修
喜欢差使/指使别人的女子
鸨母
##cks
一起工作的人
一群做同一工作的人
统治上的
政府的
##hin
undertake
猴子
猿
打桩锤
淘气
胡闹
##ben
##ato
命运注定的
粗心的
装甲的
人名
科帕
儿童在线保护法案
中学后教育鉴定委员会
小餐厅
统辖
领悟力
freeze
潮湿的
使潮湿
使阻尼
抑止
变潮湿
衰减
用力拉
使劲拉
猛扯
wyoming
##rg
##ero
newman
##lor
神经质
神经紧张
好奇心
新奇的事物
珍品
曲线图
115
##ami
撤回
取回
使撤退
拉开
移开
钝的
无趣的
呆滞的
阴暗的
使迟钝
变迟钝
meredith
泥沼
使长满苔藓
街坊邻里
邻居
邻国
邻元素
显露
精确
开发
探寻
进行袭击、抢劫或搜查的人
进行突袭的舰队、飞机等
republicans
修道院外的教士
现世的
长期的
kat
具有超人能力的人
超人
便士
一分
小钱
吹毛求疵
##tch
释放的
更新
使现代化
定罪
信服
坚信
跋涉
火腿
后腿
笨拙演员
过火的
演得过火
派遣代表团
代表的地位
洋娃娃
无头脑的美丽女人
技术的
神话
虚构的事
虚构的人
民族性
使分解
决定之事
坚决
女修道会
##mark
莎伦
翻土
发掘
啜饮
小口喝
抿
啜
协调者
同等的人或物
企业家
主办人
折层
折
羊栏
折痕
信徒
交迭
折叠起来
##dine
约束力
地方议会成员
议会委员
评议员
参赞
同义词
吹制的
喘气的
开着花的
天鹅
天鹅星座
有才华的诗人
蜿蜒而行
被诅咒的
1815
乔纳斯
有毛发的
长着头发的
沙发
帆布
画布
油画
看守人
##hart
敲门人
控告人
检举人
汽车竞赛场
宝剑
邮政的
邮局的
麦克斯韦
estonia
陶工
制陶工人
##nn
##ave
##oni
认知的
认识的
1834
##²
螯
爪形夹具
nadu
roberto
化学工程学士
土木工程学士
公元前
摔跤选手
埃莉
##ations
无限
无穷的
墨水
墨汁
涂墨水于
签署
加墨水
##tia
推测上
有穷的
限定的
有限物
梯子
楼梯部分
108
noel
帕特丽夏
nacional
##cation
寒意
失意
使寒心
冷冻
变冷
永远的
不灭的
tu
prussia
化石
古物
化石的
陈腐的
守旧的
四肢
##logist
ernst
青蛙
佩雷斯
雷内
刘若英
##ace
比萨饼
prussian
##ios
##vy
分子
受控制的
统制的
调整的
舆论
swear
时间的长短
自身长度
想象上
看上去像
被认为是
按照推测
以上
祖宗
原种
drink
生产量
投资收益
hd
研究人员
谦逊的
羞怯的
端庄的
##var
盯着看
同等
自愿行动
自由调
本国
故国
##the
喝彩
##igan
静电
静电干扰
静态的
静电的
活瓣
阀
活门
装阀
用阀调节
卢森堡公国
卢森堡
女低音
男声最高音
女低音歌手
carroll
fe
受体
感觉器官
诺顿
诺顿公司
救护车
##tian
约翰斯顿
catholics
共同地
连带地
地质用远程斜向
指导者
良师益友
阿哈默德
注意到…
政务会
协商会议
市政服务机构
刻板地
拘泥地
恰恰
正是如此
不错
allison
塞满的
##10
合作的
合作社的
踝
梅塞德斯
梅赛德斯
用剑刺
电子放单
Telex
released
污染
指派作战
使承担义务
乘地铁
杰弗里
课业
雕刻术
雕塑术
供应者
供养人
伙食承办人
##fication
膜
羊皮纸
梯牧草
成直角的
国库的
供热
暖气设备
供暖系统
暖气装置
加热的
供暖的
队友
篮
篮子
装入篮
质点
极小量
姓氏不详的
无名的
无特色的
##ple
投射物
郡政府所在地
均衡
使成比例
使均衡
鞋
靴
外胎
给穿鞋
为马钉蹄铁
sec
##ller
诉苦
投诉
福布斯
黑人
使屈从
沉溺
无拘束
狂热
象素显示尺寸
压倒性的
无法抵抗的
自传
纳塔利
##awa
乡下地方
乡下居民
记录员
刻痕者
侵略
涌入
被附上的
继续进行
爱尔兰式曲棍球
猛投
凌乱
失调
##cu
引起反射的
沉思的
连续地
巡洋舰
巡航飞机
警察巡逻车
大学毕业生
研究生
量筒
矿石
理所当然的
该受的
未婚女子
爱马的人
豪尔赫
握手
鸽子
曼
曼恩法案
重载
装货于
使负担
随同的
附见的
队列
始终如一
连贯
暂定的
申诉
不停的
无穷尽的
无尽的
##rm
管子
管状虫
伦敦地铁
汁
体液
挤出汁来
加汁
georges
krishna
mick
使人激动的东西
使人毛骨悚然的东西
使人毛骨悚然的小说
##uch
光寻址电位传感器
SDH
上的链路接入规程
拱廊
拱形建筑物
有拱廊的街道
鼠尾草属植物
贤明的
蜗牛
行动迟缓的人
脑筋迟钝的人
蜗形凸轮
缓慢地打发
缓慢移动
##table
shannon
fi
闪烁景
seoul
雇请
受雇
churchill
使人惊奇
出人意外
惊人
令人惊讶
大草原
热带草原
技术上
学术上
专门地
##oli
170
##lessly
证言
快速
快门速度
感光度
急行
超速行驶
快速运送
金属链带
航海劳工局
美国职棒大联盟
开花的
饰以花
度量单位
天资高的
有才能的
字母K
K字形物
charleston
极度疲劳的
凯旋
欢欣
朴茨茅斯
车道
分道
命令的
遗失者
cologne
以…价格卖出
七十
七十个
康奈尔
职业生涯
韦勃
威布市
##ulating
americas
budapest
嫌疑
##ison
唷
康拉德
##hai
英国货币
标准纯银
英国货币的
标准纯银的
含标准成分的
杰西
教区长
##az
1831
使转换
使变形
有机化
给予生机
组织起来
借贷
克莉丝汀
火山的
火山岩
授权
正当理由
凭证
令状
授权给
使有正当理由
纤弱的
微薄的
summers
亚科
手舞足蹈
摇晃
动力学
rhine
heinrich
腹足纲软体动物
使容易
easter
ra
放置的
响应回应
开支
拿某人开涮
跟某人开玩笑
进口
25th
天鹅绒
天鹅绒的
飞机V字队形编队
早期艺术家
上古的
护民官
军团指挥官
公民权利保护者
讲坛
鲍尔温苹果
鲍尔温
邻接
附近一带
邻居关系
街坊
四邻
堂娜
裂痕
破绽
拉裂
浪子
巨浪
被拉开
劈
干草
制干草
供给干草
晒干草
pr
##uro
1814
娱乐体育节目电视网
欧洲儿科肾病学会
乐于接受
希望有
##aria
取得资格的人
限定语
闪耀光
刺眼
发眩光
瞪眼表示
苏格兰高地
时间选择
时间测定
调速
##cted
几何学
大声一点
令人兴奋的
刺激的
slovakia
##sion
##iz
##lot
草甸
##ques
拉斐尔
公吨
##lled
帐
装帘子于
惊避
胆怯的
畏缩的
迟疑的
惊退
乱投
乱掷
使复原
使和解
格林
可敬的
##pot
分遣
埋藏
谢尔曼
##eck
加筋的
奶瓶
一瓶
收缩了的
已定约的
契约的
公爵夫人
配备
得到装备
沃尔什
##sc
骄气
##ase
弓箭手
射箭运动员
道森
剔除
创作能力
虚构的故事
##enberg
##eth
准备击球姿势
站立的姿势
珊瑚
珊瑚色
枫
枫木
淡棕色
引退
退役
退去
退却
辞退
马球
水球
简化了的
##ht
1833
hide
瓦特
向后
朱尔斯
##oke
创世记
mt
帧
画面
框架
眼镜架
反弹球
回弹球
抢断篮板球
弹回
反弹
产生反作用
未能奏效
burma
林地
多雨的
感伤的
含泪的
santos
流干
逐渐流走
喝光
喝干
使耗尽
亚种
##aa
有带的宽大长外套
相符
通信
母亲的
母系的
母方的
杰勒德
贼赃
有偷窃行为的
##load
神魔
公爵领地
公国
直辖领地
##oria
为…举行就职典礼
为…举行仪式
为…举行落成
动量
西服
讼案
工作安排
编班
定位球
元首
独立国
具有主权的
至高无上的
国王的
子句
thames
##hara
组织联盟
保留品
保留地
素描
小品
描绘略图
画素描或速写
yankees
地方交易系统
腐烂的
风化的
魔力
使陶醉
行魔法
用符咒
有魅力
hal
诗节
极端主义者
过激论者
急进论者
商业上
通商上
圆点
小东西
作小点记号
加小点于
打上点
大会客室
客厅
交谊室
沙龙
美术展览馆
美容院
发廊
引用文
正式通过
温尼伯
迷蒙
朦胧不清
使蒙上雾
下雾
指派的
cairo
##boy
詹金斯
干涉
##wind
1820
皮包
公文包
部长职务
有价证券财产目录
艺术代表作选辑
分区
扇区数
##eh
主动性
主动的行动
##world
正直
廉正
练习题
演习
宽松长袍
礼服
穿长袍
轻打
水龙头
敲打出
装上嘴子
分接
向乞讨
轻叩
啪塔啪塔地走
自
##tones
心烦意乱的
支配者
111
赞许的
杰罗姆
二轮运货马车
驾运货马车
用车装载
车厂
##eri
外交官
有外交手腕的人
经估价的
受尊重的
砂砾
碎石
大慈大悲的
宽厚的
##try
卡尔文
加尔文
探索的
探测的
扫描
青稞酒
牧羊人
牧羊犬
牧羊
阶地
梯田
房屋之平顶
阳台
沿岸防地
露台
叠层式的
使成梯田
使成有平台屋顶
概率分部函数
##ural
反照
ups
##rch
搁板
##nberg
被牵引的
冠
饰毛
头盔的顶部
到达绝顶
加以顶饰
扭倒
##nian
##ats
##kai
克莱尔
迈克
ethiopia
长时间的
为时甚久的
检测到的
植入的
内含的
深入的
掌击
镇压
啪的一声放下
汤姆森
iso
莫顿
继承的
艾格尼丝
电影剧本作家
编剧家
变直
把…弄直
解决问题
挺直身子
philippe
剧作家
常出现鬼的
闹鬼的
虹膜
鸢尾属植物
虹
虹彩
萨顿
112
合乎逻辑的
符合一般性准则
符合行为准则
端正
##weight
名牌商标的
打有烙印的
吞卷
焊接在尖头上的
镶齿的
森林志
里基
讲述者
叙述者
所请求的事物
请求得到
索取
##ents
致意
对…作出反应
神奇的
母兽
##wald
雇主
gaelic
划线者
定期船
衬里
##piece
sabha
##mba
收获物
收获期
贝茨
不情愿地
勉强地
门槛
阈
代数学
爱尔兰共和军
个人退休帐户
无论哪里
联接的
耦合的
共轭的
240
自负
收获量
##air
设计器
空中入侵雷达探测系统

Airbor
出身高贵的人
有教养的人
有身分的人
男厕所
##ean
滚筒
滚轴
莱比锡城
锁定器
螺旋
螺杆
螺旋桨
吝啬鬼
扭紧
旋
勒索
调味品
穿衣
化妆
河岸
使落后
使陷于困境
弄断
##lings
疤痕
伤痕
结疤
使有伤痕
矮子
侏儒
变矮小
##nu
点头致意
##mine
不一致
鲍里斯
##eur
弹
空翻
用指轻弹
蹦跳
筋斗
##gie
暴民
大举包围
蜂拥进入
聚众生事
apply
##ture
呼喊
喊声
嚷
高喊
##sel
游戏情节设计
玩法
该受诅咒的
插画
烦的
感到讨厌的
虚弱
薄弱
弱点
##of
##zes
信封
封套
封袋
传闻
矿工
leicester
黑色的小乳牛
##ico
ferguson
##fu
总理职位
首相职权
首相职位
总理职权
原姓的
原名的
##cat
bengali
prof
出生、订婚、结婚和死亡栏
零料
零头布
美国德纳
##rily
喊话
baltic
舞曲
水手
海员
驾船人
雪莉
想象力
想象的
精美的
奇特的
高价的
特级的
多米尼克
##bie
madonna
##rick
树皮
吠声
叫骂
喊出
剥树皮
纽扣
健身房
体育馆
骨灰
肝脏
生活者
toby
誓约
深谋远虑
天命
柯南道尔
道尔
福音派教会的
福音派信徒
尼克松
水泥
胶结剂
胶合
用水泥涂
黏牢
卡内基
孵化
舱口
孵
孵出
周围的事物
保证书
盗印者
侵犯专利权者
盗印
翻印
做海盗
从事劫掠
香精
##bee
滤波器
过滤器
滤光器
过滤嘴
去尘器
过滤
走漏
滤过
渗入
鹤
起重机
伸颈
起重机起吊
伸颈看
迟疑
哈蒙德
投影的
免疫的
免除的
不受影响的
免疫者
珀西
第十二
十二分之一
##ult
摄政者
摄政王
摄政的
博士的
达蒙
戴蒙
mikhail
##ichi
lu
批评性地
审慎地
精密地
当选人
被选的人
被选的
选出的
作选择
流产
堕胎
夭折
急性的
稳定地
无变化地
##fc
皱眉头
皱眉表示
nottingham
苏格兰教会
华盛顿州
担保单独海损
minneapolis
##rra
模数
algeria
mc
航海的
船员的
遭遇战
令人惊讶的
塑像
有效性
可利用性
可利用的人
馅饼
贪污受贿
喜鹊
阿尔玛
舞女
歌女
munster
汤
马力
增加马力
火山口
环行山
弹坑
旋风
龙卷风
大雷雨
sanskrit
雪松
香椿
爆破音
易爆发的
爆炸的
有边的
狄克逊
邮票
打印器
戳子
图章
印花税票
跺脚
盖章于
顿足
贴上邮票
铭刻
捣碎
扑灭
幸福地
快乐地
幸好
##bble
运输公司
搬运人
军输车
##vis
膳宿
预订铺位
适应性调节
移居国外
##met
击倒对方
被击倒
令人倾慕的人/物
轰动的事物
击倒的
引人注目的
轰动的
使昏迷的
通讯记者
通信者
盈利
峰巅
标本
试料
议程
日常工作事项
世系
名门出身
陶器
陶器厂
拼
拼法
方程式
均等
均势
ki
1825
残骸
收容所
##20
buddhism
连衫衬裤
泰迪玩具熊
##ants
报
公报
在公报上宣布
刊载于公报
##nger
##sse
牙齿的
适任
合格
美国联合技术公司
世界时间代码
世界调整时间
城市交通管制
天父
zimbabwe
francesco
有色的
经过渲染的
有色彩的
伪装的
有色人种的
混血种的
有色人种的人
混血人
发嘶嘶声
发嘘声表示反对
翻译者
私刑
私罚
处以私刑处死
加私刑
委任统治
人文学科
麦肯齐河
麦肯齐区
麦肯齐氏
##iana
##gio
mhz
试穿
试衣
samantha
属
魏
渭河
轮缘
为装边
形成边缘
心爱的
心爱的人
鲨鱼
诈骗
纵情
放荡
实体对像
独立存在体
实际存在物
表情
表达式
表示式
indo
卡门
未付的
亏欠的
受惠的
归因于的
男修道院院长
大寺院男住持
毗邻而居
友好
西德尼
茜德尼
##av
正式建议
鼓励的
促进的
中队
期望的
海军中校
攻克
破除
##oto
捐款
##mond
##iva
猜
你猜
猜对
猜中
装饰品
弗农
听众席
礼堂
默示
谈话技巧
##kers
##power
herzegovina
短跑
使猛撞
搀和
使破灭
使沮丧
一样
以同样的方式
抗拒
侧部
支线
边音
侧面的
旁边的
赫尔曼
mg
##gent
自由民
正会员
fiji
啼叫
乌鸦
鸡鸣
撬棍
报晓
变为深红色
脸红
##rine
##pped
人道主义者
博爱者
基督凡人论者
人道主义的
博爱的
凡人论的
烦人的
盎司
车夫
搅拌器
鞭打
仓促制成
急走
##lene
##ali
婚生的
认为正当
立为嫡嗣
使合法
笑嘻嘻
spell
忧虑的
发愁的
亚洲人
东方诸国的
亚洲的
韦斯利
##nin
##hole
嘉年华会
狂欢节
饮宴狂欢
##ssa
弯如弓的
低垂的
教育家
kosovo
macedonia
##sin
住进
使全神贯注
母带后期处理
斯蒂芬妮
janeiro
未认识到的
褓姆
正午
中午
135
凸轮
计算机辅助制造
中央地址存储器
有希望地
如果希望能实现的话
王室守林人
骑警
漫游者
联合收割机
社会学
两极的
极地的
正好相反的
极性的
极线
极面
黎加
##eer
neill
##sman
大火灾
大规模烧杀
##ip
加倍努力
贪欲
色欲
贪求
动淫念
1828
109
有分寸的
得体的
冷却的
裸露的
公布于众的
##card
1829
新南威尔士
本垒打
传信鸽
流动商贩
小贩
叫卖小贩
迈耶
##gin
俯冲
把突然伸入
里根
专家意见
专门技术
##gled
darwin
布鲁克
有面的
体裁
不情愿的
各别
各种
三部剧
三部曲
约翰斯
菜类
闲逛
休闲室
闲混
躺
养老金
退休金
津贴
年金
抚恤金
膳宿学校
膳宿费
发给退休金
用津贴拉拢
无用
失败地
优雅的
高雅的
半自动的
象牙
乳白色
象牙制的
乳白色的
披头士合唱
凶手
杀兄弟者
该隐
迪拜
迪拜港
阳光充足的
乐观的
像太阳的
移入的
移民的
天真幼稚的人
咔哒声
啪嗒声
作咔哒声
使发咔哒声
##nder
在水中的
在水下
胡椒粉
胡椒
辣椒
结合性的
含糊的说话
地图集
图表集
号
角制品
警报器
歌谣
内科医生
无家的
无养主的
做手势
rpm
畸形人
畸形物
不正常的事物
反复无常
奇异的
反常的
路易斯维尔
爱国者
爱国主义者
值得竞争的东西
难能可贵的事物
难以争取的重要事物
珍惜
理性的
有理数
发出警告
分辨率
装饰性的
前一天晚上
一夜的逗留
通宵的
晚上的
前夜的
在前一夜
整夜
昨晚一晚上
喧嚣
絮絮不休地说
烦恼的
虚位
令人恐惧的事物
骇人的想法
幻觉的
幻影的
幽灵的
虚无飘渺的
捉摸不定的
有名无实的
##ort
帝王
峻峭的
偏转
偏航
使急转向
使偏航
峻峭
##dorf
上将
指导方针
姓名和地址
##zon
冰上溜石游戏
头发的拳曲
蜷缩
郡以下的地方行政区
知识领域
职权范围
绳索
##kie
一个个人电脑上免费
caesar
德意志联邦共和国马克
bavaria
##bia
科尔曼
##eria
熏猪肉
小规模的
委琐的
##yama
##old
汉普顿
1824
曲拐
复杂
复杂性
复杂的事物
丽塔
有争议的
##₃
pablo
##sch
市场推广
非法交易
##ulus
瘟疫
天罚
使得灾祸
幅度
##oh
拱顶
窖
撑竿跳
穹窿
做成圆拱形
撑竿跳过
成穹状弯曲
详确的
##bourne
webster
##ox
拔萃
集锦
挑染
##ient
##ann
听筒
真空
真空吸尘器
真空的
产生真空的
利用真空的
用吸尘器打扫
三明治
夹心面包
夹层板
夹入
把制成三明治
模特儿职业
立体感
##gated
bolivia
神职人员
质
伊莎贝尔
##nas
##ars
使再结合
恼怒的
烦闷的
奶罩
##ancy
##rate
差别的
特异的
微分的
两路线运费差额
工资差额
传送者
传达人
传播者
归营号
连续有节奏的敲击
文身
矮种马
连续有节奏地敲
刺花纹于
作连续有节奏的敲击
集装箱
戳的人
拨火棍
纸牌戏
烙制
##och
过多的
牛仔
##tum
奥古斯都
提供者
维持家庭生计者
成文法律
规避
戏院楼厅
空虚
空虚感
无效的
无人的
楼
层楼
在…之前发生
先于
走在…前面
劳动阶层
剧增
急变
被越过之物
突然经过
使跃过
笑态
笑料
某地区的人
与某处邻近的地区
临近街坊
受监护的未成年人
制定计划
隼
猎鹰
圣者像
圣者
沙场
填补
衬垫
印色盒
夸大
罗尼
罗妮
纤维
穿线于
用线穿成
女同性恋的
女同性恋者
venus
##dian
乞求
乞讨
沙岩
白昼
使沐浴于日光
享有日光
穿孔
无孔的
格温
美国职业摔角
可接受的
合意的
可忍受的
测量值
dec
有毒的
中毒的
##kel
外科的
外科医生的
手术上的
外科病例
外科病房
外科手术
经济学者
经济家
参量
大学运动代表队
##sberg
艾拉
##chy
##rton
伯爵夫人
女伯爵
精密
精度
ga
##ı
1821
uruguay
美术馆
图表种类
已扫描的
同僚
出路
排水口
销售点
批发商点
ryder
lucien
##ila
最高当局
至上的
##bon
锡拉库扎
使暗淡
长而尖的牙
毒牙
罐座
睡衣
法衣
大学全体师生
使穿睡衣
全胜
掸去
扫荡
冲走
刮起
环视
扫射
扫
席卷
##sie
日本丰田汽车
##nsis
val
##plane
耐性
忍耐
开端者
在起跑线上的人
参加赛跑的人
调度员
起动机
酵母
稀少的
变苗条
使苗条
##borg
足趾
趾部
以趾踏触
用脚尖走
动脚尖
不能相信地
嫩枝
elliot
高尚
贵族阶级
##wyn
牛郎
牧童
在背面签字
在背面写评论
在广告上说本人使用并赞同某产品
加德纳
使信服
有机物
有机体系
排放物
散发物
kazakhstan
被逗乐的
炸土豆条
小木片
圆形筹码
有特定主题的
##hand
llc
constantinople
有系统的
分类上的
体系的
guatemala
借来的
伪造的
erin
凯里
##hard
高原地区
打斗
1810
##ifying
##ced
黄
汪
免责条款
放大
幼稚园
castro
##ern
##rina
利
蛇神
起死回生的魔力
僵尸
回魂尸
鸡尾酒
木鸡
讨厌的家伙
少年
少年读物
少年的
适于少年的
##most
领事
执政官
##nar
船员
海德
克拉伦斯马车
内涵的
加强器
用针别住
用针别住的
被压制的
污秽的
无益的
荣格
克莱顿
已经喂饱了的
例外的
离子交换
使徒的
230
会报
##dge
免税者
被免除义务者
使免除
大幅度的
大力的
极有力的
极大地
山凹
内凹
成拱形
宗教信仰
##ash
牛奶公司
乳品店
乳牛场
旁路
省略
190
虫
病菌
窃听器
癖好
防盗报警器
双座小汽车
要人
装防盗报警器
装窃听器
捉虫
暴突
乔伊斯
bombay
底盘
南安普敦
聊天
幕间剧
幕间休息
再次指派
重新指定
##pen
全国运动汽车竞赛协会
鲑鱼
大麻哈鱼
刚性的
复得
赢回
重回
复至某地
malaysian
残忍的
公开场合
梳妆
上厕所
给梳妆打扮
委派为代表
纯粹地
清白地
贞洁地
托盘
公文盘
满盘
发射箱
漂流物
漂流
动向
松弛地
宽松地
不紧
打击者
罢工者
特立尼达拉岛
itv
表明特征
明朝
猩红色
绯红色
红衣
绯红色的
鲜红色的
点头的
昏昏欲睡的
菲茨杰拉德
fu
狭窄地
严密地
仔细地
sp
齿状物
装以齿
将切成齿状
美德
##₁
##wara
##cting
手套
眼睑
给盖盖子
##nel
弄痛
使伤心
使受皮肉之苦
保存性的
有保存力的
温室
音乐学校
##pel
sinclair
再开
揭旧疮疤
重提伤心事
慰问
吊唁
nigerian
stride
可选择的
慢性的
习惯性的
慢性病患者
卸下
拔染
放电
卸货
##rc
吸入
吮吸
吸奶
能共处的
可并立的
月桂树
使戴桂冠
三星重工
日本芝蒲电气公司
在…中失败
衰弱
128
非正式的
不拘礼的
利瓦伊
buddha
村民
乡下人
##aka
历代记
传唤
召唤
传讯
3000
第十一
十一分之一
珠宝
珠宝类
于是
##ency
纤维制品
角锥
金字塔
成金字塔状
立方体的
##ista
表示或感到关怀或关心的
##ops
机器人
与接触
与…联系
阴历的
月的
微亮的
##dt
卡伊
lisbon
拍成
拍至
1826
萨克拉门托
盗窃
失窃
盗窃罪
赃物
madagascar
亚热带的
就…进行辩论
在假日
每逢假日
吹笛者
风笛手
管乐器吹奏者
管道安装工
幼鸽
柳树
柳木制品
柳树的
柳木制的
母马
月球表面阴暗部
手杖
细长的茎
藤条
以杖击
以藤编制
苹果公司最热门音乐软件
newfoundland
安非他明
主权
觉察到
注意到
吼
咆哮
轰鸣
大声说出
使轰鸣
匾
饰板
名牌
胸襟饰物
血小板
tibetan
老顽固
食古不化的人
老古董
人员配备
泡沫
冒泡
沸腾
使冒泡
滔滔不绝地说
蒂娜
tanzania
##eda
##hir
怯懦
畏缩
使闻到臭味
发出臭味
进退两难的困境
击溃
使陷于沼泽
陷于沼泽
议员
大氅
遮掩
使披斗蓬
ufc
剧本提纲
票面价值
平均数量
同等水平
票面的
平价的
搔
刮擦声
乱写
零分
挖出
刮
乱涂
勾抹掉
发刮擦声
勉强糊口
碰巧的
凑合的
打草稿用的
五金
圣歌
赞美诗
古鲁
##boat
土语
十九
十九个
塞西尔
二重奏
无力
无能
残疾
报信者
非官方的
##lies
不能使用的
英语方言学会
电子数据转换
环境资料局
有月光的
月夜的
排水
姓
别号
呼以姓氏
起绰号
使为难
苦思
本田汽车公司
conservatives
哺乳类
哺乳纲
哺乳类动物
诺克斯
播送者
广播装置
播种机
人行道
长袍
##ried
班森
peterson
##sal
贝德福德
坑蒙拐骗的人
诈骗者
伊莱
失事
使失事
营救失事船只
阿尔贝托
气喘吁吁地说
考古学
lgbt
有价证券
疯狂
愚蠢的行为
折中
折中方案
妥协处理
波浪状的
戴维森
愿景
幻觉
可选择的方法
可以利用和改善的余地
八十
八十个
jun
fernandez
巨大的热情
热心
暗杀者
刺客
主办
保证人的地位
教父的地位
教母的地位
评论者
书评作者
剧评家
报刊评论家
estonian
##fy
##nal
动词
庆祝会
##zzo
不到平均重量的人/物
轻量级
无足轻重的人
性格不够强的人
平均重量以下的
重量轻的
悲伤
使服从
服从
最优秀选手
花花公子
打扮得讲究或花哨
##vas
明白地
公尺的
公制的
计量的
土墩
筑堤
用土堆防卫
积成堆
布雷特
mohammad
认不出
看错
不规则物
不合规格之物
不规则的
不整齐的
不合法的
##hing
##ass
对…不忠
发货
巨涌
汹涌
澎湃
突然放松
使汹涌奔腾
急放
##enburg
把…叫做
丁
格奥尔格
憾事
可惜
觉得可怜
有同情心
用言辞的
言语的
逐字的
动词的
公牛队
布尔斯
有可能
或有条件完成的
提供做…的权利
求助
##are
##atic
西西里岛
叮
脚后跟
踵
倾侧
装以鞋跟
紧随
用脚后跟传球
心上人
向求爱
从男爵
航天飞船
不讲理的
君主政体
君主国
君主政治
##tter
亚伯丁
苏格兰粗毛猎狐狗
刻有浮雕的宝石或贝壳
黛安
##ub
克莱德
##aries
##makers
竖笛
单簧管
黑管
chilean
karnataka
坐标
相配之衣物
1818
女式短裤
##rst
ar
戏剧地
引人注目地
基辅
贝拉
远处
相距
疏远
113
大学概况手册
编目录
船下水
下水典礼
电信学
可携带的
可搬运的
可移动的
琳赛
vatican
##eim
局外人
外星人
作记号的人
记分员
书签
里程碑
标识物
吝惜
限额
卡位
屏幕
可用螺栓固定的
##rne
judy
羊毛
毛织物
毛线
绒线
新婚男人
血浆
淋巴液
原生质
等离子体
europa
火星
无线电报务员
瞬间放电
朝气
情郎
发火花
使有朝气
电影制作人
##een
贡献者
捐助者
赠送者
投稿者
##nor
道歉
融资
筹集的资金
黄油
涂黄油于
gideon
久经世故的
校正
艾弗里
化学品
化学制品
化工产品
一年一度的
投机
突起
突出
显著
突出物
专业地
内行地
##ils
不朽人物
神仙
不死的
制度的
公共机构的
学会的
起初
获得学位
腕
标识
标识关系
法官席
得到获得
提取
腰槽
榫眼
##wo
罗马教皇的
教皇制度的
喜爱物
语言的
语言学的
文斯
动作的
关键的
手术的
技工
啤酒厂
酿酒厂
##ont
失业
失业人数
博伊德
##ured
##outs
预言者
先知
1813
bi
##rr
##face
##rad
季度的
按季度的
每季的
按季
每三个月
每季一次
季刊
小行星
海盘车
星状的
变干净
除去…的灰尘
使…干净
半径
辐射光线
硬度
脾气
中和剂
回火
使回火
##llen
泰卢固语
泰卢固人
性情古怪的人
急拉
肌肉抽搐
牛肉干
急推
子爵
菜单
选择单
##ote
一闪
投以一瞥
闪烁不定
瞥见
##aya
快艇
游艇
驾游艇
乘游艇
hawaiian
巴登
巴登亚麻平布
##rl
乐意地
##gu
货币的
金钱的
海面的
吹向海面的
近海的
向海面
scots
##yang
##arian
上坡
往上
使升级
改良品种
尖
用针缝
缝纫
微软游戏机
百科全书
侧腹
腰窝肉
攻击侧面
守侧面
侧面与相接
指尖
手头有某物随时可供应用
##pus
乐于
感到高兴
教义
使巩固
罗斯
中途
娱乐场
winters
##iah
日间
贝弗莉
##backs
管制
hermann
骗局
纠缠
##shing
##uring
##vre
超然的
生态学的
主张生态保护的
感恩
亏欠
负债]
专业
专长
特产
特制品
拜伦
发明家
疯疯癫癫的
妇女胸衣
筛过的
屏蔽的
unesco
中部地方
使整齐
见风使舵
##ander
##rry
鹰的脚带
系以脚带
透彻地
详尽地
周到地
完善地
全面地
反馈
##uma
金奈
滤过的
矫饰的
用于包裹的材料
超时
加班
延长时间
超时的
加班的
加班地
使超过时间
为辩护
以作为答辩
以为借口
以为理由
申明
抗辩
##sworth
发动机辛烷值
星期一
空闲
闲暇
有闲的
oclc
##tate
##ele
羽状裂缝
羽毛
安吉洛
疯的
呸
胡说
鳃
菌褶
沟壑
用刺网捕
去除内脏
被刺网捕住
评论员
实况广播员
注释者
时事评论员
##dos
darren
座骑
gibraltar
##nc
##mu
献身
献辞
胫骨
攀
鞍
马鞍
车座
鞍状物
装以马鞍
跨上马鞍
埃尔维斯
难以完成的
有高
感激
机能
起酌
侄女
甥女
鼓吹
辩护术
罗比
萨福克
萨克福马
萨福克羊
南斯拉夫的
南斯拉夫人的
治安官
总管
国会议员
众议院议员
黑斯廷斯
通用实验性反应堆装置
##rov
被视为神圣的
把…奉为神圣
给…祝圣
无线电通信师
教会的
神职的
牧师的
被限制的
在分娩中的
坐月子的
##ovich
磨杵
粉碎机
研磨机
floyd
诺拉
1822
铺
为…铺平道路
1827
坎伯兰郡
ned
英雄传奇
螺旋形之物
螺线
螺旋形的
盘旋的
螺旋形下降
螺旋形上升
螺旋形行进
使螺旋形行进
##flow
对…作评价
彝人
彝语
协作的
柔弱的
##ib
玉
翡翠
老马
玉制的
疲倦
进口货
含的意思
##nse
##hot
香槟酒
香槟酒色
固定住的
作为固定用的
helsinki
##gos
卡曾斯
痛
哀怜
露西娅
gandhi
谦恭
呈递
教区牧师
教堂主持
持矛者
用矛刺
父系的
光泽
发光
发亮
塔斯马尼亚岛
紧身的
季节的
依照季节的
周期性的
##gus
地球上的人
地球的
陆生的
陆地的
人间的
马修斯
##oka
打油诗文
诙谐的模仿诗文
拙劣的模仿
拙劣模仿
作模仿诗文
爱好音乐的
交响乐团的
爱乐团体的
音乐爱好者
音乐协会
交响乐团
##onic
1816
初到者
编码的
财团
有保证的
有人担保的
切换键
使焦急
监督者
视导员
使了解
提供资料
一片的比较级
察看
洞察力
见识
戏剧界
甲胄
名誉退休的
退休后保留头衔的
使闪亮
组成公司
使具体化
##50
##ein
墙手球
墙手球运动
易曲的
柔顺的
能变形的
可通融的
##nta
实质上
大体上
有雅量的
小偷
贼
##own
carr
失去
1793
写散文
散文的
加州大学洛杉矶分校
一种男式室内便鞋
属类的
金属的
含金属的
产生金属的
领悟
实得
马可福音
专员
政府部门的长官
zach
违约
不履行责任
默认值
疏怠职责
拖欠
默认
##ther
漫长的
树管
阻挡物
矿泉
温泉浴场
矿泉治疗地
使合作
旁观者
流氓
小淘气
足球点球
特里萨
1801
sen
##tric
##wich
##vey
小溪谷
聋的
彼得斯
不包括在内
不肯定的
没有自信的
##vable
patterson
爬行
缓慢行进
巴结
##zio
受到鞭打的
latvia
ecole
管线
maharashtra
可比较的
比得上的
va
纺织品
纺织业
织的
纺织的
盛会
虚饰
露天表演
##gel
由两部分组成的
二进位的
二元的
安托万
偏移
低价股票
补充物
增刊
补遗
补编
补角
增补
##wen
工程量
设于
乌尔都语
亲人
高音调
高音调的
114
##mc
容易受惊的
胆小的
提心吊胆的
andreas
##ava
课堂
美学的
审美的
有美感的
在报刊)发表
辅助线
参考线
幼童军
葡萄牙18
19世纪的金币
布赖恩特
感人的
##itt
排水沟
引起敬畏的
隔绝
隔离
实行者
告发者
公诉人
有野心的
抱负不凡的
雄心勃勃的
迷恋者
被俘的
被迷住的
丘陵地
丘陵草原
大气的
lorenzo
侧廊
牛肉
养
宰
淤塞的
妨害
污蔑
犯规
淤塞
腐烂
缠结
违反规则地
不正当地
##onia
山羊产羔
合成的
混合成的
菊科的
合成物
复合材料
菊科
错觉
土著
出生于某国的人
本地的动物
##ffer
emi
rockets
河边
河畔
战时
缆绳
adolf
melt
##ail
不确定
不可靠
不确定的事物
模拟
假冒物
霍克斯
亚特兰大老鹰队
推移
间隔时间
水沫
浪花
水花
喷雾
喷雾器
小树枝
喷
溅开
裂口
突破
攻破
跳出水面
不快乐的
不适当的
regina
俄国人
俄罗斯人
俄语
##urg
##tation
电车轨道
煤车
纬纱
纬丝
用煤车运载
乘电车
1806
##quin
老化
变陈
##12
1823
garion
租用的
mister
迪亚兹
使终结
到达终点站
夹子
回形针
剪下来的东西
夹牢
剪报
1817
靠
视而定
焦急地
神经质地
提心吊胆地
夜总会
迪斯科
的士高
负债
应给予
欠钱
防御者
七日服丧期
声名狼藉的
众人皆知的
有光泽的
发光的
磨光的
worcester
##gation
##yr
被拖动的
蔓延的
拖尾的
岛民
belarus
局限性
漂洗工
套柄铁锤
俯视
不予理会
被利用的
1819
合成物质
克莱因
##nate
悲叹
发出萧萧声
实录
追思录
回忆录
小羊
羔羊
产羊羔
在工作的
开业的
##erly
细胞的
箭头
异国的
外来人
外来物
舶来品
##graphy
魔女
117
绘制…的图
雷伊
临时军营
住在茅舍
等级制度
僧侣统治
等级体系
细分
江河湖泊的
淡水的
朱塞佩
出声地
reyes
qatar
马蒂
向旁边
向侧面地
向侧面的
绝对
性别地
两性之间地
jude
祝福
祷告者
恳求者
麦卡锡
垒球运动
垒球
damien
##gging
##metric
喷发
突然发生
出疹
黎巴嫩的
尝到
浅尝
一起工作
结成一队
办理
学报
和解协议
有标签的
示踪的
maori
公园道路
驾车专用道路
外伤
外祖母
老奶奶
malay
121
传下的
2020
嗡嗡声
流言
发出嗡嗡声
使嗡嗡叫
救世
详细目录
存货清单
列入详细目录
清点存货
象征的
符号的
##making
antarctica
mps
##gas
##bro
mohammed
myanmar
小林
林丘
潜艇
基本音色
##lman
抽屉
小柜
上锁人
创办人
元老
教长
教皇
bangkok
爱默生
附注
食肉动物
奴役他人者
同族
有亲属关系的
性质类似的
同类的
afghan
坦白
招供
诺威奇
租费
租金收入
租赁的
收取租金的
有利
##zel
美国无线电公司
##hold
弄短
aidan
##matic
自治
自治权
遵从
顺从
屈从
##quet
达德利
atp
##osis
1803
箴言
座右铭
警句
摘要的
简略的
公开展示的
奇观
惊人之举
展览物
克里斯蒂娜
大主教之管区
遮雨板
防水板
无罪
天真无邪
再作
再制
重作
改作
重制物
##dell
灵魂的
精神的
巫师
灵物
心灵现象
礁
缩帆
缩
惊吓
使恐慌
受惊
rs
麻骨
meg
格斯
倾斜错觉
##ude
为伴奏
伴唱
卑尔根市
tomas
##iko
厄运
命中注定
薪金
工钱
年产额
猜足球赛胜负的赌博
##nch
##bes
胸脯
学者派头的
学者风度的
好学的
艾莉森
描画轮廓
描述要点
布列塔尼
威利斯
现实主义的
实在论的
##cut
##boro
##stan
尖头
屈体
流浪者
狗鱼
用矛刺杀
谨慎办事
采用屈体姿势
野餐
愉快的经历
去野餐
图标
像标
阴谋的
诡诈的
计谋
以大众欣赏为目的谱写的乐曲
洗涤物
滑雪运动
滑雪术
赤褐色
赤褐色的
主管们
高管们
执行管理者
执行主管
##hat
后勤学
后勤
循环动作
元音的
可应用的
巴雷特
惊叫
eurovision
来世
不朽
ramon
##umi
##lls
更改
扫荡的
嫌恶
令人厌恶
使作呕
##uck
启发之物
aviv
确保
担保获得
粗鲁无礼的
粗陋的
大略的
崎岖不平的
狂暴的
灰尘多的
含糊的
粉末状的
音波的
音速的
多诺万
近郊
市郊
cu
##band
##gun
##lines
酸类
有酸味的东西
军官学校学生
配对的
##40
速写
##sive
婚姻状况
##⁺
可折叠的
平辈
slovak
暗指
必然包含
羡慕
钦佩
受人钦佩的
感到羡慕的
##beck
1880s
利奥波德
本能
直觉
充满着的
梅根
贺拉斯
##ination
背的
背部的
背侧的
作料
进化论的
进化的
发展的
##its
并病
并发症
神性
致死因子
所征的人数
课税
被遗弃的
父死后出生
遗腹
著作者死后出版
身后
死后
望远镜
叠缩
嵌进
使叠缩
加冕礼
有动机的
目的明确的
湍流
luc
轻挥
按开关
向…笑了一下
火山
制革工人
硝皮匠
六便士
称…的重量
重达
有…重
##nica
frankie
有天才的
孙女
外孙女
线圈
蜿蜒的
卷绕的
##rna
constantine
gomez
##front
乡村风景画
鲁道夫
人类学
板岩
页岩
提名名单
人选
石板
石板色的
狼人
豺狼般的人
##lio
天文学
大约在
口红
胭脂
擦口红
有梦想的
麻布袋
洗劫
把装入袋
跪下
溺死
浸透
浸泡
压过
内奥米
有生殖力的
多产的
有履带的
冰冻的
冷冻用的
药草
香草
##dium
极大的痛苦
兰德尔
温迪
定金
堆积物
高光
绝技
笔致
使有脉络
像脉络般分布于
旋转物
推车人
车轮制造人
辕马
精明的政客
##bbled
##bor
击出的
拍
维持防护
头饰
疲劳
厌倦
详细说明书
奈杰尔
##grave
嬉戏作乐的
czechoslovakia
桑德拉
ng
罗马
罗马帝国
##sts
村长
有威信的丈夫
winchester
##yle
复辟
尖刻的对答
抱怨的原因
烹调风格
烹调法
中殿
中央广场
轮毂
##iv
ko
挽回
弥补
检索
找回猎物
救险球
蕃茄
招徕顾客的人
剥树皮者
擦亮的
精良的
irene
灯笼
提灯
航标灯
装上提灯
人身攻击
行乞
大片土地
小册子
1809
175
##gic
奥马哈市
美国奥马哈族印第安人
奥马哈
手足情谊
兄弟关系
##rley
haiti
##ots
埃克塞特
##ete
##zia
斯蒂尔
哑的
不说话的
无声音的
皮尔森
210
眺望
elisabeth
##ef
德国兵
##rf
额外补贴
小部分
破片
平静地
冷静地
##birds
插入的
嵌入的
著生的
附着的
不寻常地
异乎寻常地
##ield
使面对
使对质
亏本出售的
猛撞的
brent
土耳其人
突厥人
使顺从
##olo
cambodia
加布
酱油
调味汁
酱
使增加趣味
##kal
伊夫林
116
未毁的
采石场
方形石
猎物
被追求物
努力挖掘
费力地找
青少年
卢娜
##lers
##ister
从属关系
钻子
粗斜纹布
##ashi
豹
黑豹
美洲豹
风景好的
舞台的
布景的
风光影片
风景照片
libya
安尼塔
变坚固
变强
股票上涨
题词
献词
碑文
证劵持有人的登记
##cated
饰带
花边
结带子
饰以花边
系带子
朱迪思
暴乱
极度丰富
非常有趣的人
闹事
##uted
薄荷
造币厂
巨额
##eta
准备工作
配制剂
配音
轻点
授予称号
一下击鼓声
挑战者
##vich
模拟的
虚伪地
cf
位移的
无家可归的
被取代的
小门
腰门
售票窗
呼吸的空气
施密特
分析者
精神分析学家
##lum
加亮区
精彩场面
加亮
使显著
以强光照射
斧
斧头
josef
纽瓦克市
像…
效仿
50th
##pal
心情愉快的
菊花
演哑剧
别说话
##ante
海军准将
船队队长
未完成的
不完善的
加温
暖热
享有所有权的
名誉上的
只有称号的人
伦理的
民族特有的
118
庆贺
第十八
十八分之一
首席行政官
仅限货机
计算机辅助订货
利马
奖章获得者
奖章设计者
奖章制作者
勋章制作者
奖章搜集者
勋章搜集者
可动性
流动性
机动性
分割公债
本息拆离
简易机场
奸险的人
卑劣的人
蛇形浮动汇率制
##city
缩图
小画像
纤小的
萨格勒布
庄园内的农场
农家庭院
漏出
声音由…发出
伞
雨伞
保护伞
伞的
包罗万象的
用伞遮掩
自动化的
机械化的
有异
持异议
变凉
冷静
乔治城
dresden
被揍得昏厥的
未达到目的就完蛋的
褪色
使褪色
淡入
淡出
平淡的
怀亚特
rna
雅各布斯
卡尔顿
铅版
立体照片
立体感觉的
吹捧
宣扬
马德拉斯薄棉布
挨次轮换
执政期
围垦
##hia
马刺
刺激物
用马刺策前进
用马刺驱马
ip
malayalam
退求
osaka
受压迫
呻吟地说
溢出的
换码
剂量
服用量
给药
医治
服药
##aj
花蕾
使发芽
共产主义的支持者
共产党党员
辩护律师
有某种或几种刃的
##cent
相似
项链
油炸的
montenegro
saxony
鹅
雌鹅
鹅肉
弯把熨斗
突然加大油门
使生色
喝倒彩
斯图加特
掌管者
馆长
大学学监
新兵
新会员
充实
征募新兵
得到补充
食品杂货店
食品杂货业
赞成的
交感神经
容易感受的人
##tting
##fort
127
莲
莲花
荷花
荷
伦道夫
##rand
随后的
以后的
jupiter
1798
macedonian
##heads
徒步旅行
1808
fischer
##itive
结节
瘤
##pies
俯伏的
面向下的
有倾向的
单数
papua
倾向于的
想要的
趋向于的
具有吸引力的事物
有吸引力的特征
意大利
奶奶
外婆
收集并贮藏
杰克逊维尔
清脆的
铝
##hausen
有序化
##foot
开票人
交易员
贸易商
犹太人集会
犹太教会堂
##play
##kawa
抵抗者
反抗者
抵抗的
漫游的
徘徊的
流浪的
流浪
离题
胡言乱语
易碎的
脆的
fiona
var
赤裸裸描写性行为的
湿透的
五十周年纪念/庆祝
二十五周年纪念/庆祝
欢乐的佳节
欢庆日
果断的
阐述
博览会
布商
绸缎商人
呢绒布商
海报
招贴
valencia
矍铄的
健壮的
kuwait
1811
##ises
##wr
##eed
希腊语的第三个字母
122
##uer
氨基的
吉尔
##ury
托雷斯
##sp
产生器
发电机
民俗学
民间风俗
##keeper
canberra
狩猎者
外国语
梁
波束
发出光与热
面露喜色
笑容满面
眉开眼笑
发射电波
放出束状的光
对质
##lling
##gram
二月
对齐的
均衡的
林学
森林地
传递途径
雅克斯
贾克斯
##tos
棺材
灵柩
把装进棺材
##cott
斯大林
1805
有心的
具有意志的
##nam
情景喜剧
暮光
曙光
朦胧状态
微明的
veronica
增加固定资产
附加物
被动的
顺从的
无源的
紧张的状态
紧张气氛
稻草
麦管
吸管
一文不值的东西
草帽
稻草的
稻草色的
无价值的
123
频数分析
次数分配表
1804
流亡者
##iate
克里斯蒂
挪威首都奥斯陆的旧称
clary
creep
丢掉
销毁
##rich
##zong
信息处理机
加工者
处理者
crescent
##rol
德国宝马汽车公司
加强语气
使突出
鲸
捕鲸
使惨败
猛揍
纳粹
纳粹党人
极光
奥罗拉
##eng
保人
资助者
托莱多
思想体系
意识形态
观念学
空论
阶梯教室
tessa
cerambycidae
海龟
圆锥体
球果
使成锥形
猜疑
不信任
怀疑…有罪
喀拉海
生锈的
腐蚀的
顽固的
greeks
mozart
墨镜
阴魂咒法术
制造幽影
处于准备击发状态的
竖起的
参加的
##tro
唾液
唾吐
小雨
炙叉
一铲的深度
吐出
降小雨
用炙叉穿过
吐唾沫
吐痰
唾弃
飘霏霏细雨
僵硬
楞住
使冻住
使呆住
必然
##cos
尼耳森
政务会委员
地方议员
贷与
出借
不平常地
奥马尔
佃农
粗俗的人
植物学的
植物性药材
daniels
队形
1794
先驱者
##sus
轮椅
客气的
1807
##uta
气球
使成气球状
膨胀如气球
##zz
野营
详述的
直言的
临时地
随便地
同队队员
nm
hassan
卡丽
判断正确的
使满意
使确信
令人满意
替人赎罪
瓦内萨
刀子
选择的
选择性的
美国有线电视新闻网络
垂
流畅
##lice
日食
月食
引起日食
引起月食
使黯然失色
感到有压力的
伊莱扎
数学家
耕耘的
栽植的
##roy
browns
##ania
sheridan
##rius
矿物质
矿产
矿产品
##cial
下游地
下游的
撞击声
使发出撞击声
克
绿豆
鹰嘴豆
冒…的危险
拿…冒险
用…进行投机
巴哈
西摩
archie
midlands
伊迪丝
过活
flynn
瓷砖
刺伤
大圆石
合并的
组成公司的
一体化的
使组成公司
修正的
卡姆登
美颜
脸部按摩
脸的
脸部用的
软体动物
非除阻的
不吐放的
说明书
瑜珈
链钩
550
坡道
敲诈
狂跳乱撞
乱冲
使有斜面
哆嗦
被打碎
使迎风飘动
战栗
碎块
##rose
制造硬币
首创的
使协调
沃里克
最上等的
119
梅勒妮
贾尔斯
圣伊莱斯
##rous
走神
神志恍惚
开小差
##inal
十一月
30th
未命名的
没有名字的
未提及的
##ished
normandy
司炉
口哨
汽笛
啸啸声
口哨声
吹口哨
鸣汽笛
发嘘嘘声
用口哨或吹哨传意
用口哨演奏
冒犯
散弹猎枪
媒人
用猎枪射击
##ctic
发泄方法
反应者
反应器
反应堆
电抗器
##vik
撕裂般的
滨
福神
吉祥的东西
选区的全体选民
nc
专栏作家
能生产的
有生产价值的
tibet
##rta
直系
钩状的
有钩的
用钩针编织的
十月
胶纸带
条带
边带
科迪
##gger
汉森
kashmir
触发的
起动的
有扳机的
##eva
解决了的
峭壁
##tree
剖析
解剖学
抗议者
拒绝者
断言者
暗指的
##iga
注射剂
床垫
空气垫
沉床
把排除在外
不包括
不计
##mbo
无助的
无能为力的
无依无靠的
##elli
咆哮声
怒吠
宽容大度的人
支持变革的人
英国自由党成员
weber
原子
接插头
##iff
必死的命运
死亡数目
死亡率
学徒
使做学徒
使人信服的
令人心悦诚服的
aaa
游泳者
理发师
leone
钠
def
现时
时下
现今
起来
##oning
格洛斯特
格洛斯特硬干酪
校正的
折算的
尊严
高贵
基准
erie
##ders
长老
比我年长的人
接骨木
疏散
排空的
撤退者的
西尔维亚
##yar
哈特福特
装模作样
摆姿势
使摆好姿势
远足用的背包
双肩背包
合格品
良浆
24th
擦拭
用力打
揩
涂上
波浪形鬈发
把烫成波浪形
##oda
躲闪者
欺瞒者
albion
1790
压倒
压垮
航天空间
航天技术
1795
陈列橱
告知收悉
答谢
再生
诺兰
ashe
痛痒
地质学
地质情况
…式的
看不见
失踪
辞别
肿大的
涨水的
侯爵
wimbledon
124
芸香
1792
将…归纳
折合
不可避免的
calcutta
美国英特尔公司
##court
谋害者
有粘性的
渔场
渔业
养鱼场
钢块
焕发青春
茂盛
使茂盛
把轧成钢坯
280
##inus
含糊
口吃
值得纪念的
难忘的
po
病毒的
病毒引起的
豆子
黄豆
意外事故
tunisia
触须
触角
spill
结交
疗法
赞成票
投赞成票者
周长
周界
##gard
捐赠物
人质
银行家
庄家
入迷
瘾
最高潮
国际月球实验室
##ously
良心
##nova
可靠性、可用性、可维护性和安全性
随机存取测量系统
地区性自动化管理系统
含油砂岩地层
易怒的
热恋的
费神
使忧虑
##lets
##set
在其间
在其中
##ibility
##ret
higgins
超过其他
北欧海盗
斯堪的纳维亚人
##vie
佩恩
##zan
肌肉发达的
##ste
吸奶的
授乳的
尚未断奶的
乳臭未干的
##wal
ibrahim
机身
克劳迪娅
variable
field
length
可变字段长度
focal-length
可变焦距
欧洲人
腹足类
行动迟缓的人或动物
间隙
##garh
预备性的
准备性的
预科
全州的
遍及全州的
交给某人
长曲棍球
viktor
##lation
angola
##hra
打火石
燧石
极硬的东西
蕴涵式
十三岁到十九岁
资助人
老主顾
名义赞助人
厩
牧师职位
托辞
拖延
关入厩
支吾
使陷于泥中
被关在厩内
陷于泥中
在每周末
密码形式
扰频
核子
原子核
德黑兰
詹娜
parsons
终身的
毕生的
换置
5000
##bles
降水
轻率
突如其来
##gt
指关节
膝关节
紧紧抓住
突然抓住
1802
证婚
合成
生态学
社会生态学
马克思
罪名
冻结物
加尔各答
衬边
纠缠在一起
铺席于上
使无光泽
使缠结
meadows
bermuda
骨瘦如柴的人
骨干
骨骼的
概略的
基层的
骨干的
参加决赛的选手
葡萄收获
酿酒
采葡萄
佳酿的
老式的
匍匐而行
养鱼池
同等的
并列的
使从属
受…影响
管弦乐队的
犯错的
##tc
反光镜
写实
把的远光调为近光
洗药水浴
260
拱桥
蜡烛
对着光检查
##nick
激动地
狂热地
鲁莽地
轻率地
长方形廊柱大厅
长方形教堂
猫头鹰
端
流苏
加穗于
加饰边于
边缘的
老规矩
飒飒声
传播流言蜚语的
微动
不和
长期不和
擦亮
第三的
第三位的
第三产业的
第三修道会会员
第三纪
三代的
光滑的
灵活地
聪明地
使漂亮
打扮整洁
光滑平面
平滑器
修光工具
山羊
替罪羊
值得尊敬的
荣耀的
靠什么
为何
靠那个
由此
跳读
跳越
跳绳
跳级
跳过
ricardo
条子布
条纹布
降落伞
跳伞
水下的
合成器
综合者
##gren
意思是
肯定地
九十
九十个
希腊语的第二十一个字母
海狸
隔离物
财产分割
瓜分
伙伴们
亚历克西斯
卡莱尔
互助会
大学生联谊会
##bre
疑虑
未确定
冰的
滑溜的
加拿大广播公司
水生动物
水生植物
水中的
鬼鬼祟祟做事
鬼鬼祟祟的人
偷偷摸摸的行为
帆布胶底运动鞋
暗中进行的
宝贝
小家伙
兼有
兼备
使融合
航空站
机场
航空港
天然的物质
有监督的
空间的
受空间条件限制的
占地位的
使合并
使消失
阿方索
##bic
腐败的
贪污的
讹误充斥的
使腐烂
使恶化
细查
细看
详细调查
标出格律
押韵
##ams
无能力
伤残
colombian
海豚
系缆柱
perkins
##lish
转载
重印
再版
意见一致的
无异议的
空头支票
几根头发
体毛
下层社会
下流社会
midwest
平装本
纸面本
电视连续短剧
coventry
崩
薨
让渡
遗赠
##leigh
传感器
雁鸣声
泰国龙脑香
##hler
##idge
hyderabad
##dr
刹车系统
孙辈
##nde
协商
议定
漂泊者
ferrari
理事之职务
董事会
理事会
奥古斯塔
史蒂文森
复本
配对物
相应物
流出的血
淤血
三角形布
把剪成楔形三角布
缝以补裆
抵
##rda
托儿所
苗圃
rican
聚合性
集体主义
集体
宽广地
无礼貌地
牧歌
田园诗
牧人的
田园生活的
田园式的
全部剧目
全部技能
全部节目
全部作品
声称的
宣称的
nordic
Fédération
Internationale
de
Basket-ball
Amateur
国际业余篮球联合会
坎宁安
哈利
米德尔塞克斯
米都塞克斯大学
肿大
肿块
赘生物
肿瘤
进行速度
一着
洛卡米尔·伊洛曼希斯
催逼的
##rade
##nto
##ement
立契约的人
承包商
都灵
##wl
##ool
福佑
天赐的福
simmons
呻吟着说
天文学的
cr
交涉
谈妥
抒情诗
抒情的
1890s
拉腊
breed
在金属外包上另一种金属
包层金属的
安格斯
公共广播公司
##ience
设计的
##lk
hernandez
肘
肘部
弯处
用肘推
用肘挤
精神病学的
医精神病的
合流
合流点
有选举权者
熔岩
alps
##ep
##ution
##date
物理学家
机械唯物论者
自然科学家
多树木的
木质的
##page
##ographic
##itis
朱丽叶
重新形成
重新组成
sparhawk
320
补足物
补语
补数
补足
被抑制的
被忍住的
贵重物
镶珠宝的饰物
饰以珠宝
镶以宝石
##½
##kas
连续性
悲痛地
悲惨地
悲伤地
说来遗憾
##ische
甜美的
保拉
面粉
粉沫
碎粉
judaism
更安全
##lm
勒马绳
边石
勒住
##stown
金融上
财政上
山形墙
人字板
过期的
悲惨的
cassidy
1789
杯形的
145
amos
典狱官
渔猎法监督官
再开始
个人简历
马文
惯性导航与制导
强中子发生器
捣碎的
极限强度设计
宣告行为
##aux
转黑
270
650
二年级生
二年级学生的
二年级的
##mere
直立
爱讲闲话的人
由电视播送
电视拍摄
升起的
刻度盘
钟面
转盘
拨
##eu
柱子
柱状物
台柱
##link
过客
极深的
深厚的
深刻的
渊博的
##tina
arabian
ashton
硅
指甲
用钉钉牢
截住
##ead
##lated
##wer
##hardt
fleming
火器
枪炮
轻武器
环路
管乐器声
疾风
waterloo
##lina
核能
壁炉
cheshire
提供经费、筹资
活化
激活
算法式
##zzi
捕手
捕捉器
彻罗基族人
合伙人身份
性征
性行为
一组
悲剧的
维维安
被防护着的
被监视着的
警戒着的
威士忌酒
威士忌酒的
冥想
诗的
诗意的
诗人的
##late
##nga
##ake
波尔图
监听器
显性
蜡烛制造者
组织中的小派别
22nd
索尔兹伯里市
引出的
引出之物
派生物
衍生字
##ido
##haus
吸入量
节奏均匀的
javier
插画家
图解者
说明者
偏见
斜纹
偏斜的
使有偏见
驾驶员座舱
伯内特
dream
接著发生的
##anda
感受器
有一天
霍金斯
要紧
化脓
有重大影响
有重要性
##lal
slavic
1799
耶稣会信徒
阴谋家
cameroon
浪费的
泰国国际航空公司
蜡
蜡状物
一阵发怒
渐盈
变大
月亮渐满
上蜡于
皱眉的
愠怒的
昏暗的
战胜的
使人憎厌的
糟透的
强烈反应
直率的
率直地
立刻地
一直向前
全民超人
汉考克
图书馆员
图书管理员
测向
偏航显示
秃头的
光秃的
变秃
钙
迈尔斯
门牌
笔记簿
碑
药片
巴拉克
造船厂
药学的
制药的
药用的
药物的
药剂师的
药师的
药品
成药
药剂
##uan
greenwich
流溢
面红
惊飞的鸟
同花牌
丰足的
满盈的
泛滥的
齐平地
脸发红
奔涌
惊飞
使齐平
杂录
拼凑的
修补程序
补丁
斑块
沃尔夫冈
pt
说话方式
口语
习得
nikolai
##gg
海登
坎那达语
##type
reilly
##pt
女侍者
女服务员
彻底破坏
在感情上压垮
毁坏的
极为震惊的
假名
笔名
药房
配药学
制药业
paraguay
1796
使发出咔哒声
使咔哒响
突然明白
配合默契
在计算机荧光屏上用鼠标器)咔嗒一按
##trom
多岛屿的海
成为企业组合的
##hman
破旧家俱
砍伐木材
乱堆
笨拙地移动
喧闹地向前走
隆隆地移动
极度兴奋
兴奋的高潮
被抛弃的东西
呕出物
克利福德
洛林
罗琳
黑手党
秘密政党
罗德尼
##ght
##used
##elia
盒式磁带
珠宝箱
暗盒
内侍
管家
掌管财物的人
绝望
mongolia
感应器
感测器
启发的
向上游
逆流地
向上游的
逆流而上的
##eg
##alis
165
长号
basque
已播种了的
去籽的
埋
葬
可更新的
可恢复的
可继续的
可换新的
可重复的
可重说的
rhys
leap
校订
修正
修订本
修订版
##ages
弦
和音
品性不端的
恶毒的
恶性的
有错误的
北方
北部
23rd
阿林顿
阿林顿国家公墓
负债类
主体
文集
语料库
日出
拂晓
凹进处
桂冠
布莱克本
布力般流浪
厘米
##uded
突然震动
颤动
gm
奇妙地
奇怪地
不可思议地
抓的
扣人心弦的
夹的
卡通动画
动漫图书
isabelle
轨道的
眼眶的
##ppa
封印
封上
##lton
优先决定权
使爆裂
baghdad
击球手
玛拉
对…施加压力
spears
奥运会
##cock
纳撒尼尔
布伦南
1776
确认
领导人会议
核心会议
开核心会议
##worthy
成交量和价格记录
yemen
尊贵的人
英国金币
堪萨斯大学
科威特航空公司
哥本哈根大学
懒惰的
怠惰的
懒散
看电视者
视察员
观察器
catalan
锯工
漂流圆木
显赫天牛
##fall
发出火星
专利
勇敢的人
美洲印第安武士
勇敢面对
不怕
sergio
劝
敦促
劝服
被说服
dover
宽容
容许量
公差
企鹅
空军地勤人员
附有
附有红利的
附有红利地
赛马骑师
操作工
骗
瞒
当赛马的骑师
不够的
不能胜任的
不充足的
任职
衰退中的
复数
复数的
两个以上的
处理的
加工过的
木偶
佛兰德斯
##yon
体育
antwerp
台北
霍巴特
烛台
吉普车
乘吉普车
用吉普车运
韦斯
观测者
126
包扎
胡乱塞进
匆忙离开
光荣的
##hine
榛子
榛树
淡褐色
榛树的
淡褐色的
急伸
直冲
乱踢
sol
开凿
开凿的洞穴
古迹
被甩了的
嘘
bangalore
三角形的
三人间的
icelandic
涡轮机
##vers
歌曲创作
工艺品
##igo
茉莉
淡黄色
在开沟
开沟
##ways
使人愉快的
依从
哀惜
扭斗者
搏斗者
basel
emirates
marian
rivera
##some
慎重
警示
##atory
##tered
向前冲
种族灭绝
灭绝整个种族的大屠杀
专攻
代言者
方便的
合宜的
开锁
揭开
开着
解开
augustine
相似处
以利亚
审查者
andhra
##uda
##rrell
无血色的
simone
节目报告员
宣告者
##ame
##bby
lydia
织布者
织工
132
修饰
##fest
拉长
##ast
非此即彼
劳氏
灵狮
##ented
pam
砖瓦
瓦片
铺以瓦
铺以瓷砖
隐匿的
次等的
较差的
下方的
次品
下标
abdullah
公馆
薄的纱织品
面巾纸
##ided
特有财产
理想境况
尖啸声
拉链
给以速度
使增加活力
有力而迅速地行动
嘘嘘地响
拉拉链
一种大腊肠
詹宁斯
日本武士
oversee
靠巫术起死回生的僵尸
无生气的人
麻木迟钝的人
泵送
一次所烘的面包
一次所制之量
批
成批
分批
分批处理
利文斯顿
绿宝石
翠绿色
翡翠的
翠绿色的
军事设施
1797
外壳
削皮
剥去的壳
脱皮
脱去衣服
氮
罗摩
##fying
##star
学校教育
学费
缕
海洋、湖或河的)岸
部份
使滞留
作答
维尔纳
##ost
石灰
粘鸟胶
酸橙
以石灰处理
粘鸟胶于
撒石灰
天文学高级研究中心
计算机与自动化系统
合作应用卫星A
目标市场选择
确定目标市场
##rod
航行中的
起步的
##uru
半球
地球的半面
大脑半球
莱斯特
喻指显赫的人
##yard
格里菲思
愤怒地
改组
整顿
##owing
courtney
##dd
##30
estadio
##ifies
dunn
放逐的
流亡的
##ying
格
##combe
##о
##fly
成功的事迹
想不到的
出乎意料的
blu
对…进行评估
##flower
##ه
注意观察的
观察力敏锐的
把…装进袋里
袋装的
被洗劫的
网页爬虫
蜘蛛布
海里
克朗
##tail
希腊字母
节点
奥德丽
部门的
155
野马
半驯化马
纠缠的
紊乱的
使适应于
校准
适应于
被调节
相互熟悉而适应
冲蚀
paolo
拍岸浪
作冲浪运动
工商名录
突然伸手拿取
抓紧时间做
乘机获得
夺去
湿润的
多湿气的
admiralty
以螺丝拧紧的
螺丝状的
gt
微红的
略带红色的
##nese
加载模块列表
模块
渠
战壕
挖战壕于
用战壕围住
挖战壕
有约束力
leah
雄鹿队
巴克斯
##nz
##form
抄写
抄本
##uc
美国职业高尔夫球协会
骑脚踏车的人
胀大
夸张
通货膨胀
扁钢
低沼泽
衣衫褴褛的
参差不齐的
不协调的
不必要的
##hian
不听话的
执拗的
使调和
哈里特
兰姆糕
使无资格
使不合格
使不能
330
乌尔夫
##fies
增援部队
援军
加固物
来回摆动
使震惊
使受震动
决斗
使眼色
递眼色
砖
可靠的朋友
##raj
裂孔
脱字
漏句
待决的
行将发生的
向外伸出的
在等待之际
直到时为止
在过程中
生辉地
鲜明地
妒忌
猜忌
##xton
##hm
##uki
莉娜
勒拿河
gdp
华美的
富有色彩的
##dley
啤酒杯
肾
##shu
游荡、漫游的人
各处走动的动物
##haw
##icus
维护者
m³
大哭
熊熊燃烧
##wise
gp
铀
未受处罚的
假面目
bundesliga
伊莉斯
dundee
性爱的
性欲的
好色之徒
色情诗
党羽
虔诚信徒
同党
游击队员
党派的
效忠的
盲目推崇的
圆周率
收集者
收取者
浮舟
浮萍
彩车
浮动
使漂浮
以个人身分
各个地
独特地
打底
行为的
bucharest
锡厄
野兔
瓦莱丽
下士
营养
营养学
比例的
相称的
比例项
##isa
极广大的
无边的
##kis
路面
铺面路
铺路材料
##zie
##eld
萨瑟兰郡
萨瑟兰
屈膝
1775
##lp
铃木
各种营业
忍耐力
歌剧艺术
歌剧业
克罗斯比
祷告
小修道院
rory
在社会上
在社交上
以社会生活方式
##urn
gujarat
##pu
沃尔顿
立方体
立方
帕夏
特别恩典
基本权利
特免
给与特权
lennon
水灾
大量涌来
为水淹没
使大受感动
thorne
乳头
奶头
奶嘴
侦察活动
童子军活动
核准
为提供证据
赞许
##lov
德怀特
弄清楚
舞厅
跳舞场
掴
拍击声
滴下物
水滴
权益
免责特权
特殊荣幸
重新加入
重返
与…再会合
有定论的
众所周知的
已认罪的
自认的
自称的
爱国的
有爱国心的
呐喊欢呼
喊叫着说
呐喊
##uth
异教徒
无宗教信仰者
异教的
异教徒的
大幅度下降
暴跌
沉重或突然地落下
方钢
##cle
##kins
伯特
##aid
阿斯顿
毛衣
毛线衫
出汗者
斯塔尔
尤里
坂崎由莉
脑髓
威廉姆森
乘公共车辆上下班者
月季票乘客
臼
研钵
灰泥
用灰泥涂抹
用灰泥结合
有结构的
自私的
利己主义的
自我中心的
出口商品
输出额
##jon
中央动态存贮器
集装箱运货系
冷拉无缝
受控供电系统
##him
##rre
抵押
约束性义务
抵押借款
以作担保
把许给
##nagar
独木舟
轻舟
乘独木舟
用独木舟运
独居者
独居的
buchanan
延误
使延期
使延迟
推事
外键
##pling
动机
##lier
##vier
对征税
##mouth
malik
古董
古风的
旧式的
过时的
1791
孝顺
rahman
德国
德意志帝国
浴盆
装入桶
洗盆浴
被放在桶里洗
周朝
喝醉酒的
摆架子
戈尔韦
条件作用
honduras
放电的
泻出的
右侧的
右边的
吉利的
##pf
莱昂内尔
129
仔细考虑
盘算
柠檬
柠檬树
柠檬色
丝纱罗
二氧化物
提毗
井斜
原文如此
小雄马
判断性意见
定论
汉诺威市
使退役
做声
使互相关联
相处得好
pac
种族主义
种族偏见
##top
烽火
跛行
类似处
蚂蚁
##how
capt
补充资料
军备
richie
同志
交友
##graph
halloween
##ssen
##bone
卡拉
serena
fcc
玩偶
义务
承付款项
##dling
亵渎
拉斐特
老佛爷
三刺光鲳
雅加达
剥削
##ime
无耻的
不名誉的
##lah
##park
小猫
全部赌注
心情不稳的
郁郁寡欢的
喜怒无常的
雷金纳德
可怖的
溅出
溢出量
小塞子
使溢出
使散落
洒
倒出
使摔下
石英晶体
晶体
olivier
被效仿
模式化
断崖
启事
通知函
军械
废止
宇宙航行的
使暴露
使曝光
揭穿
有利害关系的人
抛锚的
##bil
abbott
许可进入
男中音
男中音歌手
低音铜管乐器
以马内利
伊曼纽尔
沃恩
有翼的
高速的
飞行的
翼受伤的
层进法
达到高潮
连衣裙
丹尼
各种工艺的
工艺教育的
工艺专科学校
理工专科学校
mohamed
burmese
尼基
遗传学
外祖父母
祖父母
田产
加沙
缓办
把…放在次要地位
metacritic
联合国协会
##sby
##bat
不稳定的
##rial
##cian
一绺鬈发
卷曲物
螺旋状物
拳曲
晦涩的
微贱的
使变暗
使变模糊
使难解
无遮盖的
未戴帽子的
未保险的
bronx
不复存在
掩始
隐显
##hoe
历史以前的
史前的
可口可乐
焦炭
成焦炭
塔楼
角楼
攻城用仰冲车
非赢利的
无利可图的
凹点
凸面
维修区
monaco
##ي
##usion
迅速处理
墩座
矮隔墙
指挥台
##mir
unit
construction
index
独立装置
部件索引
##uation
133
防御工事
诞生地
##lby
##oll
传道士
讲道者
架
行李架
饲草架
搁物架
齿条
行云团
把放在架上
在架上制作
猛烈撕拉
随风飘
小步跑
##rman
固执的
作用持久的
##ott
数不尽的
无数的
jaime
录音机
记录器
列克星敦市
迫害运动
迫害
暴增
重订
重申
续借
四轮的运货马车
铁路货车
小手推车
##11
碾碎的
压倒的
##holder
装修
##lake
愤怒的举动
严酷
洗衣店
洗好的衣服
£1
加尔达
##rp
珍妮
##sl
爆裂似的
极快的
印度的种姓制度
社会团体
sergei
##rer
##ema
##ively
磨损处
惹怒
擦破
卫星
卫星国
附庸国
##vor
内切的
有铭刻的
verlag
报废的
已经销毁的
狂风
大风
定期租金
小鸟
竹帘
呐喊声
标语
口号
凯思琳
阿拉伯人
##culture
相对物
相对应的人
回忆的
怀旧的
往事叙述者
回忆录作者
合唱队的
##tead
兰特
田埂
缘
灌木
dane
合上
##oth
屠杀
亏本出售
hague
krakow
lawson
有尾的
去掉尾的
有状尾的
伊莱亚斯
姜
姜黄色
姜黄色的
用姜调味
使有生气
##ttes
天篷
遮篷
苍穹
用天蓬遮盖
辜负
重建
草皮
泥炭
跑马场
覆草皮于
##hof
效忠
踢球
腿法
冲击力
改建
民意调查
投票模块
别名
化名
以化名为人所知
民族主义
民族特性
任务说明书
反坦克自行火炮
花楸树
听力
试听
鲍伊猎刀
幸运地
幸亏
竖琴
弹奏竖琴
不停地说
狄龙
惊骇的
带有恐怖感的
##oro
法国雷诺公司
雷诺
##tics
围绳
##α
推测的
红外线的
红外线
加快的
例证
##rid
精榨机
压力机
习艺者
实习者
从业者
羽毛球运动
##iard
扣留
##tera
使有联系
与…有关
悲惨
穷困
##sies
##tly
再现
尖厉的
刺骨的
刺穿的
彻骨的
讽刺的
土豆
桑顿
以斯帖
以斯帖记
埃丝特
家庭影院
美国家庭电影院
##aan
ernie
常年的
反复的
敏感
灵敏度
被照明的
受启发的
加了灯饰的
加了彩饰的
rupert
##jin
##iss
##ear
rfc
拿索
##dock
吃惊的
错列的
社会主义
社会主义运动
##haven
无意义的事
荒谬言行
荒唐
威望
威信
sharma
用力拖拉
拖运
强拉
捕获量
拖运距离
改变方向
改变主意
##tical
团结一致
共同一致
全球定位系统
通用雷达
炮长主瞄准镜
##ook
##rata
igor
行人
步行者
人行的
徒步的
##uit
巴克斯特
佃户
占用者
占有者
线变形器
小五金
网格
药物治疗
药物处理
医药
不受限制的
无条件的
糖尿病
多尿症
##rama
萨莎
舞步
舞
克莱夫
抽出
取出
拔出术
抽出物
131
频繁地
##bilities
奏鸣曲
被捕猎的
受迫害的
第十六
十六分之一
摄氏热单位
人工林
花圃
引述
举证
虚假的
abs
蚝卵
口角
##hua
陶瓷的
陶瓷制品
##cci
护坡
铺地石
俯仰
上下颠簸
##dad
latvian
悲伤的
痛的
引起痛苦的
痛处
溃疡
疮
代顿
##sted
##qi
巡逻队
薄的切片
菜刀
切成薄片
运动场
操场
活动场所
##nted
shine
凳子
大便
长新枝
伴侣牌
叛逆
不忠
叛国罪
##ija
心愿
##liga
##croft
somalia
米尔
leonardo
神谕
神谕处
葡萄
葡萄树
必须的
美国雪佛兰牌汽车
第十三
十三分之一
打昏迷的
弄得人昏头昏脑的
令人震惊的
##ede
未予说明的
罗勒属植物
##kovic
干旱
##rica
##aire
强使
##shed
朝圣
人生的一段经历
朝拜
富幽默感的
诙谐的
填垫材料
封函
行李
油炸食物
鱼苗
油炸
煎
铅笔
色笔
眉笔
画笔
光线束
用铅笔写或涂
令人沉醉的东西
144
玛里琳
疼痛的
使人痛苦的
最新
cling
邻近的人
实施惩罚
实施制裁
##pie
有柄大杯
苦读者
给拍照
苦读
拼命用功
##stock
##mma
与水有关的
水力的
水压的
##vil
提醒的人
莉莉
丽莱
##ncies
酸臭的
不健全的
发酵
厌烦
酸味
酸饮料
##eous
被强制的
义务的
小包
一批信件
信息包
装进小包
##rion
##graphic
##elle
cannes
##inate
沮丧的
降低的
##rit
英勇的
英雄式的
壮丽雄伟的
英雄诗
英勇行为
重要地
有名望地
自命不凡地
特丽萨
##tled
conway
saturn
最低限度的
有旁注的
英国皇家航空研究中心
研究评估考核
##xia
相符合
相一致
罗伊斯
碧玉
爆炸物
爆炸品
包装业
包装术
铝的
##ttered
为…的符号
为…的名称
有韵律的
有节奏的
跨度
世袭的
sundays
青年
再印
比阿特丽斯
碧翠斯
##dic
栋梁
重要的支持者
marcos
酒鬼
酒精中毒者
酒精的
法院的
法官的
司法部
司法系统
先锋派的
徐徐而行
榨出物
精汁
选段
吸取
阳性
男性
阳性的
有丈夫气的
##eum
##force
尊崇
轻轻摇晃
owens
唱赞美歌
三点的牌
希腊字母的最后一个字
打信号
累计的
累积的
有不良反应
物质起化学反应
阁楼
顶楼
内层
安琪
安吉
分心的事物
分心
primera
talbot
##key
1200
ti
创造力
创造性
##hey
副主祭
执事
行会会长
朗读
摆得好看些
eduardo
辨认
向提议
向提出猥亵的要求
晕眩的
眼花缭乱的
使晕眩
炮手
炮长
机关枪手
带枪猎人
泥盖木屋
##yam
##pping
##hol
ja
##chan
延森
改造的
##berger
大流士
##nier
亚伯
harlem
托词
在情绪上
符号表示法
法西斯主义者
法西斯党员
neville
能养活的
能生长发育的
薄帆布工作服
帆布裤子
##fo
劳动力
工人总数
职工总数
比赛者
游蛇属黑蛇
限制的
##lson
具有
1600
毁灭性的
很好的
负载的
苦恼的
引起烦恼的
令人不安的
##cture
信托
鉴定合格
滋味
加味于
1870s
多山的
如山的
##baum
熔化
熔化物
变软
##ures
汽车旅馆
苏打
碳酸水
##mb
兽群
牧人
使成群
聚在一起
##nium
竖立的
使竖立
勃起
哼声
杂声
发低哼声
用哼声表示
佩吉
考查
试题
古尔德
炳炳凿凿
ren
##law
印成的大幅画
作呼噜声
发出类似的哼声
咕哝着说
cesar
家庭教师
当的教师
当家庭教师
受家庭教师的指导
ec
格里
样片
供品
供奉祖先神佛的菜等
提供之物
byrne
隼鹰队
猎鹰导弹
合谱
制品
ct
进来的
刚开始的
新来的
进来
摇摆的
26th
复仇者
喇叭状的
销售者
uttar
纳迪亚
扩程
按抚法
##hd
可繁殖的
肥沃的
生产多的
祖先的
祖传的
##has
预言能力
抽税
估定的税额
油料
北极星导弹
##bol
飞镖
突进
非直截了当的
不坦率的
多媒体
笔记本
期票簿
上侧
上段
展出
使展现
肾上腺素
引用的
参考的
几何学的
几何学上的
几何学图形的
##iving
##ddy
麻痹的
当报幕员
宣布参加竞选
##far
##lav
冷却器
中心咨询服务
头痛
令人头痛之事
塞饱
狼吞虎咽地吃
现代结核病控制策略
冲力
厚度
愚钝
含混不清
羞耻的
前导
前兆
137
捕鸟者
对称
225
剪切刀
殡仪车
##rai
ads
屠夫
肉商
屠宰
玩滚球的人
玩球戏的人
投球手
##lip
订阅
善良
##ically
布朗
布朗恩
##hos
##tech
kyoto
捐赠人
##erty
破坏性的
损害的
摩擦治疗
远征队
变硬的
卖淫
152
动物群
厚层
厚的覆盖层
抓伤
用爪抓
搜刮
洗矿
嗥叫
咆哮着说
厉声地说
新成员
就业
人才开发
审查的
调查的
好研究的
穿外套的
上涂料的
较容易忍受
138
公有的
公社的
国际保健行动
自动调温式空气滤清器系统
学术
布恩
心理学家
不安静的
慌张的
休息不充分的
拉合尔
stephens
工商管理学硕士
海洋生物协会
主要战区
brendan
老外
蕃
印刷工
打印机
##pc
27th
立契转让
##pole
心脏病患者
强心剂
健胃药
心脏的
贲门的
1780
冲绳县
突击队
布尔人部队
##base
##rist
姑娘
深思熟虑的
斯塔福郡
潮汐的
受潮汐影响的
表现…的事物
有代理人
hercules
开放大学
牛津大学
##path
##iated
绑架
柔性焦距透镜组
##tling
不足额
萨摩亚
出入口
消费的
计算的
迷宫
迷惘
使迷惘
准许
傻笑
假笑
得意地笑
得意的笑
剃刀
剃
固定物
引人动心的
艾登
名义上的
名字的
稍许的
名词性词
##vs
发行者
胡里奥
皮特钻石
皮特
ramsey
港区
##oss
排气
排气装置
废气
抽完
使精疲力尽
##owed
bavarian
将悬挂
披
遮盖或装饰某人或某物
将某物随便围在或放在另一物上
先前的
交配
ethiopian
勘查
仔细查看
关照
说到
##nton
不再使用
方便
便利的事物
方便的时候
hoffman
畜牲
弹药筒
一卷软片
墨粉鼓
mormon
父亲的
似父亲的
得自父亲的
家长式统治的
探针
探测器
用探针探测
套筒
混在一起
最后期限
截止期限
##rail
jenks
斗牛犬
残余物
片断
铁屑
扔弃
敲碎
互相殴打
零碎拼凑成的
交互的
有道理的
合乎情理的
生殖的
复制的
nam
没收
扣押
下行的
书记处
秘书之职
秘书处
卡比
双座四轮轿式马车
小轿车
双门轿式小汽车
铁路客车尾部的分隔车厢
分组的
打碎
打碎时哗啦声
扣球
杀球
经营失败
假硬币
非常轰动的
使裂变
使用假硬币
碎裂
轰隆一声
哗啦一声
轿车
轿子
轻敲声
开孔
导出液体
放腹水
抽头
分流
缠绝缘带
出钢
出渣
##18
洛拉
振奋
快活起来
germanic
不合适的
##eter
##fan
属下
使居下位
##sdale
suzanne
广告宣传
##ility
##lda
慎重地
路易吉
##mans
##fields
名词
mao
schneider
埃弗雷特
围绕物
基拉
##avia
朝西的方向
##take
有雾的
笼罩着雾的
铁路股票
持续性
能维持性
永续性
134
不用的
不在使用的
从未用过的
##rating
生存集群
资料袋
吐司
烤面包
干杯
敬酒
烤
使暖和
烘
不愿意的
参政权
代祷
nile
使敬畏
assam
##rb
商谈
未被打败过的
未输过的
不败
受益的
裸体躯干雕像
基础的
##pass
bahrain
连线
锚索
尖牙
犬牙
##itated
编号方式
法令的
可依法惩处的
##rey
豪华地
##lian
草木丛生的
ramirez
derbyshire
zeus
天文学家
香蕉
奖券
彩票
冰山
历史故事
历史纪录
竹子
##uchi
掘墓盗尸
在后的
滚木球戏
含糊地
暧昧地
##thi
汝
尔
使或变的紧张
##inas
meyrick
卡勒姆
瓦
langdon
tie
低地
苏格兰低地
低地的
喷鼻息
用鼻子吸
杜鲁门
##hale
##girl
过度地
锉屑
西藏原羚
西藏小羚羊
口腔病害
慈善家
博爱主义者
乐善好施的人
齐名的
##owski
纬度
透视
全景
复查
写…的评论文章
温习功课
光线的
光线状的
放射状的
半径的
径向的
##kha
手电筒
闪光信号灯
信度
科赫
元音字母
惊奇的
ada
伊莱恩
##rth
##encies
soviets
结肠
冒号
科朗
##boards
##nah
分隔间
卧车包房
防水舱隔
歪的
武断的
专治的
霸道的
第十四
十四分之一
##ctive
havana
钢人
弹片
有利润的
有利益的
赚钱的
埋伏
伏兵
伏击
包装工人
包装公司
包装机
##tile
裸的
肉色的
裸体画
裸体
裂纹
板间间隙
龟裂
真菌
突然发生而迅速生长的东西
##е
枝干
切断之手足
乔茜
何超仪
谢尔比
十位
##ος
平滑地
流畅地
星座
荟萃
无礼
指挥棒
接力棒
拖延的
##nco
签订
lend
公共马车业
贝克尔
爷爷
老太爷
外公
震动的
动摇的
##tron
einstein
绊脚石
障碍栅栏
sk
不利的
逆的
世界时装之苑
依尼
节约地
不浪费地
节省地
节俭地
在经济上
在经济学上
##moto
mccartney
thor
免职
通便
鼻孔
专著
##pace
根据现有证据来看
1783
委内瑞拉的
委内瑞拉人的
作业评估
工作估计
beirut
接管
接收
##vent
denise
位数
唱片的播送
挪威人的
挪威的
斯堪的纳维亚语的
##bbling
想像的
假想的
丸剂
药丸
休伯特
烈火
使燃烧
在树皮上刻痕
搬出
空出
辞
##ello
藤本植物
蔓
形成藤蔓
曼斯菲尔德
##tty
回顾的
回顾展
搬运架
手推车
古墓
生子女
离合器
一窝小鸡
踩汽车离合器踏板
保释
拎环
杓
舀水
辩论的
关于法庭的
辩论练习
##nett
##witz
桌面
避难处
促销
升职
使人烦恼的
忧虑重重的
多塞特
多尔塞特棉粗平布
ieee
再分
##iating
有人驾驶的
有人操纵的
远征的
考察的
探险的
拾起
猎物的收集
好转
恢复健康
搭车者
兴奋剂
电视摄像
教会会议
咯咯的笑声
轻笑
咯咯的笑
咕咕叫
185
##rz
##ffin
karachi
uc
卷过
轻轻拍打
涡轮增压器
安德斯
##ffed
处死
制成
鬈发
弄卷
以对抗
抗争
踝关节
台风
##د
##ache
##asia
语言学
气压
压感
牧草
草场
放牧法
##iting
免疫
免疫性
专卖权
独占事业
泥泞的
使污浊
使沾上泥污
背景图片
136
namibia
弗朗西斯卡
监控器
情况通报
特技
花招
噱头
发育不良
阻碍成长
表演特技
##ии
无精打采之人
蔬菜的
植物的
##mates
##quent
美国米高梅电影制片公司
珍
复体
##ond
藏酒
咬伤
第十七
十七分之一
王室成员
佛兰德人的
佛兰德的
桅
桅杆
装桅杆于
慈爱
救济金
宽厚
##cular
peruvian
macmillan
ipswich
向外的
外服的
装有大炮的快速帆船
护卫舰
大学毕业后的
大学研究院的
皱褶
##ouse
炽热的
##tai
或许发生的
附随的
偶然发生的
偶然事件
噩梦
可怕的事情
无法摆脱的恐惧
纪念碑的
做为纪念的
不朽的
nicaragua
##kowski
蜥蜴
轻便双轮马车
赛艇
鱼叉
记过
爵士乐演奏会
乘轻便双轮马车
乘快艇
叉鱼
叉
被拒之人
不合格品
呕出
##pad
哈丁
##ipe
海岸线
##cin
##nos
beethoven
汉弗莱
新观念
新事物
新设施
##tam
##nge
诺里斯
桃瑞丝
初级律师
法务官
掮客
游说者
募捐者
141
##lc
niagara
##tton
aug
bourbon
咖哩粉
咖哩饭菜
用咖哩粉调味
用马梳梳
制革
明细单
详细的计划书
希尔顿
希尔顿集团
##ndo
百年纪念
一百年的
被驱散的
被分散的
散布的
蠕虫
螺纹
蜗杆
蠕行
使蠕行
慢慢地走
除虫
被忽视的
未被好好照管的
briggs
sm
字形
洗礼盘
河口
心神不安的
##nstein
##bound
##aking
##burgh
发音
读法
##bbed
##quest
啊!嗯!是吗?好吗?
最理想的
朱
强暴
绿叶蔬菜
布伦达
##life
venetian
marxist
聚集的人群
出席者
##lius
精炼的
撑牢的
拉牢的
支撑的
急忙抓住
急切地抓住
sunderland
镍
镍币
五分镍币
镀镍于
洛厄尔
cyrillic
共产主义
筹款
募款
筹款的
肖
殖民地开拓者
殖民地居民
突变体
弗雷迪
超声波清洗
联合海运公司
美国国会
##mos
感激之情
##run
壁的
壁上的
壁似的
壁画
##lous
化学家
药剂师
熟铁
妇女协会
28th
偷
悄悄地做
泰丝
pietro
##ingen
促进者
助长者
ri
麦克风
rai
桑特
##qui
长羽毛
用羽毛装饰
##nson
burlington
kurdish
恐吓者
黛博拉
不健康
##wed
##eet
赌运气
使冒危险
被激怒的
生了气的
变粗的
因刺激而发炎的
发红的
面纱
面罩
遮蔽物
戴面纱
蒙上面纱
清楚
明晰
##rik
罗马数字之十五
十五人组成的球队
##gged
##ows
##cup
berkshire
不公平的
不正直的
神秘的事物
难以理解的事
古代的秘密宗教仪式
兰花
淡紫色
赶紧避开
抽空
疲惫
筋疲力尽
处于困境的
进退两难的
obe
无限大
##nies
再开发
重点恢复
责怪
登记处
登记名册
奥尔加
多明戈
轮盘戏中黑色数字的
tudor
ole
##atus
运转状态
##ais
烘脆
松脆物
pauline
很可能的
很有希望的候选人
很可能的事情
斯特灵
wigan
##bian
paralympics
优于
多于
非…所能办到
##rew
卢卡
上了闩的
划出线条的
受阻的
借助逐字直译文翻译
每日摘要的
闻名的
##sters
cassandra
卡洛琳
##orted
andres
破坏的
约拿
带来不幸的人
空缺
多功能车
小型单层水泡
##glass
1788
果树林
belarusian
spring
##forth
似皮的
极瘦的
##mis
完全程序
rotterdam
zambia
赵
煮器
汽锅
锅炉
##ride
##physics
卢修斯
使失望的
期待落空的
令人沮丧的
超出的范围
作超出能力所及的事而害及自己
占的上风
走得太远
匙
调羹
匙形工具
以匙舀起
使成匙状
##frame
职位要求
任职资格
资格证书
限定性条件
全体一致
无异议
一致同意
摄政统治
摄政权
摄政统治区
##iidae
赛跑场
写实主义
实在论
兽医的
兽医
倾倒
倾销
倒垃圾
倾销商品
alain
栗子
栗树
栗色
栗色的
castile
检查制度
辘辘声
辘辘响
使隆隆响
低沉地说
吉布斯
##itor
communion
雷盖
使不活泼
阻止活动
原木
货载量
##houses
同性恋者
##iano
麦芽酒
运筹学和管理学研究协会
##cas
短语
石膏
安慰用品
膏药
涂以灰泥
敷以膏药
使平服
彻底击败
中后卫球员
ambrose
着迷的
被深深吸引的
850
五行打油诗
新兵征召
熔炉
铁工厂
打制
锻造
伪造
##nding
leinster
生根的
有根的
预示的凶兆
恫吓
可能来临
##strom
borneo
##hes
民众意见箱
员工意见箱
推进器
纪录片
恩赐态度
光顾
任免权
保护人的身分
神经元
彗星
轮到请客
同一性
同一人
恼人的
无变化的
机警的
周到的
唯恐的
##antly
##ogy
匀称的
勘漏
失察
##kos
phillies
重新比赛
重演
重赛
康士坦茨湖
##kka
特殊阶段
低下的
使卑下
降低地位
贬抑
负号
减的
减
缺
##acy
smithsonian
##chel
游击队
广口瓶
刺耳声
发刺耳声
候补军官
次子
培训生
陆军或海军学校学员
##plate
过剩
盈余
过剩的
审计
查帐
查
旁听
查账
##aru
裂解
乔安娜
路易莎
##lights
有意地
##iri
用餐者
Northwest
Airlines
西北航空公司
版本说明
澳大利亚人
钳子
帮会
用钳子钳起
空前的
煤仓
沙坑
暗堡
击入沙坑
使陷入困境
天真的
纯真的
特种经纪人
专科医生
方舟
尼克尔斯
漏的
踏板
脚蹬子
脚的
脚踏的
用脚踏动
踩踏板
骑车
##uka
矮树
果汁甜酒
憧憬
顶板顶
有…顶的
洞顶
v8
队长
神经系统的
神经中枢的
##ntal
##jet
麦地那
狂乱的
手抄本
药典
限定词
sid
废奴运动
库存量
enrique
蒙受
genoa
氧化物
##written
蛛丝马迹
##gers
进贡国
进贡者
毒液
使有毒
##rity
##ente
##sca
听不清的
蒙住的
徒然的
陛下
殿下
laos
##ingly
##hana
匆忙地
急躁地
强烈地
成平面的
刨平的
刨光的
感伤
情操
感想
成为动机的
##oft
大约的
粗略估计
接近于
台面
岩滩
平顶山
恐龙
票据交换总额
外币兑换
换的班
使得到调剂
使不单调
衬托
当替补投手
呈鲜明突出
拖绳
拖轮
牵引
遮罩
口罩
##ues
cynthia
##mmer
雨季
酒保
酒吧侍者
锌
镀锌于
洛伊斯
##sai
有腿的
拉菲
拉费
雷夫
rosie
不利条件
加障碍于
插入物
环礁湖
近海岸的浅水区
泻湖
咸水湖
已复制的
演练
谢莉
翼瓣
##inian
中国官话
国语
满清官吏
紧身马褂的
成废物的
废词
##inated
可论证地
可争辩地
正如可提出证据加以证明的那样地
生产力
辛迪
不常的
不常
busch
罗利
把…分类
射程为…
stanton
奖励
出让
承认(比赛、选举等失败
筛渣
筛除物
补加纸张
伸放纸
颞的
太阳穴的
世间万物
教会财产
##uke
cbe
##bos
央求
确实的事情
抽运器
无带轻便舞鞋
脉动
##pton
有茎的
长于茎上的
##uli
莉齐
周期的
用完整句的
高碘的
##night
推开
挤浆
选定
wc
##chemical
##kill
强健的
要用力气的
位于…的侧面
海南航空公司在国际航空运输协会中的二字代码
匈牙利
英国无国界卫生组织
##eb
##eal
christchurch
皮夹
里斯
不相称的
使发狂
调料
提琴类乐器
虚度时光
拉小提琴
拨弄
瞎搞
咯咯地笑
汉堡包
多毛的
毛状的
长毛的
机械工
扭转力
转矩
项圈
apache
无法摆脱的
采运作业
##tag
萃取的
失去知觉的
使昏迷
使失去知觉
##vsky
gloucestershire
##bay
统一
使粘合
##lit
族类
减退了的
减弱的
小丑
给戴手套
1860s
##ن
##ug
高射炮
焦点的
在焦点上的
自由作家
自由投稿
自由职业者
自由投稿的
刨切的
##yk
社会组织
名胜
走失的家畜
迷途的
迷路
彷徨
##ril
杠杆
似杠杆之工具
使用杠杆
leningrad
封闭的环形
任何时候
无例外地
一卷
纺车
卷于轴上
蹒跚地走
退缩
艾丽西娅
##ech
手提箱
伯尼
northampton
逐出
归纳法
赛马场
同性恋
##right
##sfield
##rky
dimitri
michele
选择的余地
可供选择的事物
取舍
非传统生活方式的追随者
诚实地
不赞成
拒绝接受
亲切
殷勤
stephan
军舰
战舰
舰只
周边的
圆周的
无关紧要的
机智
妙语
机智的人
酒醉的
具皱的
有皱纹的
quentin
用钱
花钱
开出
离职
聪
数值的
以数字表示的
擅长于计数的
代言人
##zone
johannesburg
口径
消灭…者
致命物
极难的事
##udge
整洁地
干净地
匀称地
人口统计的
贴身使女
##vel
衬托纸
舞台效果
上马
##lain
bentley
极不重要的
北越货币单位
许
收件人
##jk
merlin
##writer
老年人
资历较深的人
牢笼
入狱
hindwings
摇曳
希腊文第十个字母
##hel
80s
有感染力的
恳求的
酿造
一次酿造的量
吉卜赛人
吉卜赛语
象吉卜赛人的
mali
鞭挞
突然猛烈的一击
急速挥动
紧系
怒斥
笨重的船
废然大物
使人不愉快的
使人厌恶的
煞风景的
小传
协定问题
预知
乐器法
仪器制造学
仪表化
果肉
纸浆
使化成纸浆
除去果肉
变成纸浆
巡回演出
沸腾的
斗篷
罩子
披风
罩住
##ffe
惯性导航系统
国际新闻社
信息网络系统
##vn
把
控键
##onal
椰子
senegal
340
树胶
橡皮糖
牙床
老天
涂以树胶
用胶粘
使有粘性
分泌树胶
发粘
暂时地
随时地
##sto
可卡因
古柯碱
注定的
命定的
##turing
teatro
拒绝承认
拒绝…占有
否认知情
疲倦的
萎靡的
厌烦的
疲乏
生厌
不耐烦
当首领
自然科学学会会员
##hawks
##code
韦克菲尔德
宝莱坞
感激地
感谢地
##16
西里尔
##wu
修正案
##bahn
磋商会
装饰钮扣
大头钉
领扣
种马
反光
回旋曲
和蔼
1787
##ovo
马赛克
镶嵌细工
镶嵌工艺
马赛克的
镶嵌细工的
拼花的
用镶嵌细工装饰
分发
爱尔兰人
143
##hic
支墩
防洪堤
##15
##mura
##verse
通俗地
平易地
通过民众
边锋
炕
哨兵
真品
##anza
立契约
缔结盟约
##bag
起始点
处在边缘
激烈争论
使止住
查禁
非常兴奋的
极为激动的
占优势
##jar
斯温西
##60
142
和好
复交
调解
甘愿
##ndi
变硬
强硬
给暗示
dorian
##uf
damascus
ida
在最前
##aga
保时捷
未被看见的
dir
##had
##azi
莱克茜
乐曲的音符编排
美妙的音乐
##nko
有角的
有尖角的
完整的事物
播客
蚁
狭口
险地
替辩护
证明合法
外表印象
人格面具
##olved
约瑟芬
##nr
##ressed
光芒
披峰
闪光灯
赛勒斯
闪耀的
炫目的
瞪视的
后院
后庭
瞪羚
生理学
生理机能
greenland
html
搅动
激起
走动
埃文河
雅芳
atletico
雀科鸣鸟
方法学
方法论
ked
##lent
mas
catholicism
townsend
quincy
合身的衣服
阵发
1777
向岸
在岸上
aragon
##19
前臂
预先武装
中毒
##sd
过继
大赦
keller
赋值
锻的
锻造的
lankan
##uto
guam
bosnian
为…拍照
工作场所
令人想望的
可取的
保护物
保护装置
##dog
拨给
一心一意地
心无旁物地
专心地
鼓动
阴茎
阳物
##sten
保镖
电镀物品
前途光明的
##ν
bihar
##chev
鞋楦
开的人
开局人
开创人
开具
开启工具
首项
水陆两栖的
能两栖作战的
陆海空军协同作战的
婆罗双树
佛得角
海军部反应堆试验研究所
欧洲文化电视台
##cope
被关
词汇
词汇表
投资效益
##tted
德斯蒙德
开拓
##chus
皮带
参加竞选
参加活动
##ович
用象征表示
##dre
起风暴
下暴雨
501
##ulous
大麻
northumberland
##gn
##nath
博文
鲍恩
有历史意义的建筑物
博蒙特
博蒙特镇
##qua
danube
##bler
th
ge
未来雅皮士
正在走向成功之路而又贪玩的少年专业人士
评论文章
反面人物
淘气鬼
货物财务结算系统
指令主动声纳浮标系统
元音变化
acc
##0s
colombo
mckay
基本图案
企业联合
辛迪加
联合成辛迪加
##rell
氖
养马场
畜舍
统称某人拥有赛马
在同一地方工作或训练的)一批人
ds
征候
预先通知
可引以为戒的事
石芽
石灰岩岩脊
岩沟
哀痛
居丧
举哀
哀悼
丧服
戴孝
威尔金森
##tated
merrill
每晚
在任何晚上
呼出
发散出
呼气
埃米尔
索尼亚
以斯拉
以斯拉记
不连续的
离散的
火炉
窑
用火炉烤
法雷尔
第十五
十五分之一
超级英雄
##rier
舵
驾驶盘
枢机
头盔
给掌舵
鹪鹩
##duction
##hc
##rator
hq
antony
加速度
毛伊岛
痛苦地
苦恼地
费力地
成本更低
比较便宜的
克利夫顿
一种书桌
两用沙发
mozambique
##np
穿通
刺过
##evich
##wig
##cate
##iling
改革运动
十字军东侵
从事改革运动
加入十字军
意识到的
留神的
##uel
适度地
复式造表服务处
##coe
野心
志向
艾略特
内核
##fin
柏油
用柏油铺成的
以柏油铺
监工
律法
之首五卷
aden
苍翠繁茂的
多青草的
饮
插脚
精确的综合导航系统
宣布放弃
##care
##yas
joao
底层
地层
衬底
酶作用物
酶解物
##grad
##ules
alvarez
流行病
传染性的
怂恿干不正当的事
冒的险
##bit
不来梅港市
被翻译
水边
滨水区
滩
江边
29th
forrest
manny
马龙
kramer
在位的
本届的
起支配作用的
饼干
药草采集者
全神贯注
205
在上雕刻
将某事物深深印在
##ffy
估…的价
1778
薄雾
阴霾
使变朦胧
使变糊涂
变朦胧
变糊涂
146
安慰的
令人鼓舞的
转到另一方
天桥
##abe
棘
荆棘
##rift
##imo
##pop
抑压
使疲劳
使心智衰弱
疲劳的
裁剪者
切割者
切割器
##tr
201
wurttemberg
##orf
强制执行的
实施的
停悬
空中悬停
所有者的
所有权的
私有的
gb
音节
分成音节
上坡路
花边的
滴答声
壁虱
褥套
赊欠
滴答响
滴答地记录
标记号于
拉尔斯
牵引器
拖拉机
拉纸器
棱纹平布
浪荡子
##yre
亨廷顿
##ground
##oko
标准化的
定型的
##hor
##hima
行刺
希腊字母第13字
原有事物
说谎者
抒情诗调的
有抒情味的
感情丰富的
##uga
其次
网间网操作系统
国际标准化组织
仪表操作台
参变数
参变量
秘密从事的
从事间谍活动的
##mity
bordeaux
严厉对待
带钢单向皱纹
马克笔
大批的离去
不活动的
停止的
闲置的
黛比
纽约市
信物
许诺
使发誓
典当
举杯祝健康
纳加尔
把并列
旁系
支管
用胶印法印
胶印
装支管
偏移量
风琴弹奏者
##tium
hesse
marin
##iver
pu
正确性
重提
回到…上
经受
##dc
神职任期
庞大的家族
宗派
宣言
##inae
##ø
##rea
ein
恳请
诉讼手续
sf
桦树
桦木
桦条
施特劳斯
##dh
brandenburg
rd
##ob
1900s
突然发大财
暴发
教科书
古老
古代
古代人
电影制片术
卸在码头上
靠码头
入坞
令人为难的
麻烦的
宗教信条
不平坦
不平均
不等式
位于中心的
以某一对象为中心的
鲜明特征
fallon
370
##ingham
##uts
ceylon
凝望
指导的
方向的
劳里
##tern
##uated
##dent
allah
挖掘的洞
相关串连
线程
##cross
148
疯狂似地
国际商会
国际计算中心
印第安人申诉委员会
国际版权公约
做出决定
使决定
深思的
体贴的
接待处
##dicate
chandra
曳网
拖地大网
用曳网围捕
用曳网捕鱼
147
生成器
施工人员
诊断的
有助于诊断的
特征的
病的征候
诊断法
开发人员
设备驱动程序
可见性
能见度
能见距离
dhaka
首席人事官
高坛
同时发生的事件
同时发生的
好奇地
canadians
肿胀的
喘得上气不接下气的
腐心的
恢复的
1850s
乌龟
美洲虎
凶恶的
尖刺的
尖刺状突起的
脊骨的
曳
德克兰
婚誓
1784
尤指热的物体发出微弱而稳定的光
喜形于色
资本主义
涡流
universidad
##lder
##oat
独奏者
独唱者
##genic
##oor
巧合
原始思想
尼桑
把伸入
舀取
涉猎
度假村
caucasus
有传染性的
##eno
易上当受骗的人
年轻女子
巨蛇座
蛇形管
##itating
作结论
戴假面具的
隐现的
色拉
jew
##gr
超现实主义的
离奇的
不真实的
托妮
##wc
口琴
玻璃钟琴
151
##gins
##etic
##coat
预计中的
勇敢
##wave
克劳斯
titan
文布利
台湾人的
台湾的
赎金
赎身
赎回
赎
勒索赎金
40th
不正确的
hussein
眼皮
jp
库克
实用工具
公共事业设备
公用程式
##etta
##print
eisenhower
granada
##rak
开口
开幕
走向世界
##bl
伯大尼
宝芬妮
康妮
世嘉株式会社
##mons
##nard
所赚的钱
##kara
##cine
任天堂在2006年推出的新一代电视游戏机
与…感觉一致
感觉与…很亲近
与…亲密地交谈
与…相沟通
##rel
彗发
排字
退火的
软化
隔断的
切断的
##17
阮
军阀
军阀式领袖
hubbard
天上的
天国似的
举止端正
行为规矩
检点行为
使表现好
slovenian
##hit
##ony
下雹子
如冰雹般地降下
致敬
打招呼
昏睡状态
恍惚
使恍惚
使发呆
考德威尔
匐犬
斯凯岛
不安的状态
动荡的局面
懦弱的人
胆小的人
##aging
bern
sci
taliban
honolulu
求
##wang
1700
吃嫩叶的动物
浏览书本的人
眼镜蛇
撰稿
双拳
双手
英国公爵
本能地
直觉地
科南
名侦探柯南
小提琴演奏者
小提琴家
##ores
辅助程序
逐渐的
渐增的
弥撒升阶圣歌
##amp
引号
苏人的
苏语的
##dating
拦截
截击
拦阻
闪闪发光的
闪烁的
闪烁着才华的
被压缩的
扁平的
139
真菌类植物
墓葬
墓群
令人难忘的
威风的
其他
降格
退化
lincolnshire
零售商
零售店
潮湿的土壤
沼泽地
塔尔萨
分发者
分布者
散布者
分配者
分配器
配电盘
自动拆版机
地牢
尼姑
atlantis
在船尾
oman
化妆台
服装师
碗柜
lyons
##sti
戏谑的
开玩笑的
逆流
起漩涡
省略了的
省去的
##cts
##game
##rae
一分钱的硬币
受打击的
负了伤的
衰老的
受灾的
联合国欧洲总部
通用非线性元件
西班牙标准
##ngo
有特殊才干的人
堰
鱼梁
breton
nan
技师
皇室
王族成员
特权阶层
##cca
154
persia
可怕地
甚为
魔术家
幻术家
##rable
##unt
万斯
自助餐厅
登记人
寻选模特儿的人
卡米尔
进行加热的人
取暖器
##static
巨穴
洞窟
放于山洞中
指南针
音域
同龄
同辈人
入门大堂
抚慰的
使人宽心的
少校
骤降
弄成红色
##wear
小瀑布
瀑布状物
成瀑布落下
圣餐礼
##nov
波义耳
##lana
rockefeller
班卓琴
izzy
##ense
喘不过气来的
屏气的
气喘吁吁的
无风的
vines
##32
##eman
服装修改
染色体
处所
封建制度的
封地的
领地的
痣
鼹鼠
克分子
153
加泰罗尼亚
遗骸
承租人
租借
委托统治的
##fm
电冰箱
转换终端应用程序
诚实
劳尔
指责的
非难的
启迪
幼儿
在哪方面
在那方面
查塔姆
承包人
zen
姻亲关系
类同
hc
osborne
活塞
活塞阀键
156
随身携带物
什物
完备
##rana
lagos
##zal
##nay
随从
侍候的
在场的
交易商
商人们
礼仪礼节
子集
前景
潜在顾客
远景展望
传记的
##cre
动脉
干道
要道
##zers
吃苦耐劳的
坚持下去
##eration
使受欢迎
托付
施瓦兹
史华兹
serbs
berger
克伦威尔
交叉路口
聚会的中心地点
需作抉择的重要关头
##ctor
抱紧
紧紧拥抱
握紧
攥紧
##bine
marseille
抽动
艾贝尔
窒息
噎
阻气门
超文本传输协议安全
触媒
接触剂
催化剂
刺激因素
促进因素
moldova
意大利人
意大利国民
意大利语
##tist
损失惨重的
很小的
##oured
##nti
世界野生动物基金
世界摔跤联合会
雨天流量
##piration
##asa
快运
拇指部份
167
##nza
古柯
古柯叶
1781
##ption
感觉的
传递感觉的
heidelberg
密探
satan
可能造成损伤、疼痛等的人或物
危险因素
202
bohemia
发白的
带白色的
令人困惑的
混淆的
造船
出煤量
上市量
ravi
baku
Moor:
摩尔人.
系住
后缀
添后缀
alejandro
##yana
升
公升
uphold
##unk
rajasthan
##rek
沿海航行者/贸易者
沿海航船
带轮银盘
杯托
垫子
作的姿势
作姿势
脚本
情景介绍
etienne
受到优待的
优惠的
受优惠的
有天赋的
下令
变性人
大象
戳出
绿林
湿材
防御
个人志向得以实现的
尽到
应验
somali
1758
粉笔
白垩
用粉笔写
有说服力的
##ucci
移居者
候鸟
迁移动物
眨
nos
激进主义
行动主义
能动论
niger
##ario
##sat
##erated
swim
会众
教堂会众
重奏
考虑周到
磁铁
有吸引力之人
有吸引力之物
可玩的
可演奏的
宜玩的
宜演奏的
##р
tobias
旋钮
球形突出物
使有球形突出物
查韦斯
译码
##mers
katrina
东方诸国
向东
使朝东
确定方向
新来者
##suke
有节制的
温带的
##pool
农舍
疑问句
问号
##vd
答应负责
##vert
草莓
杰奎因
澳门
西伯利亚
##cellular
吟唱
诵扬
捐款人
捐助人
促成因素
##nant
##ologists
speed
同化
买进
冰雹
招呼
向欢呼
使象下雹样落下
下雹
万岁
1782
##hore
barbados
空手道
索尔
##xie
常绿树
常绿植物
常绿的
##rock
相互关系
相关
言过其实的
周日
平日
颠簸而行
描摹
描图
禁闭室
警卫室
空军基地
径
##ners
现代派的
mb
跪着
##stad
##guchi
100th
普纳
##thy
168
米里亚姆
学术界
学术生涯
生态系统
军事占领的
rbi
##lem
使割开
##14
旋转式机器
体态漂亮的
编入
团体组织
觉醒中的
格雷罗
种族主义者
##omy
网络的
计算机的
达到极点
佳丽宝
艾莉
活动年报
装甲车
sainte
维基百科
开放性的百科全书
流行曲调
大众音乐会
巴比伦神话中的风雨神
austro
##vate
algerian
有礼貌地
文雅地
客气地
nicholson
每天上午
在任何上午
风味
震颤
刺激性
一阵激动
使颤动
达特茅斯
##gating
db
##jee
舞蹈艺术
舞台舞蹈
##media
保证给予
以誓言约束
alexandre
gregor
madeline
##idal
天启
##hora
号炮报时
达绝顶的
爱恶作剧的孩子
罚钱
两
鞭笞
程序化的
程控的
焦油
涂以焦油
焦油的
透明
透明度
透过性
透明物
清晰
加布里埃尔
##gna
作废
注销戳
##lining
即位
正式接受
登记入册
大本营
专门从事
##rgan
受虐
hasan
sgt
鳕鱼
帚石南
超越的
##₄
赞赏
引人赞赏的对象
超级市场
##ark
摄影者摄影师
船篷
车篷
使倾侧
用帆布篷遮盖
共鸣
谐振
共振
隐马尔可夫模型
Hardware
Maintenance
Manual
Hyundai
Merchant
Marine
香气
美名
洒香水于
薰香
使充满香气
380
萨米人
萨米
危及
预示凶兆
花环
戴花环
植物学
煮沸的
烧滚的
映入眼帘
小狗
小动物
自负的年轻人
russo
供给国
供应商
wilmington
振动的
维贾伊
##bius
paralympic
咕哝
发哼声
佩奇
faa
边际
##gong
手榴弹
撕的
绝妙的
##uz
咨询服务
把压弯
起锚
称分量
##sian
针数
千针本
折页顶针
威尔特郡
edison
费用大的
##not
富尔顿
有轨电车路线
电车道
电车
索道
修订的
重新设计的
重新设计
staffordshire
隐藏所
隐藏的粮食或物资
贮藏物
高速缓冲存储器
痉挛的
阵发性的
沃特金斯
困乏的
欲睡的
候选人的地位
候选资格
##group
时间轴
跳动的
悸动的
抽动的
颤动的
##bid
##sos
船岸之间的水区
锚地
卧铺
使停泊
uzbekistan
范德比尔特
打扰
使垮台
投票表决
投票总数
饰以宝石
##iger
太阳镜
太阳眼镜
订阅者
认股人
用钩子的人
强制的
强迫性的
激发兴趣的
空军国民警卫队
美国报业公会
特殊地
异常地
例外地
会客室
剧痛
直入
##rdi
骇人的
rom
##vision
##oids
足可相信的
卖主
卖方
31st
mackay
神祗
神明
周围环境
bahamas
felipe
olympia
飞快移动
植物学家
##dden
门徒
耶稣的信徒
耶稣十二门徒之一
工会会员
工联主义者
摩尔斯电码
爬行的
令人毛骨悚然的
##₀
超氧化物歧化酶
单点登录系统
销售订单
##sz
买卖协定
特价商品
讲价
引起突然惊恐的
收税栅
收税路
收税高速公路
tory
再编制
##cer
传记作者
##walk
##gles
非主要的
临时记号
卡普尔
##dam
kilkenny
皮层
##13
romanesque
jain
shan
##ood
##ske
反照现象
呼应
amalgamated
制裁
制发
特伦顿
##ر
小型船队
aus
石山
金丝雀
棚
栏
##hun
概念的
已删除的
使人神魂颠倒的
泛美体育组织
炽燃的
elf
hutchinson
##eiro
##outh
##zin
测量员
检验员
T字形
T字形之物
发球区
球座
搁在球座上
树木繁茂的
再发给
重新发行
再版物
##ono
科布
酷伯传奇
居所
时事通讯
业务通讯
时事传报
韩氏兄弟合唱团
曲柄
紧缚
打起精神
充公
dem
旅行队
有篷顶的大车
marino
画卷
条幅
成卷形
有旋律的
旋律美妙的
乳牛
阿訇
伊玛目
##adi
##aneous
向北
生物多样性
科拉
310
吼声
风哮雨嚎的
咆哮的
轰鸣的
喧哗的
##bers
connell
神学者
晕轮
光圈
晕状物
荣光
使有晕轮
围以光环
成晕轮
差劲的
##oot
阿塞拜疆
美国亚利桑那州
计算的结果
图卢兹
应受报答
应得报酬
应得赔偿
迁就
天然橡胶
水平调节控制
宽仁之心
便帽
烈士
受苦者
受难者
使成为烈士
使受苦
帕梅拉
杜撰出来的人
娼妓
参事
希克斯
290
诸天
战列舰
主力舰
电磁的
由电磁石产生的
##bbs
星的
似星的
星球的
当权派
反对改革的保守当权派
普雷斯利
##chin
诱惑物
90s
nas
##yuan
nhs
##nya
研讨班
研讨小组
培训会
##yev
铜锣
皿形钟
鸣锣召唤
指示器
指示剂
锡克教教徒
多巴哥岛
引文
全球观测信息网络
##yte
讥讽的
好挖苦的
写讽刺作品的
##gies
刻划……的性格
表示……的特性
气泡
饵
##vid
喷出物
冰鞋
滑冰
治疗的
有益于健康的
1785
气管
食道
批发的
大规模
照批发方式
经营批发业
弃权
sac
460
##zzled
维吉尔
漏处
泄漏
漏
使渗漏
低质煤
256
##yx
犹太人区
creators
海洋建筑的设计与分析
描绘的肖像
vicente
##rington
fetal
alcohol
effect
胎儿酒精效应
figural
after-effect
形象化后效应
fine
alignment
equipment
微补偿仪器
forward
air
express
转寄运包裹
同名人
同名物
慷慨
宽大
##arium
joachim
##ota
##iser
前述的
车轴
鼻口部
口吻状物
决定于
拆开
reuben
480
##ibly
gallagher
##lau
##pd
诚挚
认真
##ieu
##iary
把…强加给
使承受
反对意见
##llar
asa
以沙砾覆盖
撒沙砾于
咬紧牙关
##athy
jericho
##sea
##was
快速的轻打
轻打声
弹开
轻轻拂去
忽然摇动
下面
下侧
底面
制陶术
亡灵
不死的人
活死人
取代的
195
朝东方向
向东方的
无疑
必定
有轮的
轮式的
##iche
guinness
cb
##ager
侧线
旁轨
边宽
##bell
叛逆者
叛国者
baptiste
假扮
总统就职
开幕仪式
就职典礼
为举行开幕式
149
tipperary
舞蹈指导
栖息
使坐
变暖
被加热
暖和起来
变得更友好
变得更可爱
亲热
停留的
电子耦合振荡器
环境控制组织
经济合作组织
##ike
##ntes
细菌的
##aurus
磷酸盐
磷酸酯
##core
攻击者
侵入种
侵略者
横断
横切
横穿
第一等的
间接
不直截了当
不诚实
不坦率
移入
生意人
cornelius
阀门
真空管
瓣膜
弹丸
屈辱
做成药丸
形成丸状
服药丸
抢劫
未醉的
稳重的
不夸大的
使醒酒
使严肃
从醉里醒来
变严肃
保险商实验所
nationale
修道院的
僧尼的
寺院的
庙宇的
禁欲生活的
申请人
求职人
舞台布景
##jack
161
中心思想
基本模式
cpu
##osh
裁判权
管辖区域
管辖范围
sd
weave
##uddin
肥沃
丰饶
总审计局
决算总局
##erie
不耐烦的
着急的
急切的
冰川的
冰川时代的
搭乘
面额
截断
截取
窃听
侦听
雷达侦察
##jas
小甜点
尼古拉
##tee
代数的
代数学的
侯爵长子的尊称
巴恩
假释
释放宣言
宣誓后释放
使假释出狱
买主
采购者
买方市场
购货者
以饵引诱
欺负
中途休息
文书工作
赠给
natasha
蕾妮
157
牛痘苗
疫苗
疫苗的
牛痘的
215
##tock
固定附物
固定附着物
固定财产
卡具
固定装置
儿童之家
玩具房
使成整体
成一体
奥斯瓦德
脑力劳动者
有极高智力的人
凭理智办事的人
##cky
记载入册的
登记了的
一套物件
藏匿处
莫蒂默
##isi
困扰人的情绪
##gler
##sum
440
仔细检查
选票检查
同时的
斜视
眯着眼睛
瞟
从小孔或缝隙里看
##shin
烤箱
灶
shankar
围以栅栏的
##я
外场员防守的地区
皮箱
光谱的
鬼怪的
1786
通敌
路易
##ailed
##ivating
420
胡佛电动吸尘器
用真空吸尘器打扫
黑潭
马具
挽具状带子
给上挽具
驾驭
披上甲胄
利用以产生动力
背心
汗背心
使穿衣服
穿衣服
男子夜礼服
钱币背面
硬币的背面
贝尔蒙
贝尔蒙特
先天愚型病患者
皮商
剥皮工人
##nae
可见
凭视力
看到
看得见
光学
形象化
栩栩如生
博学者
魔术师
derry
##tism
##unce
stevie
变迁的
过渡期的
##rdy
红皮肤人
准备功课
预备学校
进预备学校
进行预备训练
自修
自我训练
给病人作手术前的准备
##21
可厌之事
向下看
了望
偷看到
##loaded
乱纹
##books
##iki
通报…到达
食品及药物管理局
怒视
生气地皱眉
敬意
普拉萨德
奥秘的
神秘主义者
图森
##vale
时事剧
活报剧
跳的人
破产的
1772
aristotle
塞尔瓦托
habsburg
##geny
出生的
诞生的
坚果
螺帽
豆荚
保护性外壳
扁豆形矿体
从豆荚中剥出
结豆荚
掷镖游戏
moroccan
轻易取得的胜利
rosario
列宁
punjabi
##ße
获得总收入
分散
散射
稀疏的少量
四散开的
以金属丝加强的
接有电线的
以铁丝围起的
侵入的
侵略性的
拟人化用户界面
多项式的
多词学名的
多项式
多词学名
醒
使再次感觉到
吉娜
##cratic
erich
狙击兵
##dha
亚麻布
亚麻线
亚麻制品
亚麻布制的
亚麻的
lindsey
调遣
用计
反跳
使跳回
纪念的
赛季后
jeremiah
275
玻璃粉
abbas
在炉中烧
翻阅
求教于
完全跟据经验的
经验主义的
粗石
碎砖
粗石堆
啜泣
呜咽
哭诉
哭得使
虚弱地
盖销
抵销
相互抵销
波莉
鹦哥
##emann
拳曲的
卷毛的
弄垮的
受到虐待的
70s
家用录像系统
杰奎琳
给于
舍弃
给予补偿
交纳
吠叫
擦破…的皮
厉声发令
grayson
英国上流社会中衣着时髦的传统女子
使极痛的
##yah
草本植物
亡命徒
好啊
##athlon
将铸成合金
减低成色
合铸
吃吃地笑
咯咯笑
逼近的
臆断
承继
华尔兹舞
圆舞曲
华尔兹舞的
圆舞曲的
跳华尔兹舞
轻快地走动
与跳华尔兹舞
硬拖
##itate
造诣
##ited
洗海水澡
前缀
称谓
##emia
有…深的
##tier
##eis
balkan
##rong
厚片
切成厚板
以平板盖上
##pate
豁达的人
peterborough
双齿/多齿鱼叉
进口商品
进口总额
dickinson
卢旺达
卢旺达语
##atics
1774
短剑
用短剑刺
lan
一块肥皂
##rove
无性系
##rice
照顾者
看管者
战争行动
mclean
##gre
团的
附属于团的
团服
军服
金银财宝
宝藏
珍宝
不可多得的人才
征
把强加于
以欺骗
施加影响
沙皇
探戈舞
探戈舞曲
跳探戈舞
外交
外交手腕
交际手段
各种各样
多方面
多才多艺
各个
个别
杂色
彩色
192
辩认
清楚地认识到
准许某人发言
1779
天的
天国的
天空的
普利策
##dus
材料堆
微软公司的搜索引擎产品
歌词集
##moor
阿黛尔
飞溅
一点儿
溅泼声
色斑
溅湿
溅
泼
使溅起水
使成斑驳状
##rite
长途业务
##izer
未经琢磨的
伤害的
楔子
楔形物
导致分裂的东西
楔住
楔入
买方
##ope
双语的
转变为
被译
高低不平的
崎岖的
conner
uae
伊顿
##gra
##zzle
缓慢消失
苟延残喘
持续看
lockheed
毗瑟挐
再选
改选
阿朗索
##oom
接头
运动付
yankee
大标题
新闻摘要
为做标题
写标题
海因茨
亨氏食品公司
戴桂冠的
用月桂树枝编织成的
桂冠诗人
##sford
重复者
scandinavian
##dham
维生素
行礼
放礼炮
向致意
敬礼
礼炮
micah
雌鹿
商船
##sper
放射性的
有放射能的
##ndra
好斗分子
遭毒害的
批准的
campeonato
穷困的
丧失了受良好教育权利的
漫步
徘徊
在漫游
倚靠人
##dong
前途
##tani
##rix
##eye
蒋
darcy
##oping
曼陀林
香料
药料
情趣
加香料
使添趣味
babylon
182
有城墙的
Afros
非洲式发型
##cap
158
giorgio
缓冲器
缓冲区
缓冲
##polis
行星的
迁移不定的
地球上的
##gis
部分的同时发生
与同时发生
迭盖
终端
接线端子
终止节点
有几分
有一点
一百年
##bir
巧妙地处理
榆树
动能
键入错误
1770
ak
##tad
chrysler
绘制之地图
麋
驼鹿
pomeranian
铅块
四方院子
四胞胎
四胞胎中的一个孩子
成套的四件东西
macarthur
集结
斯特拉特福德
##rted
显而易见的
##evic
顽童
给装上翅膀
##rita
##sque
习惯了的
旅游帐篷
时髦
呷
滤器
滤光片
khz
里诺
luftwaffe
mcmahon
tyne
名著
客车厢
沙丘
用发光信号发出
使闪耀
使张开
动物之鼻口
口套
枪口
戴口套于
##mobile
真见鬼
##rson
有肺的
米德尔顿
联合抵制
有两边的
双边的
双方的
##sity
冒险的
碰运气的
吉隆坡
多人的
多玩家的
照明灯
反光灯
聚光灯
短上装
夹克衫
高曼
王侯
臣下
君主的
臣下的
君臣关系的
瓷器
瓷
瓷制的
碎布
抹布
碎屑
破旧衣服
揶揄
waterford
benz
使喜爱
引起…的好感
具有吸引力
有希望之人
有前途之人
怀抱希望的
保持乐观的
与…作战
巴特尔
巴特勒
巴特莱
长软椅
褥榻
软垫搁脚凳
kensington
烘焙的
烤的
夏安族
夏安族人
夏安语
组合格子
格子状东西
制做格子
使成格子状
莱文
借入
借用
聚合物
聚合体
不协调
麦克
监控
承担的义务
公开指责
通知废止
##25
##von
空穴
腔
##oney
同族的
同源的
##holders
期货
错综的
缠结的
康沃尔人的
康沃尔郡的
小馅饼
##oned
##lag
barlow
淡黄的
微黄的
maddie
luton
##puram
nana
##rds
弄歪
Frances
的爱称
łodz
##rino
希腊字母的第23个字母
疑心
##eding
入会
新加入的
传授基本知识给
charlton
##por
nak
235
分析的
善于分析的
解析的
附属建筑物
附加
并吞
衣橱
衣室
全部衣服
##rma
162
fairfax
树篱
套头交易
用树篱围
套期保值
两面下注以防的损失
筑树篱
躲闪
两面下注以防损失
树篱的
偷偷摸摸的
有细毛的
buckingham
不平坦的
不均等的
鲍尔
单纯
简朴
天真
snyder
负有责任
可说明性
捐赠者
献血者
捐血者
器官捐献者
中庸地
伯德
欧洲大陆
##cite
##max
牙买加的
牙买加人的
砰
报时的最后一声
声脉冲
砰地发声
##uss
mongolian
潜水者
进攻者
抨击者
攻击手
热衷于
热切
意识形态的
用作枕头的东西
令人惊奇的事
非凡的事
种族隔离
左轮手枪
硫
硫磺
用硫磺处理
门诊时间
私人诊所
临床实习
moran
163
##enko
ile
凯蒂
修辞
修辞学
雄辩
##icated
年代学
资料按年月次序的排列
按时间顺序编制的表格
年表
##hrer
加长
显要人物
有权势的人
pascal
配置文件
个人档案
剖面图
资料库
##fare
##rant
matthias
文摘
消化
预演
排演
外斯
指引
reeves
执着的
兴旺发达
使有印象
强征
给人印象
民间组织
非政府组织
##hoff
##ume
buckley
座谈会
专题报告会
专题论文集
规则变化
节律
杂草
野草
除草
除的草
##taking
##gence
##yman
会计人员
会计师
细察
闪动
扑动翅膀
使摇曳
使闪烁
箔
烘托
贴箔于
祭司职
自愿地
以自由意志
##80
##hya
石板瓦工
铺石板者
sv
mcgill
##lde
moreno
##iu
Zurich
苏黎世
Zurigo
Zurab
祖拉勃
Zurr
祖尔
##phic
api
将…驱逐出境
peyton
##ares
求爱者
自治体国际化协会
弟兄们
教友们
插嘴
韦尔奇
助理牧师
galerie
164
##ested
即将发生的
悬空的
招待员
乘务员
蝰蛇
毒蛇
毒如蛇蝎的人
##vina
抱怨的
美好地
漂亮地
白兰地酒
泡沫材料
起泡沫
吐白沫
使起泡沫
nl
1660
##cake
alessandro
打孔
用带子束紧了的
饰有花边的
能说明某事缘由的言语、事实、情况等
##lim
定语
认为属于
阴核
阴蒂
reggie
困苦
不适
##cards
平滑后的
鲸鱼
##cene
阿德勒
反击
还击
duffy
训练的
纪律的
训诫的
食谱
处方
受信赖的人
梯度
渐升的
渐降的
讲道
劝诫
##shaw
matilda
准的
有斑纹的
子午线
经线
子午线的
最高点的
顶点的
科尔多瓦
##agh
##tering
墙上乱写乱画的东西
悬
贴
香客
重说
重复发生
##ych
使苏醒
使复兴
重播
小便
尿
##hawk
有微毛的
易感动的
##hang
mauritius
真挚的
比尔斯
钩子
挂钩
##cki
公断
给出主意
提意见
以鼻吸气
抽鼻子
不以为然地说
研究班
乌七八糟的东西
舢板
处理器
处理机
封色
侯国
首长的职位
校长的权力
校长的职位
首长的权力
用皮绳捆住的
用皮带装饰的
身无分文的
西莉亚
门多萨
everton
富有
成见
使存偏见
使有成见
挨饿的
再指定
汽船
蒸汽机
##lund
缝褶
船尾突出部
打褶
缝褶裥
平衡地
平坦地
领班
工头
陪审长
##ffen
在…里
按照…
在…时候
375
投币口
狭长裂口
扯裂
使有狭缝
纵切
纵裂
##xy
守垒员
liberia
迷迭香
##weed
使电气化
定期
定期刊行
期刊
钾
大步
迈大步走
跨过
跨
投资环境
设备场境
精虫
鲸油
抹香鲸
slade
汇集
bianca
小组委员会
##rane
跌下
溢漏
icao
##nock
苹果手机
##ulata
isa
波希米亚人
波希米亚语
放浪者
波希米亚人的
放浪的
波希米亚语的
餐后甜点
##sbury
傲慢地
自大地
得意洋洋地
放慢
慢化
##chs
musee
耶稣升天
俄国的
俄国人的
俄国语的
##vian
##psy
非洲人
勋绩
##morphic
偏心圆
不同圆心的
螃蟹
脾气乖戾的人
沙果
捕蟹
配克
啄痕
啄食
啄
琢
凿成
勉强吃
##ull
登场
优秀的
马夫
新郎
男仆
喂马
使整洁
穿戴
用螺栓栓的
脱离的
新陈代谢
变态
patton
robbins
送快信的人
伴游服务员
商务载重
工资负担
净载重量
有效负荷
弹头
耐
##ifier
andes
冷藏库
##pr
##uca
毫不留情的
不法的
不合规则的
不合理的
不符合习惯的
无合法身份的人
宣告为非法
证明为私生
砖石部分
斯特拉斯堡
风干土坯
##³
井架小零件
五重唱
五部合奏曲
五部合奏
五重奏
五人一组
五件一套
男子篮球队
欣然地
壁龛
放入壁龛
面包店
##cliffe
##sser
##ards
177
毛靴刺藤
暗褐色的
黑棕色的
白垩系的
白垩纪的
白垩纪
白垩系
棚屋
##yde
andrei
telecommunication
tottenham
绿洲
舒适的地方
授神职
颁布法令
易受伤
易受责难
易受伤部位
主持会议的
主持的
首席的
科里
cp
次级离子质谱分析法
##pis
malawi
撒尿弄脏
尿在上
##48
改正的地方
##cked
##ffle
##ryn
倒计数
精神病医生
精神病学家
引起幻觉的
荧光的
迷幻剂
守旧落伍的人
过时落后的东西
宽松的上衣
##get
蔡
崔
起誓
##oz
胡乱
无目的
任意
随便
任取
无规则
任意地
##pol
49ers
用力擦洗
矮人
渺小之物
擦掉
擦洗干净
进行手臂消毒
非正规球队的
临时凑合的
布兰奇
bruins
dusseldorf
##using
没人要的
不需要的
##ums
212
dominique
的前灯
英国功劳勋章
小池
##oga
1750
极好地
非常令人满意地
愚味
shrewsbury
##aine
创建交互式
Web
应用程序而无需牺牲浏览器兼容性的流行方法
爵士白
铅青铜轴承合金
breuning
邦联
greco
分解检查
翻修
精细检查
彻底革新
大检修
##screen
polyazine
聚吖嗪
短裙
不合
残酷
野蛮
残酷行为
锯齿状的
phoebe
搬移东西者
回避论点者
辅助工
移动装置
病霉
##wes
曼蒂
##lined
##gc
房东
地主
松鼠
松鼠毛皮
虚线
##ι
装饰物
观赏植物
观赏用的
箝口物
箝制言论
讨论终结
压制言论自由
使窒息
使呕吐
插科打浑
作呕
农庄
田庄
字面上的
文字的
字母的
印刷错误
激励因素
策前进
策加速
鞭策
策马飞奔
未泄露的
保持秘密的
不露真名的
身分不明的
诉讼程序
中国思想里的“阴”
中国的殷代
##text
比利
孤儿
无双亲的
孤儿的
使成孤儿
湿度
印第安纳·琼斯
印第安纳波利斯式赛车运动
印地赛车
偏向的
偏重的
突然爆发
琉善
卢西恩
##tary
vaughn
印度斯坦人
##anga
##hell
心理分析
精神神经病患者
精神变态的
精神神经病的
171
daytona
生效
能胜任
有能力
效率高
诡密的
俏皮的
一前一后地
纵排地
纵排的
串联的
纵列两匹马拉的马车
前后纵列的两匹马
串座双人自行车
##oya
给重新命名
重塑…的形象
受损的
家庭娱乐引擎
高情绪表达
韩依依
大都市
重要中心
首府
桃子
桃树
桃色
美人儿
极好的事物
检举
戈弗雷
diaspora
种族划分
美国革命女儿会
重放
重放装置
##rden
##tain
贴上标签的
##cating
172
鲁迪
##onne
水族馆
水草缸
敌意
##gb
##tase
苏门答腊岛
极难
湖人队
辅音
调和的
大众
杀人
胶囊
蒴果
瓶帽
航天舱
齐克
许可权
普韦布洛印第安人
印第安人村庄
##comb
一笔
猜火车
##ddin
##neck
##yna
背离
gregg
模子
霉
发霉
矿层
棚厂
飞机库
oldham
乖巧的人
词尾
分析家
分析师
分析员
romero
##itic
摇篮
发祥地
孩提时代
放在摇篮内
刈割
明亮
聪明
猛砍
乱砍
删减
交火
点球大战
枪战
罢免
宣誓作证
边界标志物
##truct
废钢铁协会
综合科学情报服务
微波
翻滚
突然摔倒
恍然大悟
受庇护的
凯茜
变成狼的人
andersen
中凸的
凸圆的
凸面的
凸状
凸面体
凸面结构
拍手
轻拍某人的背
急速放置
互相紧紧抱
讽刺文学
造成浪费的
消耗性的
埃多族
埃多人
埃多语
vc
鲁弗斯
##jak
蒙特
蒙脱石
##etti
poznan
##keeping
横断物
横向的
##rland
azerbaijani
斯洛文尼亚人
住在同室的人
窒息的
气闷的
透不过气来的
剪下的东西
大剪刀
切变
剪切机
削剪
剪
剪羊毛
##quist
前锋
遗忘的
健忘的
不知不觉的
##hiro
不同意
有害健康
不适合
不符
浸礼
洗礼
##lich
大体育馆
大剧场
大公共娱乐场
##aceae
海上救助
抢救
打捞
抢救出来的财物
兴业
克里
洛克
再布置
变换布置
versailles
阿赫
阿尔
美国曲棍球联盟
肿胀
隆起部
身上的肿胀处
突起的
##elo
快活的
兴高采烈的
##word
##edes
杜松子酒
轧棉机
轧棉
用陷阱捕
sarajevo
妨害物
##nac
弄乱
受过严格训练的
良种的
受过严格训练的人
良种动物
快速跳动
振翼
拍翅膀
乌特勒支
咀嚼
咬住
不停地啃
不停地咀嚼
相识者
行刺者
暗杀十字军的穆斯林秘密团体成员
急件
mirza
##wart
nike
salzburg
隆起的部分
使增大
使上涨
使骄傲
日元
##gee
闲散的
停顿的
无所事事
闲散
空转
使闲散
使空转
空闲时间
ligue
##nds
##igh
爱打趣的
多趣的
嬉戏的
##cise
逗惹
使起毛
##case
burgundy
##bot
激动人心的
怀疑论的
不可知论的
marathi
##dies
火车卧铺单间
捏
撮
挤压
夹痛
匮乏
紧急关头
掐
使困苦
使萎缩
少量加入
引起苦恼
##lik
刺青
纹身
庞然大物
非凡的人
闹饮
驯马人
小鬼
巨型炸弹
数位
锈
生锈
使生锈
##ital
淘气姑娘
产仔
卖弄风情
优先考虑的事
艾迪生
冒充的
##guard
薄暮
微暗的
微暗
核标准情报中心
布道
##psis
##iba
英国电信
##lift
##xt
六月
停战
休战
休止
以休战结束
溜冰场
室内溜冰场
##dah
##wy
瑕疵
精神病学
精神病治疗
违法行为
葡萄糖
##iful
##rized
##unda
弗朗索瓦
##hari
warwickshire
卡莉
1763
纯净
纯正
纯粹
出借物
##cious
若有所思地凝望或说
瘀伤
脑的
大脑的
飞机的
##name
序
绪言
前言
作序
写前言
给作序
以开始
术语学
拥入
必定的事物
##int
无政府主义者
模糊不清的
被弄污的
##iled
rossi
探讨
飞碟游戏
狭道
上海大学
辣味强弱程度
山麓丘陵地带
前陆
民歌
民谣
特别指叙述故事的歌
讴
房屋连地基
上述各项
预先提出
引出
作为的前提
作出前提
塞西莉亚
附属企业
使隶属于
接纳…为成员
为…工作
枯萎的
被破坏的
被咒的
有条件的
有前提的
雄蜂
懒惰者
嗡嗡的声音
无人驾驶飞机
嗡嗡作声
混日子
rudolph
horton
证明无病的
经检验证明无病的
经检验证明无菌的
##hop
howell
primetime
侍从
象肝的
有肝病症状的
有关处罚的
刑的
刑罚的
刑法上的
繁重的
##bis
将减到最少
最小化
水疗医院
迷幻的
制成的
##gling
易拉罐
金属罐
头戴受话器
本地话
用本地语写成的
friedman
胡桃
danielle
##ection
##tley
使干枯
灼伤
##kumar
和弦
贷款给
adj
.讨厌之极的
返回后付款
dracula
加仑
一加仑的容器
舍身
孤注一掷
孤儿院
孤儿身份
##iman
mckenzie
##gible
拳击短裤
四角裤
Disability
Adjusted
of
Life
Years
伤残调整生命年
##balls
##ان
208
##ific
##rative
##iq
用石板瓦盖
##uity
hillary
教务长
监督员
潜象存储器
秘鲁利马机场的代号
冷嘲地
挖苦地
讽刺地
令人啼笑皆非地
小伙子
青年男奴
mohan
接替的人或事物
继任者
usaf
##tem
##ught
自传的
自传体的
豪特
奥特
饯
##ending
无罪开释
203
水力电气的
帮派
cypriot
油井爆破筒
掼炮
铬
铬合金
得自
轻微撞车事故
隆起物
撞倒
颠簸着前进
不安定
不稳定
严命
pets
##mbe
赛拉斯
染料
染
染色
被着色
不介意的
大意的
鲁莽的
不顾后果的
移民者
解决者
结算员
##itation
高温
##writing
176
依教规的
被认为圣典的
权威的
maltese
鳍片
散热翅片
蘑菇形物
蘑菇
暴发户
迅速生长
迅速增加
采蘑菇
蘑菇形的
迅速生长的
史黛西
斯特西
山杨
山杨的
颤抖的
劲头十足的
##kur
##loading
维氏硬度计
加斯顿
山腹
议会立法
王尔德
盖尔
龚
萨宾人
安乐地
舒服地
宽裕地
电单车
##rgo
169
肺炎
魂
接来
取来
售得
推出
取物
##sonic
前外一周半跳
模糊地
朦胧地
平行线
平行状态
匹敌者
##oop
mclaren
康普顿
开矿机
坑道工兵
##eni
181
夹紧
夹住
紧夹住
被抓住
##chal
##llah
可搭配穿着的女服
反的
##mler
scarborough
纽芬兰拾貘
##lity
##osing
跳栏
栏架
跨栏赛
科摩
166
burt
各种不同的
若干个
好几个
##100
wichita
两件或更多的事情同时发生
想法、意见等相同
极为类似
##erson
现代语言协会
混合烷基铅
##pper
葡萄园
##ili
##brush
刻凹痕
用刻痕计算
jase
小桶
锦囊
母鹿
雌兔
##acle
pomerania
##ady
ronan
捕获物
pavel
未定的
疑难的
有疑问的
盖然性的
或然性的
##zaki
domenico
##ulin
承办酒席
佩内洛普
依存
父母亲的
做双亲的
作为渊源的
emilio
部长的
执政的
atkinson
##bolic
clarkson
充电器
战马
科尔比氏干酪
烤架
铁格子
烤肉
严加盘问
给装栅栏
很快地看
偷看
微露出
##aged
##grapher
全体教职员
院
qaeda
##vial
积蓄
再磨光
使清洁
##hwa
geelong
彻底的失败
祸患
轻推
搂搂抱抱
bs
洛里
罗莉
藻类
海藻
使恢复原职
使恢复原有权利
把…放回原处
败坏
烂
使腐朽
使堕落
##ades
##nous
无瑕疵的
不锈的
183
包含的
包括的
##itude
主教管区的
教区主教
芝麻
##icz
##xa
本顿
花似的
花的
暂存器
登记员
##ider
##erman
##kell
荒诞
brunei
广州
打手
打击的人
##uled
##eve
不吸湿的
全日空航空公司
美国地名
新罕布什尔
坚硬性
黏稠度
一致性
##eres
##rner
巴勒莫
播送设备
广播员
撒播物
广播公司
日记簿
记事簿
使感动
使生灵感
赋予灵感
泡制饮料的器皿
ky
mixtape
荷尔蒙
##tok
斯托克斯
##color
##dly
##ssi
pg
##ometer
##lington
环境卫生的提倡/维持
卫生设备
下水道设施
卫生设施
##tility
大陆间的
洲际的
应用服务
##adt
¹⁄₂
经济情况
经济结构
齐唱
齐奏
共同做的
同声的
克鲁瓦
婴儿内衣
odyssey
虚荣心
虚无
时髦的小摆饰
##logists
提高档次
提高的待遇
切成方块
中量级拳击选手
开业者
##ight
206
henrik
小店
客厅的
orion
紫胶
十万
大蟒
巨蟒
突然说出
##rri
肉欲的
感觉论的
打算使
意指
成角度的
##phs
强壮结实之人
爱斯基摩人
有壳的
声音沙哑的
贵族头衔
贵族地位
管理区
纺织面料
纺织品类
cheltenham
拖着脚步走
粗心地做
摆脱尘世的烦恼
直接存取情报
忏悔
尝味
bhutan
##riation
tyrone
偏析
被隔离的部分
唐突的
不连贯的
ruiz
##rish
blackwell
机密的
获他人信赖的
易于信任他人的
browning
相当于
产生…结果
##put
花瓶
瓶
难得的
寓言般的
对…进行突然袭击
主要产物
常用品
主要要素
订书钉
钩环
guyana
失业的
未被利用的
滑翔员
滑翔机
二轮的轻便马车
##tow
胭脂红
洋红色
胭脂红的
洋红色的
参加轮唱
曳绳钓鱼
高唱
用曳绳钓
钓绳
压碎的东西
南瓜属植物
拥挤的人群
压扁
被压扁
发溅泼声
超级明星
##uce
圆柱体的
圆筒形的
伦恩
做研究
得出所预测的结果
从事…的研究
为…而做研究
便利的
容易取得的
##rium
##jana
老挝语
老挝人
板球宣布结束赛局
##rring
##tadt
##elin
##kova
willem
napoleonic
溜冰者
质量指标
大众汽车
##ł
小孩子
双曲绝对风险厌恶
考古学家
笨拙地
无技巧地
怪诞的
令人迷惑不解的
##kind
wiley
##heimer
##24
titus
组织者
备忘记事本
电子笔记本
cfl
十字军
十字军战士
喇嘛
通用串行总线
排气口
通风孔
给开孔
使暴怒
歜
激愤
欣慰的
购买者
租赁人
maximilian
##gaard
课本
##oran
合干者
合作者
通敌者
贵格会教徒
##ulo
崩塌
大量涌至
单声道的
isaiah
蜂拥而出
使强烈地感到
波拖马可河
世代相传
cl
plato
尽量利用
尽全力
saturdays
##olin
bernstein
##ype
荷兰的一种乳牛
黑白花牛
马尾辫
##watch
伯利兹城
逆
颠倒
反题
反
巾帼英雄
烈妇
女主角
无期限的
没完没了的
四季开花的
##ylus
山麓
欢乐
背景幕
开场白
序言
序幕
为作序
加上前言
##jah
##mmy
pasadena
ramos
sunni
##holm
##tner
##tri
anand
hertfordshire
矮胖的
矮胖子
烈性啤酒
##avi
孔径
金莺类
白头翁科的小鸟
##irs
doncaster
被迷住了的
搞阴谋诡计
激起…的兴趣或好奇心
遭到轰炸的
涂层
上衣衣料
奥蒂斯
##mat
开味品
鸡尾酒会的
##jit
##eto
奋发
sar
##proof
##act
##ories
美国南部各州
pots
##bow
下落
所在之处
在何处
159
##fted
下水道孔盖
流尽
威逼
豪
跋扈
村舍
圣经的一节
圣经的一句
互相耦合的
明了的
凝聚性的
在船头
载货港
进口港
##uration
取样的
##ators
##dp
转子
旋筒
转动体
松鸡
橿鸟
孔雀
好炫耀的人
神气活现地行走
装设
分期付款
##rro
指导教授
##coming
竞技表演
scotch
##mot
##db
##fen
##vant
接着发生
因而产生
rodrigo
独裁者之职位
独裁
独裁政权
殉道者
殉教者
乞怜者
二十几岁
一生中20至29岁的十年
二十年代
##н
拽
发生率
负担者
入射
倾角
marta
社会责任国际组织
单指针自动同步指示器
有鳞的
瓦片迭盖的
栉比鳞次的
##cles
海洋的
产于海洋的
在海洋中生活的
已取得资格的人
修饰语
交响乐的
交响性的
和声的
mcbride
不喜欢
广义的
无显著特点的
aubrey
##iation
##lion
##ssing
卢布林
售货员
推销员
##ulates
球的
球面的
球状的
天体的
avalon
所持的论点
方头平底船
踢悬空球
赌博者
用篙撑船
激烈
市政委员会委员
高级市政官
atari
##dina
##grant
##rop
领巾
嵌接
用围巾围
塞维利亚
至高点
天顶
头顶
fairfield
令人着迷的事物
鼓舞人心的
palatinate
后悔的
##rca
野兽的
##iom
麋鹿
小睡
稍睡
细毛
疏忽
使拉毛
打盹度过
预测为获胜马
奥尔森
reddy
勇
##leader
##iae
衣装
传输协议
冯
gracie
凌辱
触犯
心纸
花边机综合特征
##esis
格雷迪
编制者
组织导体
扮鬼相
222
壁画家
galicia
向量
##rsten
BASIC程序
##sb
##cens
斯隆
麻省理工学院斯隆商学院
##eka
bite
非洲铁路协会
机载雷达附件
挡泥板
反胃
晕船
恶心
凸状的
波壮刃短剑
亲密的伙伴
战友
发现者
检验器
检波器
##llan
捐钱
使天生具有
##shot
sellers
##uman
看一眼
epa
爽快的
亲切地
漏做
辛普森一家
如爪的手
魔爪
爪饰
陵墓
阴森森的大厦
逃走的人
压倒性的优胜
逃亡的
逃走的
朝鲜语字母表书写符
##cic
发出刺耳的噪音
知晓的
有知识的
熟识的
氯化物
##ald
快些
手风琴
新石器时代的
##qa
artemis
lenny
pandora
tx
##xed
心醉神迷
忘形
轿
担架
乱丢
铺草
乱丢垃圾
segunda
无性芽
芽体
嘘声
嘶嘶声
发出嘘声
发嘶嘶声表示
郑重宣言
立誓
起誓要
郑重地宣布
鼻的
鼻声的
鼻音
鼻音字
antioch
付报酬
耐心地
有毅力地
transformers
##eded
柔道
次日
遗腹的
死后的
盗贼
土匪
色彩鲜明的
##any
##phones
贴板球
1760
walters
##uo
##kle
州长的
统治者的
脂肪的
含脂肪的
三星电子
leroy
被剥夺法律保护的人
使失去法律保护
将逐出社会
宣告非法
##nine
未公开出版的
未发表过的
普尔
jakob
##ᵢ
##ₙ
克里特岛
歪曲的
受到曲解的
优越
高傲
##dhi
截距
坚硬外皮
面包皮
盖以硬皮
结硬皮
mig
撞毁
撞坏
猛冲直撞
发出巨响
188
301
额的
额骨
祭坛帏帘
##estinal
埃尔顿
合金结
骆驼
打捞浮筒
疟疾
瘴气
森林管理员
小牛
小牛皮
腓肠
雪茄
看穿
洞察
使充溢
打进
##oso
威拉德
##rno
##uche
作图解
阐明
引人发笑的
收敛
值得注目的
##lma
##rva
历程
体会到
认清
变卖财产为现钱
manfred
##sable
410
##vocation
听力所及的距离
听证会
##posed
教育工作者
引发
##cturing
模数的
有标准组件的
stockton
paterson
弗拉德
不良品
选矿废渣
尾矿
有选举权的人
哭泣的玫瑰
萨琳娜
莫林
##tres
##rce
打旋
##num
母山羊
抵押物
兵
马前卒
当掉
以担保
自然主义者
parma
使徒
早期基督教的传教士
摩门教教会的十二个行政执事之一
倡导者
awake
埃塞尔
粉瘤
拥挤不堪的城市
##bey
季风
吹季风的季节
概述
概观
总的看法
##inating
麦凯恩
被修饰的
##ih
骑术的
马的
骑在马背上的
germain
新泽西
使有效
##yoshi
##imeter
里程石
里程标
风闻
表征
代币
表意的
##bei
##shore
##iable
尼禄
##leaf
ismail
妓女
男娼
使沦为妓女
卖淫的
有轨电车
##lace
布丽奇特
圣布里奇特
突然意外死亡
刺激品
观感
肾脏
肺腑
细想
##oud
##gned
银行直接转帐制度
蜜月
蜜月假期
渡蜜月
##swell
##sms
##uil
libyan
选择某事物
##osition
211
事先查看
预览
不好
差劲
突然发作
突然打开
隐喻
有耐力
法耶
电影摄影技师
放映技师
礼拜仪式的
特殊的人或事
特刊
降价
怨恨地
残酷地
humboldt
##ckle
使熔融
慌乱的
激动得不知所措的
##itzer
授权的
处理权
##ов
焦虑的
惊恐的
古体的
倒转的
反面
##leton
探索者
集合对象
##pine
drummond
海啸
woodlands
##minate
##tland
愚顽
精神错乱
服从于
添写
手工制作
微积分学
##tore
无限电接收机
官方接管人
##bt
sting
##eca
##nched
盛行很广的
优势的
旅游者
##borne
178
julien
##won
士气
适应的
能适应的
治疗学家
欧石南属植物
cw
自由意志主义支持者
行动自由者
自由意志主义支持者的
主张个人思想的
弓射手
持弓的兵
船首的划手
斜度
把…定于特定角度
##ional
##ads
##entation
caledonia
叛变
兵变
##sible
1840s
自动化
自动操作
##ß
鸟群
棉束
用棉束填满
##pia
冷嘲的
挖苦的
反话的
令人啼笑皆非的
病理学
病理
病状
病变
##imus
再婚
与某人复婚
##22
诙谐者
巧计
抵住
顶住
经得起
##att
shropshire
madeleine
试验性地
权
聊且
冲突的
不一致的
相矛盾的
马泰奥
马特奥
烹饪法
欧洛斯风
带雨东南暴风
ol
雇用的
为钱的
唯利是图的
雇用地
唯利是图地
nico
##ndon
阿尔伯克基
增音的
扩张的
增广的
神话的
存在于神话中的
神话式的
幻想出来的
bel
佛洛伊德
##child
##lica
365
freddy
莉莲
nuremberg
考尔德
209
bonn
野外活动
在户外
在野外
面团
面食
浆糊
糊状物
用拳重击
用浆糊粘
张贴
狠狠地打
太阳队
紧急
tyson
##cera
##selle
弹幕
掩护炮火
以密集炮火进攻
bethlehem
##par
加载的文件系统
日本
男爵领地
男爵爵位
更快乐的
更幸福的
Ryukyu
琉球群岛
Ryukyuan
琉球人
琉球民族
权宜之计
临时代用品
权宜的
临时代用的
谢尔登
castillo
收听者
录播
压胶
流利的
大字标题
新闻提要
色情描写
黄色书刊
色情画
色情照片
色情文学
朗姆酒
揭发的事实
狼牙棒
权标
执权标者
双重
折迭
重合
折回
防护板
加强板
巩特尔
象男人的
适于男人的
##plex
rt
干预
生理学的
生理学上的
生理机能的
今后
露头
##tooth
##gny
恭维
褒扬
肋状物
装肋状物于
凹处
看得见地
用船运输
闯入
连结者
联系者
细腻的
地方行政长官
##rlin
屋子与花园之间的一片供晴天休息用的石砌空地
##cured
粮仓
勃兰特
斜体字
173
黄蜂
胡蜂
易怒的人
刻毒的人
缎子
绸缎做的
缎子一般的
ea
博茨瓦纳
值得尊重的
人格高尚的
相当数量的
品格高尚的人
##jima
##rter
##oic
franciscan
生成
##dl
alfredo
令人厌恶的
##olate
##iously
舍伍德
鳕
商品广告
商品推销
谢丽尔
中国人的
中国的
##ة
##escu
抽搐
阵痛
##zhi
呈褐色的
托姆
ortiz
##dron
浓密地
浓厚地
##beat
carmel
增援
求援
得到增援
加固材料
##bana
187
阿纳斯塔西娅
下坡的
下坡
向下
最高点
受污染的
弄脏的
纪念品
和谐的
音乐般的
泛音
谐波
家庭作业
家里做的工作
##sol
未婚妻
传动装置
老者
当归属植物
鸽房
楼上
储存于阁楼上
将球高击
ramsay
课堂测验
智力测验
煤矿
七年之痒
想找个新的性伴侶
##cape
孤独症
##hil
走道
##boats
鲁本
变态的
畸形的
畸形的人
雪豹
khmer
##bbe
圣扎迦利
扎卡里
床边
床边的
形态学
词法
##olar
麻雀
使明白
##35
hewitt
搞糟
重新灌录
棒条体
鱼竿
梅布尔
郑重的
抒情诗人
歌曲作者
对称的
均匀的
##xide
174
再演唱的要求
要次登场
再演唱一次
要求再演
保障
野猫
脾气暴躁的人
##uni
包姚
##pac
和善地
##ease
农产品
有用的物品
土堆
土丘
一大堆
##omo
damian
前奏
序诗
前奏曲
作为前奏
作为的开头
抱负
渴望得到的东西
追求的目标
夙愿
##vet
极小地
极细微地
##aud
坚持自己的主张
##iques
矫正
修缮
##dded
挡风玻璃
达尼
丹尼人
箫
##endra
听得见的
动力装置
1300
残废者
元素的
获得者
图书资料的获得
##hala
无污点的
无缺点的
无辜的
莉比
plata
走私
空气流通
公开讨论
minh
##morphism
430
聚脂
凯利
凯莱
嘲弄的
sabbath
钉鞋
卫生学
保健法
淹死
把淹死
径流
决定性竞选
程式化的
按固定格式的
符木
记账
计数器
对应物
点数
吻合
解放的
aux
直译程序
解释者
口译者
注释器
正义的
宽大无袖长袍
驼毛织物
女海妖
妖女
迷人的美女
诱惑的
响着警报器前进
收割者
收割机
pearce
米莉
##cier
##yra
gaius
##iso
##ttering
宿舍
claudio
##sic
长凳
议员席
场边的运动员休息区
奈特
黑
##ored
折扣
贴现率
打折扣
贴现
笨拙的行动
漏球
乱摸
笨拙的处理
漏接
笨手笨脚
氧化
已选择路径
##ς
novak
垂直线
垂直的位置
刚正
垂规
spoil
骨折
劈叉
##urt
波纹细丝带
眼镜丝带
地志学
拓扑学
局部解剖学
##cats
轴线
冒犯者
犯规者
妨害…的人
新教徒
221
召开
带猎犬狩猎
使追逐
技术原型
雏型
isil
使便利
帮助进步
龙骨
平底船
装以龙骨
使倾覆
##sher
sahara
将发生在
好老弟
成圆形
成球形
告发人
起诉人
186
折边
缝边
做折边
520
##xing
令人轻松的
残余的
romney
分选的
挑选的
障碍滑雪
stefano
ulrich
##active
免税
折纸机
折叠式书本
延长记号
暂停键
希契科克
204
批判
##aca
弹道的
brody
hinduism
无秩序的
相同或相等的人
##pala
pts
稠化剂
增稠剂
粗的
粘稠的
资本家
资本主义者
资本主义的
临时准备的
即兴的
无意中看到
sinatra
##tl
##kon
curran
##west
木香
本香
325
归纳出
不得人心的
不受欢迎的
不流行的
##kk
漫画家
熔凝的
##mble
##yuki
##cko
##ln
darlington
slay
爱琪美
为了支持或抵制某项特定目标游说
沉积
智力游戏
游戏拼图
谜题
##grass
蔑视
载货单
运货单
旅客名单
舌头
舌状物
鞋舌
藤架
心轴
凉亭
184
appalachian
mustafa
检查人
审查人
主考者
卡巴莱
卡巴莱歌舞表演
外伤的
创伤的
yves
手镯
排水的
滤水的
海洛因
吗啡
公共澡堂
公共游泳池
浴锅
浸没
洗澡处
澡盆
浴缸
电镀槽
定影液
odessa
子音
辅音字母
mitsubishi
##gua
kellan
轻歌舞剧
##fr
闹着玩
说着玩
null
打包带
缓刑
##ław
让给
割让
接口
##pas
##zawa
使人眩目的
使人失去判断力的
碎石子
越南
224
rothschild
museololgy
博物馆学
museological
博物馆学的
museography
博物馆技术
museologist
博物馆学家
640
huddersfield
##vr
一项战术
一条策略
顺序的
排列的
##storm
方括号
舱口围板支架
头昏的
眼花的
不适当地
##vu
reg
像玻璃的
上过釉的
呆滞无神的
复印本
多种
多种的
有许多部分的
复写
反语
具有讽刺意味的事
##sun
障碍的
##rte
乐意
心甘情愿
balkans
技术细则手册
金属工程学会
外衣
书刊检查
##aba
##lea
关岛
syed
无害处的
未受损害的
无恶意的
##hammer
驴叫声
嘶叫
罂粟
timor
薄纸板
太空旅行者
宇航员
普杜大学
哭泣的
滴水的
泪汪汪的
垂枝的
向南行的
向南行驶的
戏院正厅前排座位
前座观众
对角线的
斜纹的
对角线
斜线
斜列
##neer
拉马尔
bryce
在每个周日
在平时每天
harrington
##uba
否定地
消极地
##see
分组
##cken
##henko
收到来电
肯定
哈雷
现代主义者
现代主义作家
##lai
hodges
闻到
觉察出
主张贵族统绐的
有贵族气派的
受洗礼的
施洗礼
使经受考验
给…名称
解职
证明正当
释罪
加油工
##now
联结
耦合
秦
小吃
点心
快餐
吃快餐
医治者
治疗物
##qing
园丁
花匠
园艺家
蕾拉
有雉堞的
有城垛的
构想出
确切地阐述
用公式表示
斯蒂芬森
重力的
##gill
##jun
1768
老婆婆
婆婆妈妈的人
唠叨挑剔的人
接生婆
餐厅套件
##cd
##ioned
##cote
##hips
sep
blend
apr
出庭律师
fia
迈纳
患妄想狂的
患偏执狂的
患妄想狂的人
##pressed
教堂墓地
教堂庭院
树丛
弄皱了的
被扭弯的
徐行
蠕动
tr
发射信号
留传下来
翻转形态
敏捷
尖塔
尖顶
锥形体
给加塔尖
##cology
##enia
##erry
610
令人吃惊的
开的锁
被开启
维达
参加保龄球赛
插槽
老虎机
##nat
##islav
以规定距离排列的
间隔排列的
隔开的
轻信的
深信不疑的
帆装
装扮
给船装帆
##ink
淡季
家常裤
松弛的
不流畅的
疏忽的
漏水的
马虎地
缓慢地
使缓慢
##70
mv
207
##wei
同学
砚兄砚弟
##odes
##rar
##rked
amherst
有家具的
使发展
使推断出
使进化
铸造厂
铸造类
胁迫
威吓
蜂蜜酒
##lein
流感
流行性感冒
卫斯理公会派的
约翰卫斯理的
##kled
monterey
webber
##vos
减轻颈部伤害
##mith
##на
bartholomew
法律制裁
##cke
令人愉快之事物
191
脏水
污水
深沟
地沟
ml
mainz
##thus
1800s
##cula
##inski
屏蔽接地
搭接
213
圆球
玛丽安
土窖
地穴
出汗的
海军少尉
historia
##br
云杉
颇为干净的
俏的
显干净
打扮整齐
##post
##ask
餐叉
车叉子
沉思地
体贴地
活页文选
ames
##uter
因果报应
##yya
bryn
无能力的
##mbre
##ntial
塔夫脱
##mill
白斑狗鱼
盛行
被接受
##amine
1773
外交使节
特使
梳
provence
cullen
马背
在马背上
骑在马上
##while
goodwin
##jos
ground-aided
acquisition
地面辅助接收
##ldon
被修改
波长
214
具有皮肤的
具有肤色的
没有草皮的
短跑选手
预想
行程安排
时间表制定
方格的
成正方形的
##chman
boer
##isch
螺栓
膨胀锚钉
角钢螺丝
毛边书
以货易货
钓鱼者
assyrian
忍受不了
急躁
guthrie
martins
murdoch
194
塔尼娅
恰好地
捣棒
移动车
用移动车移动
丝带的
花边状的
med
##45
syn
舱板
上流社会的
百万富翁
大富豪
##ust
冲浪运动
##ml
##ision
举
一种便帽
棉经毛纬平纹呢
滤汁布
领事任期
领事馆
日常
乏味
例行
197
保险丝
萨克斯管吹奏者
后座
次要位置
malaya
##lord
愁容
阴沉脸色
绷着脸
希腊字母第19字
##ishly
193
有视力的
不盲的
##rks
303
911
##holes
##hong
实验用电子控制自动转换
##wife
祈佑
使神圣化
保守的
jurassic
史黛丝
unix
锡安山
耶路撒冷
基督教会
天国
矮胖的人
严酷的
苛刻的
blaine
198
屠宰者
使惊愕
使气馁
啤酒制造者
nz
##jer
det
##glia
做手套/卖手套的人
战后的
int
识穿
sylvester
效法
冒充
赝品
垂直地
空中补给线
空运物资
嗣女
女继承人
诺克斯维尔
口头测验
##uin
390
羊肉火腿
马孔葡萄酒
##rim
##fighter
##gonal
贾尼斯
##orescence
##wari
marius
相关事物
leicestershire
196
blanco
活跃季节前的
旺季前的
神智健全
头脑清楚
通情达理
##due
##elt
##dled
collingwood
摇曳的
##mount
##osi
女权主义
男女平等主义
##lat
橱
小房间
展览艺术品的小陈列室
摸索或处理
笨拙地弄
使落下
北行的
先例
前例
四合扣
饰片类
##mme
##akes
guillaume
眼力
深刻见解
熟练控制
汽
蒸气
使蒸发
邻接的东西
邻座
邻人
与结邻
树液
坑道
消弱
使排出体液
使伤元气
使衰竭
挖坑道逼近
逐渐侵蚀
挖坑道
歹徒
frey
f1
潜行追踪
简直不
一定不
考利
barnett
极端派别
奥迪公司
奥迪汽车
sling
村务委员会
五人长老会
不明确的
模棱两可的
bartlett
##etto
wolverhampton
##hetic
##urus
应负责的
一磅重的东西
捣碎者
杵
捣具
重磅的东西
腹股沟
交叉拱
侯赛因
larsen
使诧异
意外发现
##atter
争
争胜
提出来竞争
以作较量
##station
哑子
哑音字母
弱音器
减弱的声音
排泄
重新安置
再配置
放在新地方
音乐剧
里克特
##sef
不灭的声望
四硝基苯胺
瞬态网络分析器
##press
恶化
yiddish
##acious
使丧失
colchester
cs
pmid
ao
已查清的
已证实的
基督十二使徒之一
早期基督教传士
影响、改变…的观点
可认识的
可承认的
可识别的
oxfordshire
留置
保持力
保留物
固位
nottinghamshire
争论者
斗争者
贾德
邀请的
虾
小虾
捕小虾
uhf
##icient
清洁工人
清洁剂
干洗商
经度的
经线的
纵的
坦克手
油船
空中加油飞机
运油飞机
油槽/水槽汽车
##mur
首字母缩拼词
首字母组合词
koppen
sundance
##gil
4000
省略一部分的
发音清楚的
供给燃料
小个子的
娇小玲珑的
娇小的
##anne
海琳
人口多的
人口稠密的
土地拥有者
梅尔维尔
梅尔维尔湖
数量的
定量的
##xes
摆渡
飞机渡运
渡过
渡运飞机
用船渡
来往行驶
妮基
##llus
豆儿
常浮现于脑海中的
不易忘怀的
瑞士罗氏
雕刻匠
雕工
切肉刀
得不到的
不能利用的
##pathy
近似值
hiroshima
##hue
加菲猫
加菲尔德
威莱
巴列
键盘乐器演奏者
活动起重架
行车
临时记帐单
##eit
充血
专为自己打算的
深谋远虑的
附属事物
##bate
serb
现代化
仙人
小仙子
小精灵
变深
加深
加浓
平均水平
平均率
平均估价
##lore
煽动的
炎症性的
##itch
co₂
小组
体育运动的运动队
警察队伍
##hea
巨人般的
浆液
血清
乳清
零售商人
传播的人
维罗那
35th
cis
##phobic
麦格纳
技术员
##vati
算术知识
##sport
##dation
美国铁路公司
黄褐色颜料
赭色
##eyer
在后台
向后台
企业家能力/职能
##otic
learn
tao
##udy
worcestershire
系统陈述
公式化
配制
踌躇的
犹豫不定的
bali
怠工
破坏活动
从事破坏活动
##kari
不育的
贫瘠的
用计算机增强
提高…的价值
探溯语源
指示语源
低声的怨言
低声而言
pl
新近
精神饱满
putnam
句法
语法
句子构造
aces
内服药
医术
愤恨
频带宽度
通带宽度
##sier
露齿笑着表示
干辣椒
辣椒粉
guido
##sei
gareth
lissa
genevieve
与…有关的
长狭潮道
小乡镇
增殖
自对准厚氧化物层
分歧处
分界点
离别的
逝去的
##gor
弄醒
##isman
挤在一起
保密
##kling
肃静
缄默
别作声
贵族们
540
##ego
##utz
##chule
互相地
互助
普遍
程序员
青春期的
青少年的
海边的
海滨的
哎呀
向右转
照管
受托基金机构
认为可靠
鞋面
荡妇
捏造
即席伴奏
勾引男子
georgie
##nesian
##iol
待办事项
日程安排
sindh
##market
被侵蚀的
被蚀刻的
hm
稀稀落落的
土耳其对要人的尊称
划伤
刮痕
游动的
滑顺的
未被认出的
未经确认的
216
jesuits
oro
积聚物
mbe
肛门的
肛门附近的
##xin
231
热心人
热衷者
新闻广播
##egan
janata
dewey
帕金森
179
ankara
两年生植物
两年一次的事
两年生的
两年一次的
高耸的
dd
前后矛盾的
950
##chet
兴旺的
繁荣的
有结尾的
满期
使结束
小木屋
驾驶舱
隔间
设备准确度测试站
驴子
顽固者
辅助发动机
辅助泵
marley
应召
菲利斯
莱顿市
莱顿
##user
牧草地
光辉灿烂的
光彩夺目的
炫耀的
iucn
寂寞
孤独
清静
217
外交备忘录
交易备忘录
##ddle
普及
使通俗化
使易懂
rhodesia
60s
跛足的
僵痛的
金属薄板
不知内情的人
使成残废
使无用
##illon
大爆炸
比基尼泳装
收割台
顶梁
域名
势力范围
在…轨道上运行
环绕轨道运行
##xx
##finger
##ulator
sharif
脊椎
书脊
生物工艺学
生物技术
顽皮的
没规矩的
yates
##wire
fremantle
##mour
引语排版
差距
##atin
发嗡嗡声的
哼着唱的
热气腾腾的
起泡的
奇境
仙境
非常奇妙的地方
##chrome
##ester
休姆
枢轴的
起中心作用的
##rates
armand
信仰者
选举人
rte
围裙
bis
刮掉
##yria
背书
姓名中的大写字母
缩写
##llation
eps
有点的
星罗棋布的
嗡嗡响的
营营响的
移居外国
较近
##tom
指示物
转弯指示灯
指示信号
##ulu
下等的
中子
摄政职位
摄政政体
##uze
loire
1830s
guggenheim
穴兔
里奇
305
hutton
##raz
查证
校验
##ako
烧水器
水壶
经度
##lev
框架的
emilia
柑橘属果树
##gau
口袋妖怪
段落
将分段
分段落
写短讯
eduard
cadillac
盛装
把…列作
肯尼亚人
查理
##bourg
怀抱
蒙默思郡
##lles
营养物
营养品
davey
网孔
网丝
网眼
以网捕捉
使缠住
落网
相啮合
激励的
屈服的
overhear
##rya
亲自
maxim
##nius
学徒身分
见习
厄休拉
##fight
暂住
埋入
小块地毯
揭露某人
silesian
违反宪法的
不符合宪法的
patel
丛林狼
未曾挨打的
未搅打的
未走过的
未被击败的
##hak
34th
宣告有罪
使知罪
局部地
##cl
##nham
煤矿工人
运煤船
运煤船员
密切关联的
牵涉其中的
马洛里合金
##iac
##lab
susannah
winkler
##rber
什叶
什叶派
费尔普斯
沉积物
图的
图示的
书法的
绘画的
雕刻的
机器人的
像机器人的
##sner
商业中心
熏制的
##isto
kathryn
使清楚
使清醒
##aran
产生分歧
判罪
压抑
沉闷
压迫手段
##mt
federico
mathias
艾琳
##tana
风筝
筝帆
象风筝一样飞
轻快地移动
使用空头支票
使上升
骗钱
耸肩弓身的
伏首前倾的
##acies
189
##atz
不利
坏处
liza
运动引起的
动力学的
活动的
贪婪的
贪得的
贪吃的
似非而是的论点
自相矛盾的话
悖论
怪人怪事
横滨
继承遗产或爵位的寡妇
男用运动短裤
男式游泳裤
##gement
gupta
vilnius
奥拉夫
##thest
克里米亚半岛的
跳跃的东西
单足跳者
跳虫
##ej
先进
向前进
不断前进
累进
渐进
逐渐
渐次
主张进步
进行性
arturo
装腔作势地说
法国的行政区
##fusion
同时联播
oceania
##orum
##stra
##rred
最忙的
剧烈地
航海家
卡里
##vine
##hini
##bies
吹横笛
罗
通风井
法律诉讼
使活动
使激活
正式建成
有活力
conor
向内的
本来的
从文化角度
文化意义上
在人文学方面
大蒜
265
##eering
折衷主义者
折衷的
##hui
##kee
##nl
犁田
vargas
气象的
气象学的
约会地点
在约定场所会面
##aus
厨房的
烹调用的
毕业典礼
##dition
配额
##notes
妈咪
骡
倔强之人
##iology
##mology
算术题
wentworth
##isk
##zione
主线
把直接注射入静脉
小群
隶属的小组织
子群
##illy
砍痕
干咳
晒架
用旧
驾驶出租车
出租的
原告
verdi
球茎
电灯泡
分化
变异
订婚
多国的
跨国公司的
跨国公司
bertrand
召集员
传唤员
里吉斯
##naire
##sler
##arts
##imated
花开的状态
兴旺期
兴旺
高架桥
##uate
beckett
最佳化
最优化
打高尔夫球的人
歌词作者
歌曲的词曲作者
精液的
种子的
semitic
砰的一声
砰的一声掉下
嘭的一声
挥发性的
爆炸性的
有翅动物
挥发物
##wley
不重要的
分配物
scandinavia
jiang
##ject
扭成一团
扭打
##dio
餐巾
餐巾纸
尿布
##ods
韵
使押韵
用韵诗表达
##ricted
##eti
无希望的
绝望的
不可救药的
挡板
环绕物
32nd
冒烟的
满是烟的
熏脏的
烟灰色的
##ntly
有装填垫料的
脚底有厚肉的
驾驶指示
威尔克斯
219
255
特许权
减价
色度
色彩
珍奇地
blind
landon
人面兽心的人
乡愚
粗汉
##lane
hendrix
电信电话公司电子交换器
详列
雏鸡
##ggio
城市间的
1400
morley
##torm
##oting
使剧痛
不光明正大的
躲躲闪闪的
失速的
##liner
打情骂俏
新生的
1769
主教的辖区
shave
232
currie
##ush
达摩
spartan
##ooped
收藏夹
自以为是的
自鸣得意的
书呆子
自命不凡的家伙
短篇故事
中篇小说
妖冶而危险的女人
危险的诱惑
塞壬
恶言谩骂的
被滥用的
虐待的
espana
##lage
词形变化表
纵聚合关系语言项
半导体
光彩
发出光泽
##rdo
##yen
##zak
normal
rated
load
正常额定负荷
使更新
##pose
##tur
norma
##enity
weimar
呼噜声
##gat
贵族身分
标绘
用光
消费额
违犯
重复的话
叠句
副歌
av
被误解地
邮政局长
1771
##bara
ras
赛车运动
摩托车运动
提托
199
主观的
##zza
欺凌弱小者
土霸
特好的
炖
热浴
妓院
焖
##kaya
普莱斯考特
1a
##raphic
##zam
商业智能开发工具集
本迪克斯综合数据系统
款式
超过正常的
超过科学可知范围的
地方长官
穿
偷偷逃走的
卑微的
驳倒
katz
akbar
无期限地
##ogical
放回原处
鼓掌
##phine
令人讨厌之物
有害之物
害虫
##fide
218
铰接式的
组织缜密的
有关节的
伯蒂
##thing
##cars
##ptic
审判室
crowley
美学
cummings
激素
性激素
荷尔蒙制剂
titanic
不安全
##ibe
stadion
jaenelle
auguste
ciudad
##chu
迈索尔染色棉布
迈索尔
党人
帮伙
##sio
lucan
philipp
##aly
亨里
里面
##rano
##tious
归国
省亲回家
同学会
碧昂丝
引座员
作招待员
汉丽埃塔
使有准备
##oman
伊利
采
拔掉
##pire
##dable
放纵的
##aq
人工制品
口令
通行手段
吃草
juno
马迪
明斯克
##dder
##ologies
##rone
martian
保皇党员
顽固分子
保皇党的
1765
##mani
##rge
尼诺
223
闪避的回答
抢先报道
抱起
抢先获得
用铲
相关性
相对性
##eli
##uting
##cao
会众的
公理教会的
嘈杂的
横贯
详细研究
在来回移动
横亘的
横贯的
##agawa
strikeouts
五分钱娱乐场
一种旧式自动点唱机
关于死亡的
讣告的
讣告
特兰西瓦尼亚
捆绑
台车
用手推车运
##yed
##lard
饲者
种畜
##under
冷淡地
枯躁无味地
北海道
1762
长处
强项
进程堆栈应用
bonaparte
近
卖淫者
男妓
滥用才能
糟蹋自己
出卖肉体
盖上邮戳的
铭刻的
顿足的
阿纳海姆
古铁雷斯
西奈
##zzling
bram
夫勒斯诺市
madhya
##86
质子
##lena
##llum
##phon
重选
wanda
##anus
##lb
有区别的
##yler
握的
讲道文章
一大通教训
番茄
西红柿
乏味的
林阴道
##eux
桌布
scarlett
蕨类植物
五角形
五边形
坚称
baird
chesapeake
ir
镇定
使安静
使冷静
使镇定
恶性事故
致命性
##olis
改正的
矫正的
##astic
##gina
散步道
真他妈的
Yinglish
搀杂意第绪语词语的英语
意第绪式英语
##chia
次中量级拳击手
次中量级摔交运动员
33rd
教鞭
以债券作保证的
存入保税仓库的
对进行仲裁
当的裁判
当裁判
桨
划桨
明轮翼
戏水
用桨划
划船运送
搅
拌
##obe
同盟地
联邦地
联邦政府地
亲密
熟悉
亲昵行为
##insky
苏维埃社会主义共和国
二次监视雷达
小型潜艇反应堆
##lett
##lean
##lves
##therapy
空中客车
##tery
有或起作用
水下爆破
联合乳品公司
带信人
票据持有人
搬运者
生物医学
全球十大视频网站中唯一收费站点
##hire
##nca
避孕套
陡岸
钾电流
反向动力学
##nical
梅西
##bet
飘
拍打声
片状垂悬物
鼓翼而飞
普通微处理器体系结构
食品加工协会
甲基丙烯酸缩水甘油酯
做实验
进行试验
果冻
果冻甜食
胶状物
结冻
成胶状
熏衣草
淡紫色的
用熏衣草熏
##icles
##ulia
munro
##mian
##tial
黑麦
吉卜赛绅士
##rle
60th
轻便两轮马车
演奏会
最热门的
预言的事物
fuji
##erence
##omi
barangay
##fulness
##sas
钟表
##rwood
##liness
谷类食品
谷类植物
谷类的
狍
鱼子
鱼卵
wight
装饰者
有层甲板的船只
有层面的车辆
以口发出声音
相当于Mr或Sir
洋葱
因洋葱使掉泪
可扩展标示语言
强制地
用力地
##df
petra
讽刺话
讽刺性
hartley
剥去皮的
说故事
说谎话
##42
##xley
##ysis
##ffa
基尔
审计员
听者
旁听生
无花果
使马跑快
harald
格林维尔
##berries
内尔
石英
##athic
##lr
交叉口
很小
holloway
爬行类
爬虫类
爬行动物
sichuan
多雪的
雪的
被雪所覆盖着的
下雪的
660
改
##ivo
郑
硬书皮的
硬封面的书
精装书
半圆酥饼
周转
可翻转的
melvin
##erton
ro
斜齿鳊
使成凹状
非常有趣的
西班牙人
西班牙居民
colton
##founded
外人
非会员
比赛中获胜可能性不大的选手
间谍活动
kelsey
245
可食用的
##ulf
运筹学与分析局
##sham
##tries
##tania
电影的
影片的
科斯特洛
##uron
connolly
水果干布丁
细煤
无用的东西
把弄得像新的一样
把改头换面
##nology
甲醛丙烯酸甲酯
人工金属电弧焊接法
##mata
fergus
两性
军用的
美国军人的
伍德斯托克音乐节
##hee
##fle
外野手
精炼厂
226
312
gerhard
游牧部落
移动群
兽窝
泥潭
进入兽穴
在泥中打滚
放于穴中
使陷入泥潭
##udi
初见陆地
到达陆地
##cheng
odi
##achi
驳岸
连皮烤土豆
面板
皮囊
##ental
edna
刺耳地
补充的
补足的
##aves
##90
或最近报价
伸开的
延伸的
lennox
军需品
伽林
使和谐
使听从
470
剥头皮
头皮
gillespie
rosenberg
guillermo
青年招待所
旅店
jarvis
kabul
沃尔沃
鸦片
##twined
台卡导航系统
前哨
前哨部队
前哨基地
##cino
中立
不偏不倚
中间状态
##64
靠妓女为生的人
为妓女拉客的人
下锚
停泊税
任何组织的基层人员
英国士兵
转台
转动炮塔
镜头转台
塔车
漫不经心地
疏忽地
非故意地
不适宜
自由泳
伏特加酒
##yal
滑翔
跳跃者
最高限度
云幕高度
储备
保留剧目轮演
未现赢张
付出的钱
着色剂
沾染
染污
着色
##bial
嫉妒
##ucible
发出撞击声的
变高
巡查
维护治安
hyun
调拌料
意大利航空公司
##ples
天蓝色
风琴的音栓
天蓝色的
##bina
获利的
出面
介于…之间
用手
##rned
担任…的职员
为…配备工作人员
给下发学习指令
小面包
讨厌的事物
nairobi
有定价的
定价的
##auer
盖屋顶者
##kia
倾翻
comune
##ogan
##pled
brasil
激励某人做某事的事物
hereford
musica
##kim
benedictine
biennale
##lani
找到了
有了
优铜
gardiner
rb
短促的敲打
爆震声
敲击声
敲门声
恒星时角
##ael
##elled
##onate
ventura
共济会会员的
桑福德
玉蜀黍色的
杠杆作用
杠杆装置
杠杆效率
##feit
生产能力
santana
##aur
新奇
新鲜
香子兰
##cter
##tour
benin
##oir
##rain
neptune
草稿的措词
tallinn
##cable
丢脸
谦卑
##boarding
schleswig
费边式的
拖延时间的
费边社社员
费边社支持者
bernardo
祷告文
圣餐仪式
引人羡慕的东西
景象
场面
公开展示
sweeney
缆拉渡船
routledge
##tment
大波斯菊
ut
刀把
油嘴滑舌的
线条明快的
打扮漂亮
全世界
万能
广用
##eville
##gawa
##dry
allegheny
冰河
##rly
aziz
##log
寄生生物
寄生虫
食客
安魂曲
安灵曲
悲歌
法语国家大学协会
##berto
##llin
##breaker
##issa
欢庆
庆祝活动
过节
饰片
弓形物
vp
333
伸开四肢坐
larson
bwf
跳跃而行的
##rts
##ssel
alexei
快速船
沙哑的
嘶哑的
##dler
##oration
塞内卡族
塞内卡语
塞内卡人
##cule
多洞穴的
##ulously
##pura
肉桂
肉桂树皮
肉桂色
肉桂色的
浅黄褐色的
##gens
##rricular
懦夫
怯懦者
胆小鬼
怯懦的
空想的产物
想像产物
幻想作品
houghton
装有若干数量或某种类型发动机的
命令者
独裁者
##oris
波哥大
实况报道
评注
不自然的
不近人情的
精神性
灵性
勒紧
使变紧
##tm
canadiens
坚决地表示
与目的有关的
斯巴达
##ytic
##iere
##zine
弄宽
belgarath
控制者
财务总管
dodd
iaaf
navarre
##ication
乡绅
大地主
随侍
当乡绅
steiner
轻便马车
##mins
560
不可避免地
大本书
##gold
嚼碎
咀嚼物
##uid
##lid
松紧带
橡皮筋
有弹性的
能伸缩的
##aby
有条纹的
结盟的社会
联姻
监禁的
适于帝王的
##ined
##phy
czechoslovak
叙述文
心不在焉地
##uld
六月禾
早熟禾熟植物
guangdong
quran
水管
橡皮软管
长统袜
用水管浇
hari
##liest
##owa
滑雪的人
条痕
直横条
##lom
筏
救生筏
乘筏
筏运
制成筏
拨电话号码
提高价格
吹胀
吹气
##eira
海法
最简单的
最后部份
ib
苏丹的职务
苏丹统治的领土
##titled
franks
惠特曼
流浪剑客
斯文
##ggs
协作者
勾结者
forster
ui
napier
不公平
非正义的行为
讲故事者
层状的
分层的
重打
##otti
大鹏
大鹏式制导炸弹
使明显
难捉摸的
逃亡者
亡命者
难捕捉之物
莎蒂
##roud
近赤道的
赤道的
地质学家
地质学者
##iza
屈从的
易弯曲的
##bron
##sr
internationale
mecca
##diment
小型商业卫星
亚声速的
天涯
空中轮廓线
蟾蜍
癞蛤蟆
上传
上载
反映的
undrafted
lal
叶子
一张
扇页
翻…的页
匆匆翻阅
利夫
bayern
##dai
拉克希米
筛选后的
##stick
##wicz
伪装物
幌子
af
christi
局域网接入单元
线路适配器单元
##acio
使显露
复仇女神
给与惩罚的人
1761
northamptonshire
事物处理应用语言
##asi
bernardino
早产的
过早的
早产儿
过早发生的事物
海蒂
42nd
乳汁的
银河的
充满兴奋的谈话声
zionist
monsieur
桃金娘科植物
##eme
射箭术
扼死
音乐上
古代史
古文明之战
行为事件访谈法
无白金式电子点火
英国国际电气公司
篇身片
海鹰队
熟化的
tasmanian
兰格
大脑外侧沟
##mail
##working
更冷的
越来越冷的
经由陆路的
经过陆地的
经由陆路地
lucivar
massey
haitian
##smith
##cco
##enbach
1766
噪声功率比
核动力反应堆
美国国家公共电台
##icular
议会中有代表的市镇
creole
广播专题讲话节目
电视专题讲话节目
1755
凹痕
塌陷
腹部的
有腹鳍的
##eson
##stream
可预言的
##tya
acheron
christoph
饲养者
供给者
一面
bernhard
jammu
俚语
用俚语说
##uber
扭转
曼森
vuelta
花生
极小的数额
渺小的
微不足道的
小袋
眼袋
邮袋
育儿袋
装入袋中
使成袋状
成袋状
不可预知的
零用钱
定量供应
theodor
血管的
维管的
##factory
巴拉
变形的
新陈代谢的
南京
##cea
pembroke
##bard
36th
ff
每小时的
以小时计的
每小时地
不绝地
##ahu
埃尔默
汉德尔
##ivate
有强大推进力的
dl
实验法
##hesion
##46
爱抚或抚摸…
使欢乐
使娱乐
牛排
鱼排
肉排
##rangle
生物学家
男爵夫人
女性男爵
牡蛎
蚝
沉默者
继父
##dridge
海市蜃楼
幻景
妄想
礁体
##31
巨头
大王
大亨
1764
227
##tral
给以荣誉
摆动身体
料理
执行遗产管理人的职责
给予帮助
约翰娜
##imate
胶化体
凝胶
胶化
成凝胶状
猜疑地
怀疑地
1767
呜咽地说
##dington
看管市镇的家畜围篱管理员
奥里根白栎
##folding
##nesia
长大衣
##oof
##ppe
ellison
galileo
##stand
crimea
偷情
满杯
大胜利的
基体
基岩
母式
真值表
型片
纸型
natalia
烘焙
一次烘焙的量
中庭
palestinians
##grove
咂嘴声
小渔船
有味道
咂嘴
发出拍击声
咂
出声地吻
乐团
园艺
##manship
##rup
##stituting
1640
地志
地形学
地势
##carriage
##lston
胰岛素休克疗法
星际航行
独立悬挂减震系统
颅骨
脑子
脑瓜
##stadt
德洛丽丝
贵重饰物
宝石饰物
受珍视的人/物
有价值的人/物
sarawak
##wai
##zier
买卖赃物者
围以栅栏
christy
被禁闭
可信用
确实性
可靠
枞树
杉木
恶臭
臭气
发恶臭
##bria
##plication
##nged
##sam
##belt
马乔里
poor
bloody
assistant
贫血辅助器
pressure-breathing
assister
加压呼吸辅助器
published
by
arrangement
按计划出版
##eem
##made
纵帆船
不安/焦虑的
激烈辩论的
热烈讨论的
大麦
能实现个人抱负的
令人高兴的
令人满意的
人类学家
##pro
novi
##nent
随军牧师
##rani
##hesive
loyola
tabitha
乳状的
olson
crambidae
担保品
保修单
大学间的
校际的
ljubljana
hilda
##sko
无知识的
由无知产生的
有罩盖的
戴头巾的
##lts
sardinia
##lidae
##vation
主唱
出面人物：是名义上的负责人
但又缺少权威
有特权的
有特别恩典的
巫术
##gp
轧住了的
劳德
##than
括弧
托架
装托架
括入括弧
云南
##erus
土帮主
linnaeus
264
米兰
##logies
阿基拉
王侯夫人
调整者
校准者
校准器
调整器
标准钟
##36
稻科植物类
禾本种
##rance
luzon
雄鸡的啼声
公鸡啼鸣
欢叫
扬扬自得地夸口
自鸣得意
编辑者
格雷琴
edouard
搭襻
标号
调整片
拉环
制表符
ellington
小村庄
whig
##anto
主管的
easton
神话学的
##kr
##vary
rhineland
语义的
达到目的
##iter
第二次答辩
折转
弯回
分枝的
枝状的
有枝的
##pired
jul
检举、告发某人
对某人提起公诉
继续从事
担任控方律师
袋鼠
鞭辟入里
##avian
middlesbrough
萧瑟的
掠夺成性的
捕食生物的
掠夺的
##vili
不情愿
勉强
##vir
黑利
海莉
一千万
像银的
银铃一般的
1759
山楂
增长见闻的
提供情报的
鼓舞的
##eral
厕所间
洗漱
坐便器
加拉加斯
蹲下
蜷着
缩着
低头
kb
##sett
295
卡特尔
俘虏交换条约
决斗挑战书
哈德利
##aling
失读症
yvonne
##biology
灰姑娘
eton
大风雪
暴风雪
剧烈而突然的
maximus
##gm
##orus
groves
灰格子呢披衣
灰格子呢旅行毯
过大的
##bella
rosen
游牧的
游牧生活的
fulham
山地森林的
银河系
蜂群
分蜂群
分群
聚集一块
云集
##rot
##folia
##llis
buckinghamshire
沼池
巴哈杜尔
##rom
gilles
定相的
炸毁
faber
benoit
vip
##ount
##wd
预约演出合同
断裂的
挫伤的
折裂的
裁缝做的
似裁缝做的
定做的
穿着考究的
干净利索的
安雅
香味料
调味料
美国游戏软件公司
cairns
试演
怒火
发火
发炎
蒸熟的
蒸的
##rocity
##acion
##urne
watford
使人痛苦的东西
折磨者
苦痛
领班神父
会吏总
卓越的人
俊秀
受骗的
哔叽
##sor
麦肯纳
表演娱乐节目的人
演艺人员
##icide
发源
残渣
##sty
1740
##ilised
##org
山毛榉
##wana
补贴
补助金
##ghton
一种轻型旅行袋
格拉德斯通
格莱斯顿
ru
消防队员
伏都教
巫术信仰
##rcle
重型设备运输车
高爆曳光弹
夜莺
tamara
埃德蒙
软弱
偏好
黑色半身侧面影
剪影
描绘成侧面影
使照出影子来
使仅仅显出轮廓
285
兼容性
拆下
回收
hampson
##mona
使极痛苦
感到痛苦
##mber
书店
##jiang
最南的
##vance
黄雾
节俭的
经济的
rf
公事包
投影
令人极度疲劳的
totaling
##rogate
类似物
相似情况
定期出版的
期刊的
##dman
海恩斯
##tenberg
##ffs
##ishment
1745
口渴
蹒跚而行
使绊倒
失策
penang
元气旺盛的
茁壮的
##ddling
##kor
##lium
八音度
低八度音
高八度音
##ove
##enstein
##inen
##ones
西伯利亚的
来自西伯利亚的
##uti
中国博客网
##vington
khalid
似马的独角兽
otago
醉醺醺的
抹上灰泥的
涂得厚厚的
耳垂
谜
谜语
粗筛
解谜
给出谜
寻根究底地检验
充满于
出谜
##rella
栖木
高位
河鲈
就位
暂歇
##ishing
克里登
graeme
硅藻土
##ossa
鳄鱼
##chers
苏非派
##tung
地狱似的地方
通用登陆舰
##phi
swell
£2
styx
使高涨
拉起
非正式地
不拘礼节地
狭小空间
鸡笼
捕鱼篓
关进鸡舍
隆德
伦德
##tidae
翅
母鸡
雌禽
定量超声指数
门控
鞘
叶鞘
翅鞘
鸡
##cade
菲茨罗伊
sas
silesia
无法接受的
odisha
1650
sabrina
pe
斯波坎市
athena
按摩
揉
沈
##drum
##riz
##hul
冠状物
副冠
根颈
牙冠
檐板
日冕
月华
日华
电晕
疑心的
niall
##pha
##bino
细骨料
表彰
答谢顾客
bangor
ballard
巴瑟斯特
##resh
huron
搜集某事物
alzheimer
衣着
激酶
致活酶
装轮胎于
战船
##cp
倒叙
火舌回闪
肺的
与肺有关的
braun
作弊
骗取
kamal
骑自行车的人
构造学
ndp
拙劣样品
准许…离开
为…辩解
践踏
重踏
切边
纵倾的
修整过的
futsal
伊斯兰教寺院
中肯
##wine
Women's
Tennis
Association
##23
##vah
##lter
众议院
肝卵圆细胞
重油催化裂化
最高输出信道
均质铸锭
##riding
乐观主义的
乐天的
##´s
直接能量转换操作
降低氧消耗
用户身份识别卡
工业管理学院
科学仪表舱
模拟计算机索引法
水路
河渠
##ieri
##oku
镇长
gdansk
数量多于
比…多
人造珍珠
珠状物
##ended
##hampton
定期集市
低级烟
赛会
专横的
独裁的
262
缝纫用的杂货
突然的念头
阶梯
使皱起
噘起
有价值的物品
有用的东西
兽脂
油脂
涂脂于
##jong
carthage
griffiths
残渣的
陆军装备司令部
航空与航天制造厂商委员会
自动信息计算
缩写式
害病
领主
蓝宝石
刚玉宝石
##marine
##ivated
汞齐化
莱尔
包装过的
suez
真作
真经
总的规则
按年级分的
突然倾斜
卢尔希
扬言
恩里科
##ovsky
桨手
伤痕累累
有疤痕的
瘢痕性的
清汤
iberian
现实事件主要参与者
讨价还价
运动鞋
练习器
航天
远行
远航
大蓬货车
##aea
##ivist
##verance
美术作品
kazan
军刀
用马刀砍
cleopatra
赫伯恩
深蚀刻
腐坏之
至高无上
霸权地位
至上
mecklenburg
##brate
burrows
冒险的事
危险的根源
冒险做
冒险做出
尝试着做
外出
喜欢外出的
即将离职的
乐于助人的
鉴别力
资质
##ctions
蝎子
心黑的人
蝎尾鞭
##usions
234
各级爵位的成员
最低级的贵族
dunedin
出奇快的
##34
无被选任资格的
不适任的
无被选任资格的人
不合录用资格的人
##38
##omic
制成品
给…发电子邮件
埃马伊
bismarck
238
带黑色的
连响
反复告诫
反复告诉
mcgee
##rling
最北的
血型
人力
贪婪
桑普森
微小静电干扰声
##ange
##horpe
##inations
##roving
torre
##eptive
##moral
象征主义
符号论
38th
屁眼儿
肛门
有功绩的
可称赞的
全套装备
一套服装
使溅起
溅落
列传
太空人
阿斯特罗斯
##tale
302
737
小雌马
小姑娘
raoul
tokugawa
椴
菩提树
俱乐部会所
##apa
神经束
广阔的地面
罗马诺干酪
##pio
普京
牌照
##note
装链的
链接的
dickson
枪弹
射击的
有效性量度
gunn
rashid
##tails
##bas
##nea
显出明显的差异
形成对比
##ply
##udes
李子
法老
暴君
##pile
哦！噢！
喜剧性
ingrid
夹层
夹心蛋糕
状似三明治的东西
把…夹在…之间
挤在…中间
把…夹在面包片中
一部
1100
mariana
诺基亚
hz
德兰尼
否决权
青鱼
鲱
##words
所有格
占有的
大概描述
##roup
西门子
楼梯井
rc
华丽
豪勇
勇敢行为
弥赛亚
233
齐柏林飞船
##dm
博利瓦
##cede
smackdown
mckinley
##mora
##yt
变弱了的
变柔和了的
雅致地
敏锐地
微细地
归一的
天神下凡化作人形
伊斯兰抵抗运动
梅纳德
rees
使陷于泥沼
陷于泥沼
##rut
押尾学
处置
像素
##erate
贝卡
dmitry
犹太高等学校
犹太初等学校
记叙文
叙述部分
##lva
##ulton
唯利是图者
雇佣兵
为钱而工作的
被雇的
图利的
sharpe
回火的
缓和的
脾气的
秘密行动
鬼祟
凯恩斯
##lini
未触摸过的
未改变的
未受影响的
##rrie
大破坏
蹂躏
严重破坏
锂
##fighting
深邃
graf
朝南的方向
在南方的
往南方的
往南
热气球
甪具
non-government
organization
非政府机构
过渡
##icum
中埋伏的
concacaf
睡眠状态的
经济学家
经济专家
##dim
成本计算
成本会计
犯罪现场调查
顾客满意指数
rana
universite
卵石
巨砾
巨石
漂砾
##llon
漏掉
柏
落羽杉
柏树
荧光
无生命的
无趣味的
死气沉沉的
思朋斯
##ulla
crewe
shepard
巴基斯坦人
被揭露的事
出乎意料的事
##م
宜人的
极为
gibbons
以蹄扒地
用爪子抓
拼命抓
向乱抓
笨拙地使用
费力地前进
##dro
##quel
##test
陋屋
炸薯条
巴拉汀伯爵的
在领地内行使王权的
腭的
巴拉汀伯爵
宫廷官吏
毛皮围巾
##51
##hiko
伴随物
巡航的
回收利用
再利用
再次应用
重新使用
##aver
实际
真实的事物
sg
大踏步走
使成为奴隶
奴役
使受控制
##ghan
胜任
职称
草绿色的
象草的
长满草的
逃亡黑人奴隶
褐紫红色
爆竹
褐紫红色的
放逐到无人岛上
使孤立
带帐篷旅行
起反应的人
反应装置
原子炉
核反应堆
拒绝之理由
##oms
carlson
变速箱
macintosh
无线电话
无线电广播设备
shelton
##sho
普拉卡什
254
蒙古人
奖
oricon
228
剌激
剌激物
动因
twenty20
cantonese
cortes
映照
将喷镀成镜子
##saurus
cristina
愁思
使人悲伤的
愁思的
##lating
可从中得到乐趣的
令人愉快的
##wny
大雨
schumacher
##ind
消音器内爆炸
lausanne
发出隆隆声
发出辘辘声
轰鸣着缓慢行进
发现…的真相
辅助军事的
反射光
折转的
使折转
使折回
用斧削或砍
迁移的
##gall
##ups
中长裙
乐器数字化接口
巴纳德
雪利酒
##hp
##nall
拱顶石
楔石
##kra
carleton
滑的
不稳固的
##53
气色
色素
眼窝
插进插座
水獭
水獭皮
##rgos
军事空运局
##tose
高级顾问医生
会诊医生
电影和电视艺术学院
野牛
除顶部
修剪树稍
剪落之小树枝
##km
490
使移居
移植
使迁移
耐移植
环状珊瑚岛
环礁
可憎的
通知猎物已死的号角声
伤感情的
表示怨恨的
教学质量评估
全部预测支出
测试接入设备
啸声
##turn
非法的
亿万富翁
兰辛
##chang
dinamo
制动火箭
减速火箭
重新流行
nfc
世界末日
最后审判日
##mina
闪电战
以闪电战攻击
时控的
同步的
##athing
##kley
##izations
以动作向…示意
用信号发出
向…发信号
热成像系统
chinatown
美人鱼
善泳的女子
詹姆士
##aint
远程轰炸机
##pet
##hers
cochrane
日历年度
##kus
警惕的
阿莱尔特
沉思自语说
诺艾尔
mohawk
南美草原
八边形的
八角形的
##sant
##hend
241
有抱负的
有志气的
##mart
iona
瘫痪的
闪闪发光
发微光
swindon
rhone
##eley
名誉好的
有名气的
立体基阵
干草叉
草靶
音叉
骤然把塞进
骤然把抛入
francais
gillian
唇膏
##ilo
圈外人
局外企业
教皇的
大祭司的
主教全套服饰
主教仪典
苦味
下水道
阴沟
裁缝师
用下水道排
铺设下水道于
落基山脉
##edd
##ucher
引入歧途的
使人误解的
骗人的
1756
galloway
##nging
##heart
246
schultz
##rka
整合
集成化
##rsa
使摆姿势
以…身份出现
招摇
##weiler
几尼
格拉迪斯
震摇
金匠
每夜的
夜间的
伸入很深的
了解透彻的
##unced
铅工业协会
美国皮革业联合会
##33
betsy
##aring
##thorpe
从者
追补者
朝气蓬勃
精力充沛
壮健
茁壮
健壮
强有力
##rave
电码的
译成电码的
基兰
动物学
动物区系
tbilisi
##28
##bered
贮物器
店铺
陈列室
资源丰富地区
亲信
知己
government
每年落叶的
非永久性的
流浪汉
隆隆响的
##bba
把释放出来
念咒
猫咪
女阴
娘娘腔
多脓的
生物化学
##eric
茶壶
毒性
nrhp
##arth
##kko
##bush
ernesto
受到赞同
直言无讳的
坦白无隐的
242
mca
毕业文凭
学位证书
sms
克里斯汀
##aton
两性的
雌雄同体的
以耙子耙平
用耙子把…耙在一起
搜寻事实等
迷人的美
纳瓦霍人
a2
习惯于的
##hma
青年的
##esa
usl
电气用具
以武力政变上台的政府
私党
阴谋小集团
布雷斯特
莱恩
聚成球形的
砾岩性的
集成物
混合体
砾岩
凝聚成团
中魔法的
着了魔的
狂喜的
极乐的
使欣喜
使心醉
用魔法迷惑
钞
疏松的
picasso
montevideo
##centric
##kti
柱廊
露天市场
靴上装有踢马刺的
##aith
巴里
自由自在
自由权
没有…的情况
不受…影响的状态
家禽
斯坦福德
##ect
靛青
靛蓝色
靛蓝色的
bahia
残株
树桩
讲演台
砍断
难住
蹒跚而走
附上
使依附
附属
联系在一起
digital
video
display
system
数字视频显示系统
自己所创造而无法控制的事物
人形的怪物
作法自毙者
lille
经文
经典著作
传授花粉给
##script
不可屏敝中断
##ivism
建议者
newmarket
接受遗产
磨
制粉
轧齿边
##erland
中央集权的
##rou
批发公司
批发商
配电器
信任状
国书
厨柜
内裤
缩写词
节略
##lco
##xon
downing
不舒适地
不自在地
令人不快地
##oes
抹去
获特许权的商业机构
特许经销权
给…以特许权
出售特许权
##ever
##bery
##khar
##tet
daryl
sabah
##stle
##wide
无畏的
妖怪
身体器官组织的损伤
安妮特
##ogist
双簧管
阑尾
耐尔
印度水獭
滴出
含有
maclean
蚊子
应声虫
学舌
机械地模仿
rpg
1648
歌剧的
歌剧风格的
大量的储备
储液槽
##tham
不恰当的
无关系的
不相干的
使颠簸
使慌张
总结
##fp
大奖章
圆形浮雕
圆形装饰
##taff
##−
有爪/螯的
harlow
比较狭窄的
goddard
玛西亚
有形的
有躯体的
弗里蒙特
菲蒙市
使受大风暴影响
使骚动
mussolini
##isms
甜美地
惬意地
讨人喜欢地
单独
孤寂
冷酷地
神圣场所
加热器箱
香港
我要
女房东
女老板
迪特里希
合法
正统
正当
小冲突
灌木丛
表达的
富于表情的
##yp
沉迷于酒色的
闲游浪荡的
##rse
小范围的
全身的
##nikov
gettysburg
##js
##uaries
对白
意见分歧者之间的意见交换
251
女管家
西西里岛的
气馁的
##frey
有梁的
kaladin
中场休息
拐骗
##amo
##llet
1754
同义词的
同义的
贫化的
instituto
胰岛素
##opsis
发出撞击声
##ctric
radcliffe
美第奇
1715
射出的
被放出的
被驱逐的
开玩笑地
好游玩地
骚乱的
##47
饿死
##rini
出货
petersen
证明属实
是非曲直
##rified
##charged
1757
milford
缺少量
保真度
##aker
捕猎
地震的
##iform
kilda
理论上
理论地
barbie
猞猁
##rgy
##tius
小妖精
马塔
枯叶龟
##nburg
反动的
反应的
余渣
剩余财产
剩数
##евич
揣摩
##rac
401
踢者
善踢的人
爱踢的马
motown
##bha
新古典主义的
##hering
操纵台
悬臂
肘托
ebert
教授之职
##tures
侵犯他人身体
使难受
富人
##eber
##zow
高地人
苏格兰高地人
已婚或有固定性伙伴的人与他人有秘密性关系
##ctus
实习医师的职务
terence
如骨的
多骨的
瘦骨嶙峋的
依法处决
立法委员
立法者
浆果类
半岛的
##aco
1689
扩大的人
放大器
克尔维特式轻巡航舰
小型护舰
慷慨给予
尖旗
三角旗
三角锦旗
三角信号旗
##lander
无足轻重的
##chfield
##forms
mariano
pyrenees
支出额
##icides
天鹅绒领子暗钮长大衣
坐卧两用长沙发
裁缝
成衣匠
缝制
做裁缝
39th
谢尔盖
舒适而温暖地安定下来
依偎
温暖舒服地靠拢
偎依
有意志的
上层社会
知识界杰出分子
热爱者
晚安
raaf
传闻的
谣传的
武器设计研制学
remy
挪用
哈考特
哈科特港
毛边
钻孔器
芒刺
发音含混地说话
Recording
Industry
America
美国唱片工业协会
##lence
不被注意的
仅供政府使用
使人湿透的
湿透地
渍
##tica
tatiana
描述的
brigham
圣诗
诗篇
##chment
maddox
##lization
patti
哈里发
##aja
阿克隆黄铜
亚克朗市
##ganj
港池
##sari
发射者
发射台
##church
hilary
威尔金斯
缝制品
##sf
刺人的
刺一般的
##fia
##ncia
下木
林下灌丛
##ition
一次性往复振动
堤防
法学家
法律学者
法律著作家
##nity
吟游诗人
尤文图斯
地下水
核
氦
国际职业建筑人员与法规管理人员联合会
难辨的
玛丽萨
soto
##worm
日本航空电子
王子的
王候般的
##ggy
faso
义卖市场
温暖地
热心地
##voking
229
##lite
##grate
##nets
维也纳
有奇特的斑纹的
有奇特的条纹的
尤里西斯
新生
##alia
##rent
木乃伊
瘦而干瘪之人
古斯曼
古兹曼
希门尼斯
吉梅内斯
##nitz
弹道
轨线
总碳氢分析器
泰国
档案的
档案中的
##pts
##pta
多丘陵的
多山岗的
有影的
暗黑的
朦胧的
虚幻的
萎缩
使收缩
使缩小
##bolt
norwood
用胶水将物体粘合
随季节而移居
老套
模式化的见解
有老一套固定想法的人
把…模式化
使成陈规
全无的
##pheus
625
撤出
令人感到恐怖的事
讨厌鬼
幼年
幼儿期
哥谭镇
美国楼氏电子
将从大计算机系统输入小计算机系统
下载
sachs
kingsley
棉毛交织的一种棉布
darryl
粗腐殖质
##onale
荫凉的
成荫的
聆听忏悔
悔过
赣江
##meter
##placed
马尔堡
迂回的
委婉的
迂回路线
regents
快速军舰
io
##imating
gothenburg
顺时针方向的
顺时针方向地
可交换的
有活动篷的汽车
侵入者
干扰者
妨碍者
##sche
##ogo
维姬
中产阶级分子
资产阶级
中产阶级的
平庸的
九点活字
##mony
dupont
站稳
立足点
##gum
pd
##real
皮带扣
扣子
南斯拉夫货币名称的缩写
屋顶房间
顶层公寓
电梯机器房
耳房
神智健全的
没病的
720
检修
赌金保管者
neumann
滚珠轴承
铅笔芯
##eers
头梳
鸡冠
梳头发
梳毛
涌起
##gam
排水区
集水
键入
##elles
最前部
最前线
freiburg
甜食
giacomo
丧偶的
善意
亲善
信誉
声誉
☉对神的崇拜
崇敬
敬仰：
爱戴
做礼拜
敬神
拜神：
正午的
##vat
##trick
bournemouth
turk
243
炉床
灶台
炉边
乙醇
瓜达拉哈拉
低沉、连续而不清的声音
低语声
怨言
嘀咕
sl
##uge
阿福德
为电影写剧本
##hta
在家工作
哇音效果器
##jn
验尸官
半透明的
252
纪录
好恶作剧的小妖精
淘气小孩
不雅观的
##race
315
坎迪斯
详细叙述某事
讲述某事
重新计算
##27
##slin
##uve
##mac
狂吠
呼啸
对吼叫
狂喊着说
鹭
经调整的
##ays
##oja
##т
##wheel
##laya
##mics
##pods
turkic
##lberg
##ennial
##mit
抗体
##44
##rigues
心血管的
橡皮软垫
加垫褥
长披风
##zquez
国防情报局
可可粉
可可茶
可可色
同胞
##tman
##roid
宽阔区域
宽阔
能实行的
可行的
tunisian
algiers
##relli
俄罗斯
收件人更新服务
dso
westphalia
塔科马港市
281
##ours
konrad
duran
##hdi
连续统一体
连续统
闭联集
jett
把…比做
比拟
立法官
##nable
##gues
##zuka
##gley
##ła
aleppo
##agi
tc
语言学家
多才多艺的
万用的
万向的
邮资
卡尔霍恩
较好的人
##mx
赤脚的
猜疑的
##cis
伊格纳西奥
kaplan
##rogen
bratislava
mori
##vot
haas
313
墨盒
录音带盒
唱头
gilmore
辐射的
有辐射棱线的
salford
束腰外衣
hades
##ulsive
delilah
地方法官
酒酿造者
包租
发给…许可证
网志
卡佩拉
iroquois
缚扎用的绳索
笞刑
##krishna
座圈
实际情况
忠实性
迈拉
米拉
使虚弱
变软弱
judah
mcgregor
##horse
mic
再加燃料
再加油
37th
burnley
markus
premio
疑问
疑问号
质问
##gga
邓巴
##economic
最黑暗的
lyndon
嘉奖
##mun
沉溺于的
埃西奥
埃齐奥
赎罪的
拖着脚走
曳步
蒙混
洗纸牌
马虎地做
笨手笨脚地穿衣
推诿
洗牌
##eves
##thic
##uj
筑城
warrington
##otto
使复苏
使再活跃
使再流行
法戈
鬃毛
##utable
##lei
##space
##aris
##vern
abrams
住房与城市事务
##mento
樱花
##alo
紫外的
感情用事的
##skaya
球场中央部分
中场的
##eses
纸卷
涡卷形
卷形花纹
从上到下移动
卷页
将文字显示于屏幕
macleod
##kyu
熵
##lance
线粒体的
西塞罗
稀释剂
船队
车队
护送队
认知
##oslav
##urable
有系统地
有组织地
有条理地
碾
苦差
摩擦声
用功的学生
磨擦
磨碎
burkina
287
##tagram
物价管制局
管道安全处
##aman
关塔那摩
##cloth
##tite
有说服力地
有波浪的
多浪的
##jou
不尖的
不得要领的
##linger
##tze
layton
面积的
文书的
事务上的
抄写员的
亡命之徒
逃犯
##hism
掩埋
muir
##inn
债权人
使嘎嘎响
喋喋不休地说
格格响
喋喋不休
格格声
拨浪鼓
喋喋不休的话
##leg
加来
卡莱斯牌汽车
时髦社交界
archers
回收的
翻造的
wexford
hellenic
不实地
良心不安
自责
##tek
生面团
穿戴用品
##uttered
加蓬
神经病学上的
##igraphy
讲道坛
床头几
saratoga
##istan
自治小区
##firmed
破产了的
失败了的
被降级的
被逮捕的
丈夫的
夫妇间的
##rien
意见不合
易动怒的人
##yes
霍奇
mcdonnell
模仿的
摹拟的
效颦者
模仿者
仿制品
摹拟
弗兰
垂饰
下垂物
补充的东西
dhabi
musa
##nington
祝贺词
祝贺语
似银的
达雷尔
剧烈摇动
受损失者
屡屡失败的人
辞谢邀请的短柬或口信
痛惜
惆怅
感到懊悔
感到遗憾
thessaloniki
donaldson
硬木
硬木材
阔叶材
落叶树
从那时起
从那里起
achilles
ritter
##eran
恶魔的
jurgen
预言家
先知书
goethe
eki
同班同学
暗黄色
暗黄色皮革
人的皮肤
使柔软
暗黄色的
##cking
无理数
无理性的
##inging
丧生
消亡
损坏
引人注意的
quarter
按季度支付的款项
有来源的
有出处的
##crat
##typic
芥末
芥菜
强烈的兴趣
冲沟
扶手杠
横档
特性描述
人物之塑造
种系发生的
系统发育的
博伊西
##dit
##runner
##tower
残忍地
蛮横地
唆使
诱奸
##bbing
ferris
奥格登
艾玛尔
尼克
没有武装的
非武装的
徒手的
手无寸铁的
无突的
无刺的
##inator
kyrgyzstan
芳香
美妙
##lford
##oki
mccormick
明治
恶名
臭名
声名狼藉
起刺激作用
使瓦解
用数字表示
修琢
教学的
mcgrath
##zoo
开创性的
突破性的
##lto
畏首畏尾
弗林奇戏
khorasan
耕地的
孟加拉棉
孟加拉薄细布
混合者
混合器
搅拌机
混频器
交际家
与人相处的人
##sov
英格拉姆
瓷渣
水罐
nad
关税表
价格表
收费表
课以关税
##cript
##codes
##emi
##ungen
上诉的
有权受理上诉的
厉害病毒
勒海病毒
##bled
##giri
哗哗地流水
通过管道输送
德克萨斯人
德州人队
##ciation
##ropolis
机长
思索性的
投机的
呕吐物
催吐剂
正式声明
253
宣誓书
分级机
分类机
…年级学生
whitehead
约瑟夫
及时的
适时的
及时地
haryana
绘画颜料
恰如其分的
仙人掌
##ales
##pid
美国陶氏
美国陶氏化学
道琼斯平均指数
古罗马军团
##pit
感知
1730
如画的
别致的
栩栩如生的
##yse
外围
古代北欧文字
神秘的记号
wr
##aha
塞尔提克
惊叹声
##erin
给…行按手礼
425
moines
mathews
铲子
锄
铲刀
黑桃
以锄掘
把弄实抹平
铲
狂吼
愤怒地说
叫嚷
货币供应量
移首的
前移的
外汇
固定电台
混成
提出…作为理由
##gl
237
##paper
草根的
损坏了
##free
##physical
指示方向
把…对准
严酷考验
痛苦经历
煎熬
##sław
##inia
列弗
购得
做出牺牲以获得
够支付
买通
cebu
投入于
##lce
##ulsion
设计舞蹈动作
背诵
##ryl
佩斯利涡纹旋花呢
托斯卡纳区
男巫士
剁碎的食物
杂乱无章的的一大堆
杂烩
切碎
尖利的碎片
皆无
水中精灵
停
不要
不行
卓别林
老朽的
ito
风向标
风信旗
变化不定的事物
##drich
堤道
办错
使行为不端
渎职
通奸
把编成管弦乐
和谐地安排
精心策划
腺体
气封
利比亚民众国通讯社
##kot
英国著名乐队
##mple
##sons
发枝的
分歧的
勺子
独家新闻
汲取
用练马绳训练马的各种步态
##virus
查特怒加市
##75
糖浆
果汁
奠基石
##tized
##mind
##iaceae
不关心的
无忧无虑的
居先
温壁画技法
湿壁画
##uet
已冷的
冷硬了的
冷冻了的
会诊
向请教
想抢走
泥煤
泥炭色
##thermal
caucasian
有人情的
人道的
尖硬纤维
节欲
戒酒
禁酒
##lbert
希腊语的第11个字母
杂交生成的生物体
杂交植物
月状物
一种音频压缩格式
##oese
247
对…进行罗尔夫氏按摩
把…呕吐出
yerevan
##ssler
以朋友的方式对待
饲料槽
球杆
有座位之交通工具
##hom
##tangle
导体
##lmer
eurasian
adriatic
##cie
忧虑地
不安地
云雀
百灵鸟
嬉耍
骑马玩乐
chichester
苏格兰高原地方的士兵
2a
##holding
重数
重新计算选票
忠诚的人
反对独立者
反佛朗哥派的人
外展
##hoot
##redo
nepali
##mite
腹的
腹面的
腹鳍
诱惑人的
##ango
##crats
##wice
标枪
体力劳动者
徒弟的
不熟练的
上现蜃景
庞视
幽影
钛
##ː
证章
张肌
张量
##ntation
埃及人
皮疹
霍桑
当铺
放款者
淋浴站
淋浴设备
wehrmacht
饮食的
规定食物
trojan
##reus
马蹄铁
装蹄铁于
救生艇
##lak
埃尔莎
养老院
罗伯塔
boyer
喃喃低语
喃喃自语
作低沉声
出怨言
抱怨地说
乔安妮
##fine
##oked
低洼地
污水池
旋涡
uruguayan
sirius
##block
加速剂
加速器
油门
沉没的
下凹的
Bayou
小海湾
Brigham
Young
University
杨百翰大学
年代学的
按时间顺序的
按照年月顺序的
有手腕的人
善于交际的人
赭石的
赭色的
含赭石的
510
1644
玛雅
##tology
味道或外观等像盐的物质
增添趣味
君主的统治
君主统治时期
当政期
滔天大罪
##ия
赫斯
巴雷德
issn
##vyn
提供饮食及服务
投合
饱和的
##cycle
##isse
黑貂
黑貂皮
深褐色
黑貂皮的
航行者
航海者
染色工
yusuf
##inge
喷水
人工喷泉
wolff
##39
##nni
镌版术
雕版
rollins
无神论者
恶兆的
预兆的
##ault
德国绅士
二轮战车
martina
string
##fell
##farlane
saetan
被清除的
ptolemy
##olic
lauderdale
##ices
530
navarro
喙
大猩猩
残暴的男人
herrera
扫帚
金雀花
瓜达卢普
sykes
311
bsc
已交付
1720
武装入侵
carmichael
tajikistan
题目的
主题的
主旋律的
全基督教的
泛基督教主义的
柔情
伤感
态度或意见
在前台
在前台的
##rians
##brand
##sume
灾难的
拱侧翼
石侧面
两翼
铸造的
##arns
石垛工
煤矿井下充填工
艾梅
##icing
交替地
间隔地
##oche
尼赫鲁
印刷厂
印花平纹坯布
义愤填膺的
愤慨的
气愤的
##eving
模板
垫木
旗帜广告
横幅
广告横幅
反复性的
南非
##oise
素食者
食草动物
素食的
##tell
圭亚那地区
板烟
lucknow
##hani
##mada
##ctable
市长的
不可靠的
##enham
rbis
##chio
##neo
挥砍
割破
多哥
值班的
护理员
清道夫
传令兵
依次地
顺序地
绣花的
刺绣的
科学考察
有盐分的
咸味浓的
236
barron
benito
总数达
托塔尔
##dak
小酒馆
卡登
德温
tolkien
焊的
##ept
gottingen
630
萨满教巫医
temeraire
620
足够地
小儿科的
##kit
肌酸激酶
美国第一大设计师品牌
呼叫键
根基
抑扬
调子
海味
海鲜
beaufort
乞丐
穷人
落花生
嘛呢堆
留心地
kurdistan
249
康塔塔
大合唱
##kir
ares
##41
##clusive
颈背
齿轮传动的
变速螺旋桨
鼓翼
malmo
##hh
##romatic
阿尔塔
宝鸟服饰
报喜鸟
遮蔽的
湮没的
##clave
越过…的界限
全貌
概论
##train
就学前的
育幼院
##essed
易接近
可进入
##castle
##drive
##ifice
##film
拳击比赛
一通
鼻涕虫
刺蛾
懒汉
金属小块
动作迟缓
mindanao
##buro
##ratic
半
半学年
中卫
##ل
母性
妇产科医院
产妇的
可崇拜的
值得敬慕的
bragg
起电
带电
电气化
mcc
##dote
roxy
精神分裂症
##body
munoz
kaye
239
千分之一英寸
能耐的
##ago
不依惯例的
非传统的
非常规的
##finder
deportivo
##llie
robson
kaufman
神经系统科学
驱逐出境
masovian
削去
刮擦的
相反的事物
逆向
逆向的
##bh
胀
##oun
管理地
行政地
尧
580
安培
猛犸
猛犸似的
向前推的人
后援者
升压器
claremont
桶匠
命名法
专门语
mclaughlin
梅林达
##sul
鲶鱼
巴克利
基板
基片
taxon
的复数
英语字母Z和z
Z形物
原件
金柏莉
数据包
小捆
##ality
可公开
显然
诡称
溶剂
有偿付能力的
有溶解力的
##bri
##genesis
##mist
lukas
什里夫波特
韦拉克鲁斯
##ь
##lou
##wives
cheney
tt
anatolia
hobbs
##zyn
轮转的
轮列的
轮卷的
环状的
环的
组诗的
始末的
容光焕发的
alistair
呈绿色的
锡耶纳
dat
自主的
不相关连的
无党派的
不相干的人所做的
##bation
使遵守
pieter
亢奋的
高度紧张的
申请者
bradshaw
孢子
telangana
达芬奇
不贵重的
322
战斗报
nme
嗬
电涌保护器
补充石油税
统计过程诊断
##ign
将…置于摇篮中
接待员
##43
##rika
法西斯主义
极端国家主义
##ifer
##ading
##iec
##region
345
jocelyn
海事发展情报处
梯级
夜的
夜曲的
警察的
警官的
警官队
埃尔金大理石雕
埃尔金
爱而近
##kker
msc
##giving
##schen
##rase
doherty
连续猛打
面糊
击球员
打击手
##cano
##apple
##gai
##git
原有的
##nst
##stor
1753
好戏上演
节目播放时间
引
领
陪同
##thed
双打比赛
灯笼裤
四人舞
四人单桨无舵手
重新启动
使人惊异的事物
飞鸟
飞行物
传单
飞跳
##sau
视锥细胞
大声讲或读
口授
摆布
蕈类
中间字母
##kovsky
##elman
目瞪口呆地凝视
张大
##26
当教父
##door
##sell
慢性特发性黄疸
重新捕获
vila
1710
3a
凡人
浊骨凡胎
信仰疗法
基督教科学派
##orne
安吉莉娜
mag
对流
未付款的
不支薪水的
刊载
断断续续的
乐高积木
##nated
哥打
辛田
pereira
##lz
304
bwv
glamorgan
阿加莎
注定要死的
##cend
fleetwood
桃花心木
红褐色
凸
轮船
希腊语第六个字母
##arty
mcguire
悬疑
悬念
##sphere
强烈的愿望
强烈的欲望
##wala
仓促地
流星
大气现象
镀金的
有钱的
干涸沟壑
旱谷
潜随猎物者
##oge
兴奋地
尊敬的
##cure
earle
介绍的
开端的
##break
##ilde
一阵喷烟
充气
##haling
咒语
骂人的话
祸害
高视阔步
悄悄靠近
蹑手蹑脚地走近
有相互关系的
##fixed
原子尘的降下
辐射性微尘
原子尘
附带结果
macquarie
##unas
有须的
有胡子的
丹顿
举起抛出
使起伏
802
##ocation
葡萄酒厂
指派
多特蒙得
##lkirk
everest
不变量
能吸引大众的非凡能力
神授的能力
领袖人物感人的超凡魅力
苏西
##elling
bleed
一封电报
萨姆纳
bk
##ogen
##к
威尔科特斯
贫困的
生活艰苦的
colbert
duval
##iferous
##mbled
专款的
拨出的
必要的事
祈使语气
命令式的
急需的
势在必行的
##hita
替换件
饲鹰者
以鹰行猎者
##inda
叛乱状态
发生暴动
##zee
##eke
管型
##yla
680
ives
##pack
##powering
权威性的
贝勒
伸缩
折曲
屈曲
卑躬屈膝
伍德罗
##skie
无尾猿
浓香
未折叠的
nt
被先占的
希腊字母的第八字
日常生活
日常活动
激光器
杖
化装外衣
骨牌
多米诺骨牌
ek
美国国家安全局
美国国家标准协会
在战略上
颇策略地
似阵雨般降落
洒落
纷纷降落
胆汁
坏脾气
暴躁
手帕
christophe
损害人体的
316
纳卡穆拉
magdalena
邮轮旅游
油轮公司
405
konstantin
高飞的
翱翔的
高耸入云的
##berman
用口语
用通俗语
havilland
诚心诚意
##utus
厚木板
木板制品
冲浪板
救急物
政纲条目
在上铺板
撂下
立即付款
西贡
##ining
corbin
homo
发电所
动力室
精力旺盛的人
办事效率高的机构
##tlement
庄
系牢
系紧
关紧
可行性
综合资料文件
形态的
形态学的
词法的
可用的
方便使用的
能用的
##nish
##zuki
饲养员
保管人
负责人
##flies
aleksandr
faust
尤因
尤英
尤文氏肉瘤
用力掷
大声叫骂
机敏的
hungarians
沃利斯
321
雅马哈商标
##isha
异常安静的
小声的
低声的
一片空白状
福音传道者
圣经新约福音书的作者
天主教会修士
##eller
专题论文
专刊
写专题论文
颂诗
赋
##nary
护身符
##nee
1661
哈根
tnt
方向舵
指导原则
祭典日
喜庆日
dorothea
斯卡
禁止者
抑制人
抑制物
抑制因素
抑制剂
阻化剂
maccabi
恐吓的
威胁的
1642
线务员
线路工人
护路工
养路工
##gist
vampires
补片
利用色相勒索男子的女子
##ape
##dick
暗处
幽暗
变忧沉
变黑暗
使黑暗
##rera
吃势
容位
松型
搜索者
探求者
##nut
##pment
helens
无人操纵的
##anu
##isson
最简单但最重要的部分
基本
基础训练
##amy
##ckman
调节器
1688
残忍
无慈悲
野蛮的行为
horne
##zell
其自己的
##55
##mable
聚合器
整合者
汇集者
##thal
犀牛
##drick
##vira
急速上升
变焦摄影
猛增
摄象机移动
使摄象机移动
##01
##rting
mn
montenegrin
帕卡德
##unciation
##♭
##kki
开垦
感化
学校的
学校教育的
学者的
学究的
经院哲学家
学究
脉冲的
脉冲调制的
##icia
syriac
全
萨达姆
茅屋
班达
神户
归咎
密友
弟兄
做朋友
伴护艾滋病人
##lusion
##usia
corbett
jaya
古怪的人
漂泊无定的人
莱克西
##hesis
435
女性朋友
一种多媒体计算机的商标
重放射性同位素电磁分离器
##pressing
##leen
附属礼拜堂
福音音乐
四福音书
jamal
##uating
估算
回转的
旋转式的
乖僻
使翘曲
使不正常
变弯
变歪
##sso
##thes
纹章
纹章学
##eras
##gol
antrim
洛基
##kow
##asian
##good
##zano
穗带
编成辫
小区
众神庙
万神殿
罗马万神殿
##iculate
不成体统的
不道德的
juliana
##his
新来的人
johnstone
staten
相连
##oco
##alle
香肠
腊肠
##stered
##tters
总科
##grade
成酸的
并行的
旁系的
旁系亲属
小报
小型画报
轰动性的
扼要的
缩略的
小报式的
##oped
##rza
膀胱
囊
austen
##ellant
麦格劳
##hay
汉尼巴尔
汉尼拔
aquino
明亮之星
撒旦
准尉军官
陆军部
獾
獾皮毛
公猪
野猪
谢尔河
christensen
greenberg
##kken
正义与平等运动
日本通信卫星
日本电器制造者协会标准
244
使受挫折
不尊重
底部沉积物
残留物
蒸馏残渣
下装
cambridgeshire
##lide
蔓生的
不规则地伸展的
##bbly
伊斯威特
ghent
##buck
##bah
有名无实地
名义上地
名称上
hapoel
合格单位
隔离的
焊接的
装配式的
纸巾
vinnie
watt
continuous
wave
瓦特连续波
功率连续波
William
Carlos
Williams
威廉姆·卡洛斯·威廉姆斯
anglia
诺廷
不会弄错的
不会被误解的
不会搞错的
明白无误的
清楚明白的
##dust
##lova
不友好的
马凯特
##edge
##erine
reece
##lty
##chemist
##connected
272
308
41st
打坏
raion
悬瀑
##ump
##main
难解事物
一队人
使排队
将梳成辫子
理论家
理论工作者
##istle
bharatiya
声道
音带
rooney
左翼的人
沃顿
沃顿商学院
朴素地
伊士曼
schuster
地形的
地形学的
吸引或引起
与交战
无限地
广大地
庞大地
无法忍受的
承受不住的
fairchild
1620
dona
“潜伏”
parisian
oliveira
ia
起诉状
哈恩
bangladeshi
##aster
活泼地
生动地
##uming
##ential
antonia
在户内
kildare
哈伦
哈尔纶聚偏氯乙烯纤维
##logue
##ogenic
##sities
forgive
##wat
孩子气的
tavi
##mide
##orra
貌似真实的
貌似合理的
说得煞有其事的
格林姆
接连着地
相继地
##bola
##dget
##rith
金刚砂
枯燥无味地
毅然地
碧空
蔚蓝的
结语
尾声
收场白
##wark
华丽词藻
##iny
##tracted
##overs
##oshi
畅销书
哀伤的
收据
开的收据
啐唾沫
用炙叉叉住
隐居者
##cot
钻
操练
法郎
##layer
鳗鱼
鳝鱼
##fk
##itas
章鱼
ufo
##say
##foil
干涉的
多管闲事的
palo
##metry
蓟
##pic
纳拉扬
mcpherson
##fast
##ym
##enne
dustin
novgorod
独奏曲
独唱曲
单飞
单人纸牌戏
##zman
多因
杜万
##raph
##patient
##meyer
可溶解的
可以解决的
亚什兰
袖口
护腕
手铐
卡罗尔
pendleton
吹哨
封臣
奴仆
臣属的
奴仆的
##river
再访问
再参观
价格回升
集合起来
辐状的
使轮流
隐约出现
阴森地逼近
##eil
##nting
非专业人员
augsburg
auschwitz
花冠
##cona
软帽
257
假人
虚设的
simeon
睡眠者
枕木
分化型
已分化的
可区分的
##crow
##mare
milne
恼火的
使恼怒
talmud
被分离的
被隔离的
实行种族隔离政策的
偏析的
##feng
##uary
牙科医生
海盗行为
海上劫掠
著作权侵害
非法翻印
小道具
##rang
devlin
##torium
怀恶意的
极地自动天气站
##laid
保护地
从属物
##ergy
##fers
##enna
258
rourke
杰德
语法的
合乎语法的
紫面叶猴
假发
给戴假发
发狂
512
影子似的
jayne
##achal
##creen
##ilis
##lins
##rence
已选出而未上任的
##with
傲慢态度
柬埔寨人
柬埔寨语
克隆
无性繁殖系
复制人
好像一模一样的人
无性繁殖
摊牌
节流阀
节气阀
扼喉咙
使节流
节流
##ception
肺叶
脑叶
metz
名古屋
335
制动系统
##furt
385
##minster
阿敏
跛腿的
##37
##llary
漠不关心的
无重要性的
hoffmann
1751
261
onions
1748
绷带
自觉地
有意识地
##landa
##rage
偷盗
纠结的一团
困惑
缠住
乱作一团
##ener
##jected
##trum
##bill
##lta
热烈拥抱
代表大会
国民大会
josiah
有精神的
生气勃勃的
##dek
人文学者
制片
电影摄制
同住者
被收容者
尾韵
grimsby
ur
##laze
二重的
##tf
重新发表
重订遗嘱
bolshevik
重新磨亮
抗生学
抗生素
马提尼
甲烷
沼气
蛋糕饰块
躲债
##ischen
帕勒尔
##around
示威运动
sneak
alf
肋条肉
剁碎
切击
割断
突然转向
琐细的
基架
基座
加座
搁在台上
提高的地位
##kat
血魔法师
贝塔斯曼音乐集团
kerman
res
fairbanks
jarrett
抽象化
心不在焉
抽象派作品
撒哈拉沙漠之人
撒哈拉沙漠的
##zek
1746
程序上的
金凯德
框格
肩带
腰带
装以窗框
系上腰带
luciano
##ffey
嘎吱嘎吱的咬嚼
嘎吱嘎吱地踏过
咬碎
咬碎声
helmut
##vara
革新者
##tute
含乳脂的
乳脂状的
奶油色的
萃取
滤掉
沥出物
##mmon
1747
不另说明
红白机
宣誓
温德尔
##lese
反对地
ts
clancy
ipa
mach
staples
验尸
karin
pontiac
##uding
委托书
常到的地方
生息地
常到
出没于
萦绕于
出没
作祟
勒托
bergman
使…变大
伸开
##helm
预写式日志
##pipe
罐头制造
席琳
赛琳时装
灯芯绒裤子
肥胖
##enary
侵扰
计划者
安排者
##phate
思路清晰的
言之有据的
307
哈罗公学
耙
耙掘
被耙松
##chon
##dora
mcintyre
健壮、灵活的男子
248
harrisburg
玛格丽塔
击退
驳斥
##hur
##lding
belinda
肉饼
纯精牛肉
汉堡牛排
芬兰诺瓦公司
bingham
记录者
登记者
登记官员
摩天楼
三角形天帆
ic
cuthbert
即兴而作
即席演奏
即席作品
营生
##corp
##elial
赞赏的
钦佩的
##dened
偶尔发生的
零星发生的
casablanca
爆米花
##29
阿沙
阿莎
铁铲
##bek
##dice
将…卷
可触知的东西
有形资产
可触摸的
有实体的
非相像的
##dez
一个卡通造型
为一可爱的小精灵
埃尔希
涂树脂于
柔软
柔和
易触痛
教区长的住所
##ivision
声纳
##mori
专卖流行衣服的小商店
##dier
guerre
淋漓的
沐浴的
有拱顶的
圆顶的
凉鞋
便鞋
拖鞋
好事
福分
##naut
##utnant
1680
306
狐
狐皮
pia
腐蚀产生的物质
铁锈
迟疑地
踌躇地
合谋者
水晶般的
水晶制的
足印
脚印
夏皮罗
地拉那
valentin
持续的低音或和音
不务正业而依赖他人为生者
显微镜
运载的货物
text
宗教裁判所
扭歪的
歪斜的
扭歪
guernsey
未经许可的
760
涟波
涟漪
波纹
粗钢梳
使起涟漪
起微波
起潺潺声
舒伯特
斯图
向再保证
重罪
##ardo
易坏的
朝鲜人
朝鲜国民
朝鲜语
##havan
##ives
催促者
讨债者
催债
催讨
##aldi
##lth
木兰
浅桃红色
##ehan
##puri
##poulos
寻衅
敢作敢为
有进取心
攻击性
过分
放肆
发射误差指示器
gr
##poo
表示的
##trust
首要
十分重要
原始
基频
基音
基谐波
jimmie
风行一时
超过限度
超载限度
395
给人安全感的物
抛锚
担任主持人
抱怨声
牢骚
悲叹声
##opus
britannia
armagh
##ggle
夺
##vao
不知所措的
世界主义的
世界性的
遍生的
不偏狭的
卓有见识的
世界主义者
世界性
geometridae
军需官
加拿大武装部队
成本加运费价格
415
饶舌
喋喋不休地谈
啭鸣
光束
隐约地闪现
使发微光
净化
泻药
##icate
juliette
法律学
法律体系
##bn
仿开士米薄呢
酿造酒
酝酿
##jm
1749
clapton
多云的
有愁容的
云的
conde
隐士住处
茅庐
冷落僻静的住处
隐士生活
278
仿真
火炬
vincenzo
##rill
急速发展的
向西行的
向西驶的
触手
触毛
不矫揉造作的
未被感动的
##sius
annabelle
猛然坐下
移动或落下
砸锅
成斜坡的
##litz
做梦的人
梦想者
阻止的人
拦截战斗机
瓦努阿图
##loh
神圣化
誊写
消息传送
信息传送
断路器
思潮
送…住院
使留医
1752
torino
每天下午
任何下午
温菲尔德
##teacher
爆烈人
碎浪区
碎浪
教堂的唱诗班
唱诗队
公开表演的合唱团
唱经楼
锯木厂
锯木机
##ege
无人居住的
杳无人迹的
圆锥形的
圆锥的
参考书目
塞汶河
##oca
飘零双燕
两个世界
患病期
抓爪
##pl
排练
思想家
思考者
驯服的
被开垦的
驯养
驯服
失去锋芒
变得驯服
##keepers
1690
洋槐
刺槐
阿拉伯树胶
改革家
改革运动者
##osed
##rys
##iring
##shima
往东的
向东旅行的
离子的
爱奥尼亚的
爱奥尼亚韵律的
爱奥尼亚式的
爱奥尼亚方言
使杂乱
乱丢杂物
乱扔
使饱含
##oum
摇的人
摇杆
活塞在气缸内的不正常声
大声地嚼
格格地咬
格格地嚼
咀嚼声
压倒性地
不可抵抗地
文明社会
社会文明
人类文明的生活
单桅帆船
有收养关系的
采用的
##tish
滑冰者
##vres
芒果
##joy
尖锐的响声
发尖声
尖声发出
##ignon
医药品
##mg
金枪鱼
金枪鱼肉
卡尔弗特
古斯塔沃
提供货物
年鉴
##urai
##mana
subspecies
连复段
河内
kelvin
hamid
系泊
生活状况
工作条件
传票
唤出
讨伐异教徒
拥护运动
神酒
甜美饮料
甘露
##ctors
无称号的
无标题的
无合法权利的
令人喜爱的
成员具有平等权利的)团体
出众的才华
##η
##ulio
##tou
格式上的
体裁上的
sb
##ی
令人安慰的事物
常与…交往
h₂o
walden
遗孀
##iens
404
##ignment
矮胖的人或物
288
粗砂石
覆以砂砾
咬牙切齿地说
摩擦作声
##dev
吼叫
怒骂
社会学的
##arte
##gul
打听
##held
青肿
挫伤
受伤
研碎
clube
与商量
找看病
同种的
同质的
齐性的
大黄蜂
马蜂
马蜂窝
一大堆麻烦
乘法
乘法运算
意大利面食
一刺
救助者
救世主
救星
##grin
##kou
##phile
尹
允
##gara
grimes
消没的
令人振奋的
护理学士
平衡网络
酒厂
##quisite
##vity
卓越中心
报名确认
计算机优化均衡
公共操作环境
海军工厂
山丘
##jord
voss
##valent
字节
位组
斩碎
大量削减
hawke
错误观念
工作方式
活动方式
飘浮物
花车
##koto
##vac
安纳波利斯
##onus
alvaro
noctuidae
##cum
##scopic
为报复
特长
拿手
给…加插图
埃里卡
##trip
570
露珠
露水
沾湿
结露水
糠
麸
口渴的
多样化的
硬挤
##standing
纵火
纵火罪
##lessness
##dran
##logram
##boys
##kushima
##vious
willoughby
##phobia
286
alsace
徐怀钰
友希
##chai
granville
“我的空间”
美国在线社交网站名称
##gang
形容词
形容词的
##ater
遗物
遗风
重组
适应症
撒克逊蓝
蛋白照相纸
##lassified
iec
padua
无能为力地
无助地
resources
allocation
multiproject
scheduling
资源分配和多项目的行程安排
土堤斜坡
斜道
斜路
活动梯
重命名
正规军人
主力队员
读音符号
不准确的
超自然力量
##pati
barrie
“out
某处
贝里克郡
伯威克
下齿面加工
侧面攻击
侧翼的
侧面相接
置于…的侧面
叫唤
髓
骨髓
稀少地
不足地
摘由
节选
clothe
##ginal
weep
##straße
##vish
亚莉克莎
擅长
胜过其他
##ptive
隔膜
膜状物
aquitaine
小港
刀匠
刀剪商
sheppard
##dur
芬芳
微微移动
羔羊皮
肯考迪娅
镁
马塞洛
##antes
高兴地
欢喜地
##rral
##ggles
montrose
##omba
seamus
1630
太过自信的
##ament
##uen
bjorn
##rrick
外场员
守队队员
##lase
甲基
kimberley
mcdowell
有倒刺的
##jic
##tonic
航空学的
使分心
##promising
深呼吸
气喘吁吁
上气不接下气
空发脾气
##cala
##sle
claudius
不能征服的
无敌的
敬神的
尽责的
可嘉的
不可能实现的
容量约为13夸脱的一种大型酒杯
ci
##lang
孤峰
小型爵士乐团
orson
##dication
无数的人
种种的
1707
使沉默
##fed
##rh
椰子树
无挡板蓝球
你们自己
##oza
使明晰
捷克货币
昔德国之小铜币
钉木钉
使受约束
坚持不懈地奋力于
疾行
durban
练习曲
无礼的人
得罪人的人
烘烤
烘烤的
烤过的
炙
曲率
##woods
低廉的
309
禁止的
suriname
##linson
主动表示
事件的开端
提案
初步交涉
为奏前奏曲
1685
体操运动员
##mming
##ouin
maldives
##bala
轮床
邮件车
##dda
##eased
##oides
黑白花斑的
花马
菜豆
##rdial
准男爵爵位
=frankfurter
恰当地
##rke
野蛮人
杯吸法
拔火罐
有裂纹的
有瑕疵的
##thesis
女式上衣的宽领
pleistocene
水坑
胶土
搅浊
搅炼
在泥污中打滚
捣制成胶土
##nob
##tically
疾驰的
飞逝的
前列腺的
前列腺
##mined
##iti
##tler
jens
回答问题的人
调查对象
分析方法
对女人彬彬有礼的绅士
对女人献殷勤的男子
英内战时查理一世的支持者
罗马教皇职位
教皇权
教皇世系
拉朱
##iente
##ulum
##tip
漏斗
漏斗状的东西
271
迪斯尼乐园
##lley
社会学家
##iam
2500
福克纳
天窗
##dson
276
##ower
下半生
mannheim
肽
缩氨酸
证明人
公断人
审阅人
丑角
无意义的
##anger
##laise
纤维织物
赫尔利
肾脏的
肾的
为…提供床位
##bour
##icle
越狱
突围
路旁
路边
路边的
赋与生气者
鼓舞者
漫画制作者
红花草
鄙弃
不安全的
不安稳的
##urity
峡湾
barnsley
陆上运输
转到陆上运输
重新设定
重新组合
重排版
重置
清零
纽约湾海峡
268
扩张性的
使扩大的
不会说话的
说不出话的
无言的
非言语所能表达的
烂醉的
管状的
##lux
睫毛
smashwords
##yad
##bang
##claim
短距离疾跑
切特
somme
astor
wrocław
orton
266
祸根
灭亡的原因
灭亡
##erving
##uing
##amps
##sund
鱼鳞
鳞片排列
去鳞
鳞片剥落
攀登进攻
按比例测量
按比例缩放
Trans-Europe
Railroad
Express
横贯欧洲铁路特别快车
##xious
进攻方法
攻势
在下面挖
渐渐破坏
暗地里破坏
惯性矩
感染复数
英国新闻部
英国内政部
大豆
世外桃源
阿卡狄亚
因纽特人的
缝合线
衔接口
线缝
缝合
焊合
使留下伤痕
发生裂痕
##tops
macbeth
反叛
##icative
##iot
590
详尽说明
变得复杂
详细制定
详尽阐述
frs
使成一样
使一律化
##dberg
259
无权的
无效能的
普里西拉
受激的
980
qc
树木园
植物园
trieste
阉牛
##nified
强化的
白花花的
闪亮的
实习生
被拘留者
作实习医师
##adia
ollie
ike
扎捆
右舷
右侧
向右舷
转向右方
向右转舵
ee
挂毯
绒绣
用挂毯装饰
给…加标题
heave
作弊的
非法操纵的
##vite
##yme
茁壮成长
成群的
集束的
中国科学院
计算机技术学会
控制自动化系统
投资回收率
奥林匹克世界运动大会
四年周期
##lino
感受压力的
政治制度
组织方法
管理体制
##hosis
##lick
ripley
##ophone
肇始
rockwell
##arable
改革者
胶
粘性物
粘合
不规则性
加扰
1714
grover
##jure
englishman
aztec
263
考虑接受
深思熟虑
苦思冥想
女巫大聚会
苹果平板电脑
传道
宣讲
得意洋洋的
塔夫茨大学
##esian
转动的
##phus
328
falkland
##brates
strew
clarissa
再加入
重新聚合
有关环境方面
迅速移动
有带子的
使湿透
在某人上大量使用
壕沟
护城河
将围以壕沟
albanians
johor
无线电航向信标
雷达测距
无线电接受器
连流继电器
阻力比
音乐大师
大音乐家
莫利
新近到达的
新近产生的
荫蔽的
色彩较暗的
分类学
分类系统
v6
依附
粘着
使粘附
铺位
睡在铺上
提供铺位
##ritan
1741
雷明顿
tran
##erative
amelie
马自达汽车
品德
伦理
##zai
##hae
argus
burnham
爱抚的
表现爱情的
内部的人
权威人士
知道内情的人
红眼鱼
##imov
##mini
##rso
italianate
凶狠的
杀人的
文本的
原文的
四轮运货马车修造工
编法
织法
编织式样
编排
使迂回前进
迂回行进
计时员
##taken
##nh
联邦铁路局
联邦储备法
流量警报记录器
自由基型
##crest
燃烧般的
salazar
熄灯号
熄灯鼓
tunis
##ntino
快板
腺
密封套
乐善好施的
##chester
##optera
环境征候问卷
贝索
瑞士名表品牌
方差
judas
显而易见
值得注意
永利
##dara
有英寸刻度的
英寸的
编入索引的
有索引的
骤变
转折点
决定性时刻
危象
转换期
极期
临界
villiers
版税
稿酬
被组成图案的
食橱
餐具柜
从犯
同谋的
帮凶的
副的
伊斯拉
kendrick
全体随行人员
陪同人员
缝针
针法
缝线
线步
##esthesia
源头
上游
##ior
幕间
幕间时间
穿插
过场
1727
##basket
有偏见的
平方码
石油天然气行业标准
叙利亚
苏丹黄
瞬
短期居留者
过境鸟
瞬变现象
瞬变的
路过的
三件一组
三和音
亚属
基德
游击手
停显液
##umatic
朦胧
有穗的
mcleod
内莉
比勒陀利亚
风车
##cek
##mps
273
再联合
##orous
747
银行主
银行经理
边远的
题外的
##omp
##ports
##tream
道歉语
容易受骗的人
##deh
##ocks
##yson
扭弄物体的人
六便士银币
饮酒作乐
nantes
宁静的
安详的
晴朗
##nad
lucha
323
##cius
##gli
cmll
造币
内斯特
聪明的长者
华瑞兹市
##rook
涂抹
擦上
污迹斑斑的
喷雾的
不孕的
无菌的
枯燥的
irina
稚气
折叠条
迅速蔓延的恶劣的或危险的事物
冰激凌品牌
定量
大口地吸
哽住
luisa
有顶饰的
有冠毛的
有饰章的
用力打下去
重拍
用劲打击
长打
全垒打
donegal
##anov
##acker
赫斯特
##lika
门铃
ua
vicki
##alla
##som
毕尔巴鄂
心理学研究者
斯特赖克
sw
turkmenistan
##national
安森
爱立顺
mathew
筛后残余的物
筛屑
##umb
##agne
##nessy
##iani
##osphere
hines
肯顿
唐棣
塔莎
塔沙
切短的
缩短了的
截短的
削去尖角的
##champ
##itan
米尔德里德
提建议
腓特烈
禁制因素
抑制因子
阻止剂
##athi
光谱学
##hab
##kong
karim
大熊猫
小熊猫
##oia
##nail
##vc
征服者
克格勃
苏联国家安全委员会
白血病
白血球过多症
##dity
进站
pisa
启明星
金星
磷
磷光体
屏蔽了的
防护的
铠装的
##riated
哺乳动物
unitarian
急切地
迫切地
紧急地
肖邦
公共厕所
##mission
香的
多香料的
投放麻醉药
下麻醉药
铰链
##tort
倾卸台
试验者
试验物
审问者
用尽了的
韦斯切斯特
##caster
267
新纪元
不着陆的
不休息的
不休息地
直达车
直达行驶
##gman
##khov
芬芳的
在中心
在中央
cerro
##tively
##vio
沉渣的
沉淀物的
由沉淀物所生成的
283
暴虐的
极无礼的
goldstein
##eak
##kt
ld
maitland
倒数第二的
无角的动物
截去树梢的树
麸皮
截去树梢
##dance
捕鱼船队
机群
宇宙飞船
椎骨
脊椎骨
##nig
酗酒
酒精中毒
als
吟诵
##bham
##ference
##omics
##bm
trois
##tropical
##в
##meric
##raction
1643
670
化妆用的
劫掠
##ige
大灾难
大祸
eng
##shida
albrecht
动脉的
脉络状的
贝拉米
哈蒙
##rde
灯泡
鳞茎
大浇斗
同步化的
维托
shetland
wnba
##glers
##ssar
##riam
布丽安娜
cumbria
##aceous
##rard
芯部
果心
金缕梅
赛耶
##nsk
一窝
小山顶
购物车
主调音
说明基本政策
定基调
larkin
logos
##cta
##ا
##mund
##quay
住在荒野而拐掠小孩的魔女
带色彩的
277
角力
扭斗
斟酌
与摔跤
动员
活动法
##uses
后果的
siam
布洛姆菲尔德
高梁
274
##ieving
演播员
张灵康
猛烈地燃烧
富于机智的
##oven
##ignant
haydn
受到损害
水螈
therese
##peed
gershwin
molina
犹太教祭司
犹太教律法专家
sudanese
001
先天的
##sack
##fus
锅铲
削球
wb
##shah
使加入
参军
有待证实的
歇斯底里的
异常兴奋的
1743
法比奥
乖戾的
弄弯
使不合情理
使乖戾
##hg
525
不适合的
##sboro
gallo
1603
布雷
钴
钴类颜料
##hunter
中性
##dhar
上闩
闩上
轮生体
螺旋环
涡
##ctuated
##eaux
节目次序
结带
韧带
不再抵抗
被压垮
##gly
整时器
监管者
产卵
酿成
大量生产
##brick
##stead
filmfare
rochelle
##nzo
1725
补充品
增补物
补脉
##nsky
##tson
crowe
韦尔兹利
胡萝卜
##9th
##movable
灵长目动物
drury
论题的
时事问题的
##mad
##rao
callahan
kyiv
以牙还牙
山雀
松开
##yeh
注意事项
地方行政区域
星云
角膜云翳
##islaus
##shaft
##tyn
卫士
警卫员
2021
牲口棚
仓房
简陋的大建筑物
emmett
scully
##mah
##yd
##eland
##tino
##itarian
gorman
具睫毛的
被看作最有价值的
adventist
书面命令
##gui
如同…一样的
无脊椎动物
##ausen
1641
amman
1742
使结盟
使成一行
healy
重新分配
再分发
##gf
##rize
绝缘
##drop
徒子徒孙
hezbollah
在试管内
蕨类
269
个人网页
服务器端编程语言
菲律宾比索
水解聚丙烯酸胺
登记的
套版
uppsala
带领啦啦队
恶作剧的
胡搅的
tully
##ross
船停靠码头
对接
扣除
徜徉
南瓜
##bry
提醒物
提词
付款期限
提词员的
准时地
##ezer
手艺人
名匠
工匠
意志薄弱的
少妇
灯心草篓
有香味的
洒了香水的
有嗅觉的
攀缘
紧急起飞
杂乱蔓延
使混杂
毛发蓬乱的
粗浓的
海绵
海绵状的东西
用海绵擦拭
吸收掉
抹掉
采集海绵
海绵般吸收
耳轮
zaragoza
279
##52
43rd
后冲
强烈反对
fontaine
癫痫
一团
地方武装团队
cowan
写实文学
浪漫电视肥皂剧
wwii
锤成的
铸打成的
没有做好
破灭的
解开的
##gpur
美国国税局
##ivation
天花
##belle
##osaurus
shandong
山地
高地的
山地的
脸红的
羞愧的
rankin
无数地
普赛克
赶出
##col
未被注意的
无记号的
无标志的
##lving
格言
土地神
印字
刻字
musique
##oint
善意的
##jal
涂上辣椒粉和调味品后油炸的
变黑
把…弄黑
发暗
诋毁
##anna
mccall
专供比赛用的动物
比赛用的车辆
感到刺痛
使感刺痛
耳鸣
##ocene
##orestation
引言
引进
新采用的东西
根本地
292
##hiff
##باد
1610
1739
慕尼黑
提出借口
托称
##nka
共同统治
共管下的政府
共管
多层公寓大楼
由个人占用的一套公寓房间
剪刀
##sight
##tens
忧惧
##cey
##yin
纯度检验证明
品质证明
加盖纯度检验证明
洒水
冲淡
搀水
供水
浇水
排水渠
程式
制造法
配方
惯用语句
俗套话
余波
##llas
恶化的
航空工程学士
##building
埃菲尔德式步枪
恩菲尔德
marne
vedic
文明的
有礼的
euclidean
突如其来的强劲气流
狠打
发出刺耳的高音
向…猛吹
向…喷射
dumont
##arney
##nem
740
彻底改变
改建的房屋
橄榄球附加得分
rios
模拟器
假装者
##dya
##lellan
保护手段
防止损失的手段
oleg
论据、政策等的)要点
猛塞
附有阴影
取最大值
使增加到最大限度
1744
gregorian
##nded
##routed
假
装假
未特别指出的
未特别提到的
##hog
埃默里
事实的
##smo
##tp
耍弄
说蠢话
##rger
ortega
marlon
##oton
##urance
首饰盒
小箱
匣子
keating
轮作草地
被包围的领土
##ayan
家庭杂务
炭
烧焦
影响的
幼年特发性关节炎
##chenko
412
氨水
阿摩尼亚
erebidae
不相容的
不能并存的
##arat
沟
老一套
音乐节奏
columbian
猖獗的
跃立作扑击状的
虚构的谎言
kyushu
mahmud
成为零
##dern
mesopotamia
##lete
结缔组织炎症
粘土工艺学会
##rgen
caspian
吴克群
有凹痕的
有麻点的
去核的
##vered
999
鬼脸
怪相
扮鬼脸
作怪相
罗诺克
tchaikovsky
成双成对的
一胎双生的
##analysis
##awan
xinjiang
arias
哈萨克人
相当大的
大小相当的
1662
##khand
##vard
钻进
跳进
跳水池
猛跌
开始从事
盲目投资
投身于
陷入
使投入
使插入
使陷入
tatum
vittorio
##nden
霍乱
##dana
##oper
振奋精神的
联条
背带
不重视
无兴趣
漠不关心
发射体
抛射物
发射的
投射的
superliga
##chee
提高品位
299
porte
##vies
日本海事协会
北加拿大航空公司
标准试验接口语言
##resses
ama
官僚
官吏
黑莓
博世
睾丸激素
greer
##pathic
ioc
五十几
五十年代
购物中心
##erved
非洲石子游戏棋
siegfried
##osity
##tosis
生存的
羽毛初长的雏鸟
刚会飞的幼鸟
无经验的人
##cchi
不满的
显出不满的
电讯
远距离通讯
无线电通讯
混入
混进
与…交往
6000
公开辩论
落伍的
##raus
##lham
##fect
##tten
胎儿的
胎的
##uw
使磨损
被磨损
哥特人
奥林匹克竞赛的
奥林匹斯山的
托管
搔痒
笙
unspeak
hyundai
tracey
性急的人
暴躁的人
约束的
限制词
##buch
美国文物
美国文献
mundo
##bari
burroughs
歌剧女主角/首席女主角
主要女歌手
##6th
发出重击声的
##ngen
米奇
流下
树叶脱落
springsteen
穿衣服的
既得的
价值判断
##ece
##ely
小尖塔
高峰
造小尖塔
置于尖顶上
耙子
钱耙
sylvie
##edo
杏仁
抖动的
##irus
支吾其词
##wad
51st
水螅
九头蛇
难以根除之祸害
被套
##kato
托
使显得吸引人
##dicated
antigua
阿尔琼
公共马车
威尔弗雷德
细流
细细地流
使滴
使小量流动
代名词
代词
##pon
aryan
夜间
##anian
五倍子
肿痛
恼怒
磨伤
被磨伤
豌豆
似豌豆的东西
一针
碎布条
针脚
##hei
梁/亮
莱翁
买罗高梁
西非高梁白
##dini
eritrea
降雪
降雪量
康德
寄生的
由寄生虫引起的
行军床
铁饼
掷铁饼比赛
花之武者
刘荷娜
魔法少女奈叶
appleton
##erina
##partisan
##itha
##vius
##channel
1701
tesla
##vera
艾鼬
艾鼬毛皮
1735
纯种的
血统优良的
##tila
十进位的
小数的
十进制
小数
##tang
##bai
气旋
恩
内源性尿氮
瓶装的
彭萨科拉
茅顶竹舍
玻利维亚的
玻利维亚人的
蟹
阴虱寄生病
蟹肉
煮沸
疖
鹧鸪
山鹑
有顶的
1645
##phila
##kla
##lland
##nche
euroleague
自杀性的
自我毁灭的
##dee
内在地
生来地
固有地
自然而然的
不随意的
编结
针织法
针织
编结法
编结物
针织品
nasser
##hide
受他人操纵的人或集团
颜色丰富的
多色的
丰富多彩的
引人入胜的
southend
奇迹的
hodgson
更富有的
rochdale
ethernet
格里塔
棱镜
棱柱
##haya
##itical
##utation
英勇
超凡技术
##ropriation
入侵检测系统
斯克兰顿
比林斯
次大陆
##koff
##scope
残忍或好色之人
畜生的
kellogg
圣经旧约中的诗篇
落泊的
退化的
##vez
stanisław
##ructured
ferreira
双关语
俏皮话
说双关语
说俏皮话
用双关语说服
捣实
gunnar
##yat
阿里亚
prc
gottfried
##tight
游览圆
短程旅行
##ographer
##quil
##nare
威尔伯
gundam
##zard
naacp
##odle
建设性的
构造上的
##naud
毛骨悚然的
令人发抖的
基线
宽吻鳄
凯门鳄
frankish
塑料制造学
塑料学
整形外科
成形外科
塑料制品
住房
居住设施
动物学的
##fting
塞德里克
定量电池
摩托化的
机动化的
##dome
##otted
长声尖叫
用长而尖锐的声音说
canucks
原地
哮喘
dail
有山形墙的
人字板制作的
啜泣或呜咽着说
扭动或翻滚
##65
minnie
产品鉴定
票面值
撑杆跳高
卯酉圈
##carbon
格子窗
拱形结构
穹顶
西班牙域名
欧绮霞
莫妮可
odin
maguire
马卡姆
tierney
##estra
##chua
以文字损害名誉
诽谤罪
损害名誉
捅
行动散慢
心房
laval
##edly
国际航空协会
##sur
robb
##sma
luz
追加的
天津
##acing
恩佐
jd
英国皇家化学学会
扫描仪
扫描盘
审视者
克罗地亚人
[...]
